unsigned char g_model[] = {
  0x20, 0x00, 0x00, 0x00, 0x54, 0x46, 0x4c, 0x33, 0x00, 0x00, 0x00, 0x00,
  0x00, 0x00, 0x12, 0x00, 0x1c, 0x00, 0x04, 0x00, 0x08, 0x00, 0x0c, 0x00,
  0x10, 0x00, 0x14, 0x00, 0x00, 0x00, 0x18, 0x00, 0x12, 0x00, 0x00, 0x00,
  0x03, 0x00, 0x00, 0x00, 0x90, 0x4e, 0x00, 0x00, 0x1c, 0x43, 0x00, 0x00,
  0x04, 0x43, 0x00, 0x00, 0x3c, 0x00, 0x00, 0x00, 0x04, 0x00, 0x00, 0x00,
  0x01, 0x00, 0x00, 0x00, 0x0c, 0x00, 0x00, 0x00, 0x08, 0x00, 0x0c, 0x00,
  0x04, 0x00, 0x08, 0x00, 0x08, 0x00, 0x00, 0x00, 0x08, 0x00, 0x00, 0x00,
  0x11, 0x00, 0x00, 0x00, 0x13, 0x00, 0x00, 0x00, 0x6d, 0x69, 0x6e, 0x5f,
  0x72, 0x75, 0x6e, 0x74, 0x69, 0x6d, 0x65, 0x5f, 0x76, 0x65, 0x72, 0x73,
  0x69, 0x6f, 0x6e, 0x00, 0x12, 0x00, 0x00, 0x00, 0xbc, 0x42, 0x00, 0x00,
  0x8c, 0x42, 0x00, 0x00, 0x7c, 0x2e, 0x00, 0x00, 0x4c, 0x2e, 0x00, 0x00,
  0x3c, 0x06, 0x00, 0x00, 0x34, 0x06, 0x00, 0x00, 0x2c, 0x06, 0x00, 0x00,
  0xec, 0x05, 0x00, 0x00, 0x9c, 0x05, 0x00, 0x00, 0x94, 0x05, 0x00, 0x00,
  0x74, 0x05, 0x00, 0x00, 0x6c, 0x05, 0x00, 0x00, 0x64, 0x05, 0x00, 0x00,
  0x3c, 0x05, 0x00, 0x00, 0x2c, 0x00, 0x00, 0x00, 0x24, 0x00, 0x00, 0x00,
  0x1c, 0x00, 0x00, 0x00, 0x04, 0x00, 0x00, 0x00, 0xb6, 0xbb, 0xff, 0xff,
  0x04, 0x00, 0x00, 0x00, 0x05, 0x00, 0x00, 0x00, 0x31, 0x2e, 0x35, 0x2e,
  0x30, 0x00, 0x00, 0x00, 0x4c, 0xb7, 0xff, 0xff, 0x50, 0xb7, 0xff, 0xff,
  0xd2, 0xbb, 0xff, 0xff, 0x04, 0x00, 0x00, 0x00, 0x00, 0x05, 0x00, 0x00,
  0xb9, 0x31, 0x39, 0x17, 0xda, 0x0e, 0xef, 0x2f, 0x16, 0xba, 0x2b, 0xbc,
  0x8f, 0xf5, 0x90, 0xd6, 0xd5, 0x45, 0x9e, 0x1c, 0x33, 0xd2, 0x22, 0x50,
  0x00, 0xc7, 0xea, 0x2e, 0xf7, 0x4a, 0xf2, 0x05, 0x0c, 0x07, 0x1f, 0x31,
  0xe9, 0x21, 0xcb, 0x8a, 0xec, 0x7f, 0xf9, 0x26, 0x1b, 0xf2, 0xc4, 0xad,
  0x0c, 0x1b, 0x2c, 0x4e, 0xf2, 0xa9, 0x5d, 0xda, 0xc7, 0xc7, 0x2e, 0xaf,
  0xf0, 0x22, 0xd3, 0x11, 0x1e, 0x32, 0x0f, 0xda, 0xc6, 0xdc, 0xfb, 0x1e,
  0xc2, 0xef, 0x06, 0xf0, 0x10, 0xe9, 0x7f, 0x33, 0x22, 0x07, 0x09, 0x32,
  0x1b, 0x4d, 0x10, 0xce, 0x8b, 0xa4, 0x3b, 0xb9, 0x44, 0x1c, 0x44, 0x50,
  0xd6, 0xc5, 0xf8, 0xb1, 0xc5, 0xca, 0xe5, 0xd4, 0xac, 0x14, 0x38, 0x12,
  0x1b, 0xc4, 0xe3, 0xba, 0xf4, 0xed, 0xcb, 0x5c, 0xd8, 0x2b, 0xf1, 0xf3,
  0x08, 0xf0, 0x47, 0x4d, 0x31, 0xf9, 0xa9, 0xbe, 0x22, 0xbd, 0x56, 0xe0,
  0x1f, 0xe1, 0x8d, 0xf0, 0x03, 0x69, 0xd5, 0xed, 0x20, 0xc8, 0x1e, 0xe4,
  0xff, 0x24, 0xcd, 0x43, 0x81, 0xea, 0x0f, 0xd6, 0x3a, 0xe0, 0x3e, 0xb3,
  0xd1, 0x1c, 0xb9, 0x1e, 0xe4, 0xc1, 0x7f, 0x47, 0xd0, 0xde, 0x89, 0x66,
  0xe0, 0x4d, 0xc6, 0xee, 0x27, 0x20, 0x1a, 0xef, 0xd6, 0x3f, 0x02, 0x30,
  0xf0, 0xb5, 0xbc, 0xf0, 0xb3, 0x54, 0x61, 0x58, 0x37, 0x4a, 0x5c, 0x0d,
  0xb8, 0xf6, 0x3a, 0xff, 0xf1, 0x0e, 0x5d, 0xf7, 0x10, 0x45, 0x24, 0xcb,
  0x04, 0xe0, 0xb7, 0x6f, 0xee, 0xb6, 0x3c, 0xf1, 0xfb, 0x01, 0x2a, 0x8f,
  0x22, 0x58, 0x1b, 0x1e, 0x9c, 0x19, 0xeb, 0xb8, 0xcb, 0xdd, 0x88, 0x37,
  0xea, 0x2e, 0xbb, 0xdb, 0xad, 0x32, 0x03, 0x08, 0xac, 0x45, 0x0a, 0x17,
  0xb2, 0x4e, 0x00, 0x10, 0x4f, 0xef, 0xed, 0xe8, 0xff, 0x4c, 0xf6, 0x08,
  0xd3, 0xe8, 0xfa, 0x44, 0xec, 0x64, 0xc2, 0x5c, 0x14, 0x03, 0x11, 0x13,
  0x23, 0xd5, 0x09, 0xf7, 0xf0, 0xe2, 0x10, 0x00, 0x8c, 0x07, 0xf6, 0xf3,
  0x18, 0x50, 0xad, 0x43, 0x3c, 0xc9, 0x4d, 0x47, 0x3e, 0xfb, 0x74, 0x84,
  0x29, 0xea, 0x9d, 0xf4, 0x2f, 0xa2, 0x25, 0x14, 0xf0, 0xe1, 0x40, 0x3d,
  0xce, 0xe1, 0xe5, 0x2d, 0x18, 0x4d, 0xc4, 0x81, 0x12, 0xf0, 0xb5, 0xdc,
  0xb6, 0x00, 0xc6, 0x5d, 0xa4, 0x02, 0x38, 0x6c, 0x5c, 0xcd, 0xe4, 0x59,
  0x38, 0x3c, 0xcd, 0x3d, 0xe5, 0xed, 0xc5, 0x0f, 0x25, 0xd3, 0xc8, 0x39,
  0x7f, 0x3d, 0x17, 0x52, 0x97, 0x2c, 0xbc, 0x83, 0xc0, 0xaa, 0x54, 0xef,
  0xe4, 0xd9, 0xe9, 0x9a, 0xe9, 0xd1, 0xc7, 0x06, 0xac, 0x91, 0x0b, 0x1e,
  0xcc, 0x46, 0x01, 0x49, 0xd2, 0xe1, 0x27, 0x05, 0xfe, 0x4f, 0x59, 0x9e,
  0x30, 0x01, 0x14, 0xe7, 0xfd, 0x8b, 0xe9, 0xc4, 0xd5, 0xd6, 0xd4, 0x15,
  0x33, 0xd4, 0xd6, 0xe0, 0x26, 0x59, 0x46, 0x60, 0xfd, 0x0b, 0x03, 0x61,
  0x47, 0xf7, 0xdf, 0xb6, 0xe5, 0xac, 0x21, 0x6f, 0xcd, 0xf3, 0xdb, 0xfd,
  0x29, 0x9f, 0x69, 0x2b, 0x14, 0xad, 0xfe, 0x61, 0xc3, 0xf5, 0xc4, 0x43,
  0xfd, 0xfe, 0xb6, 0x66, 0x65, 0xb5, 0x01, 0xed, 0x2c, 0x11, 0x40, 0x17,
  0x08, 0x00, 0x4b, 0xd6, 0xc2, 0x54, 0x1b, 0xcc, 0xc9, 0xff, 0x06, 0x2d,
  0xc6, 0x15, 0xef, 0xaf, 0xde, 0x19, 0x16, 0x2f, 0xee, 0x1f, 0x3b, 0x04,
  0x72, 0x93, 0x32, 0xd7, 0xf3, 0xe6, 0x46, 0x28, 0x0a, 0x3d, 0x3f, 0x23,
  0xe7, 0x3c, 0xa8, 0x16, 0x83, 0xf7, 0xa8, 0x2f, 0x45, 0xdd, 0x37, 0x50,
  0xed, 0xc1, 0x2c, 0xd9, 0xcb, 0x42, 0xcc, 0x1d, 0x3e, 0x6c, 0xd0, 0x1d,
  0x72, 0x46, 0x14, 0xd0, 0x38, 0x02, 0xf9, 0x49, 0x04, 0xe5, 0x0a, 0x55,
  0x54, 0xe3, 0x0e, 0x26, 0x32, 0xfc, 0x16, 0xd0, 0xcf, 0x13, 0xe2, 0x06,
  0xd3, 0x23, 0xbe, 0xeb, 0xbd, 0x53, 0xe7, 0xd7, 0xd0, 0x18, 0x00, 0x2c,
  0x28, 0xe0, 0x04, 0xf2, 0x06, 0x9a, 0xbd, 0x16, 0x02, 0xed, 0xc3, 0x19,
  0xb3, 0xdb, 0x6d, 0xdf, 0xc2, 0x0e, 0xfe, 0xfe, 0xd9, 0x37, 0xb8, 0x3b,
  0x19, 0xe2, 0xd7, 0xc9, 0xf2, 0x3e, 0xb0, 0x09, 0x35, 0x89, 0xd5, 0x2a,
  0x40, 0x42, 0xe0, 0xc8, 0x4f, 0xba, 0xfd, 0xe7, 0xde, 0x66, 0x12, 0xfd,
  0x12, 0xa8, 0xf2, 0x2a, 0xdb, 0x57, 0x11, 0x67, 0xd9, 0xf5, 0xd0, 0x44,
  0x7b, 0x2a, 0xc6, 0x5d, 0xf3, 0xb6, 0x7d, 0xc5, 0x38, 0xe8, 0xb7, 0x2d,
  0xfd, 0x47, 0xb3, 0xc8, 0x11, 0xcb, 0x17, 0x07, 0xee, 0xc0, 0x33, 0xa8,
  0xda, 0xc7, 0x45, 0xe9, 0xb3, 0x1d, 0x22, 0x27, 0x39, 0x23, 0x57, 0x18,
  0x02, 0x78, 0xe4, 0x84, 0x05, 0x1c, 0xeb, 0x33, 0x56, 0x9e, 0x0f, 0x40,
  0xf5, 0x04, 0x1b, 0x1d, 0xd7, 0x2d, 0x23, 0x0c, 0xeb, 0xc6, 0xe7, 0xdb,
  0x60, 0xbc, 0x14, 0x91, 0xa0, 0xdf, 0x74, 0x1b, 0xd1, 0x64, 0xcb, 0xc0,
  0x11, 0xfd, 0xff, 0xe9, 0x0f, 0x00, 0x5c, 0x4b, 0xe4, 0x07, 0x97, 0xec,
  0xc0, 0x21, 0xa0, 0xf7, 0x82, 0xb4, 0xb9, 0x15, 0x2e, 0x9b, 0x03, 0xa8,
  0x08, 0xf8, 0x1f, 0xe4, 0xd5, 0xa1, 0x37, 0x43, 0x1e, 0x06, 0x7a, 0x54,
  0x03, 0xbb, 0x32, 0xfb, 0x58, 0xeb, 0xe1, 0x7a, 0xd6, 0x0a, 0xfd, 0x95,
  0x5f, 0xd3, 0xb7, 0xe7, 0x7f, 0xb2, 0x53, 0x3c, 0x38, 0xe0, 0x62, 0x9e,
  0x0e, 0xdf, 0xfd, 0x1f, 0x1b, 0x19, 0xe7, 0x59, 0x3f, 0x4b, 0x34, 0x8d,
  0xe7, 0xe7, 0x1e, 0xfa, 0x3d, 0xb8, 0x19, 0x41, 0xa0, 0x3a, 0xf7, 0xc5,
  0xc1, 0x09, 0xd8, 0xa5, 0xdd, 0x35, 0xd7, 0xfb, 0x27, 0xdf, 0x00, 0x0f,
  0xd1, 0xb7, 0x95, 0x2f, 0x84, 0x23, 0x38, 0xf2, 0x63, 0xd8, 0xca, 0xff,
  0xb8, 0x7f, 0xdd, 0x38, 0x2f, 0x21, 0x66, 0x92, 0xc3, 0xc7, 0x58, 0x96,
  0x43, 0x0f, 0x2b, 0x43, 0xf5, 0xc8, 0x01, 0xf9, 0x95, 0xd2, 0xf2, 0x18,
  0x56, 0x3c, 0xe3, 0xe2, 0xfd, 0xaa, 0x09, 0x09, 0x10, 0x75, 0xf5, 0x08,
  0xcf, 0x44, 0x99, 0xfe, 0x03, 0xd2, 0x1b, 0xc5, 0x1a, 0x81, 0xfb, 0x32,
  0x0c, 0xaf, 0xf4, 0x5b, 0x04, 0xec, 0x30, 0xaf, 0x54, 0xdd, 0x15, 0x50,
  0x1c, 0xce, 0xec, 0x43, 0xb0, 0xdc, 0x07, 0xdd, 0xb5, 0xe4, 0x60, 0x32,
  0x34, 0xe3, 0x09, 0x2f, 0xe9, 0x1d, 0x71, 0x01, 0x19, 0xc5, 0x26, 0xed,
  0xa4, 0xca, 0x31, 0x11, 0x6d, 0x4f, 0xfd, 0xdf, 0x67, 0x08, 0x07, 0x08,
  0x0c, 0x7d, 0x11, 0xf6, 0xeb, 0xec, 0xd8, 0x37, 0xf3, 0x25, 0x12, 0xec,
  0x51, 0x05, 0x05, 0xce, 0x3c, 0xf9, 0x0c, 0x2a, 0xde, 0x36, 0xcf, 0xf4,
  0x5c, 0xec, 0x0b, 0xf4, 0x98, 0xcf, 0xb1, 0x7f, 0x29, 0xfc, 0x44, 0xdb,
  0x19, 0xc4, 0x98, 0x7a, 0xc5, 0xf0, 0xe0, 0x48, 0xbb, 0xd0, 0xbb, 0xc9,
  0x38, 0xba, 0x30, 0x5c, 0xfb, 0x1d, 0x01, 0x25, 0x02, 0x08, 0xe6, 0xed,
  0x21, 0x49, 0x7b, 0x33, 0x18, 0x50, 0x0b, 0xda, 0xf2, 0x13, 0xea, 0x62,
  0x45, 0x3a, 0xf1, 0xcd, 0xec, 0x3a, 0xf0, 0x0e, 0x10, 0xe3, 0xc2, 0xb8,
  0x46, 0x36, 0x8d, 0xdb, 0x34, 0xc3, 0xd1, 0xb0, 0x7f, 0x45, 0xf7, 0x1f,
  0x20, 0xf6, 0x4f, 0x47, 0xd3, 0x6f, 0xef, 0x48, 0xf4, 0xfa, 0xdc, 0xdd,
  0x74, 0xcf, 0xee, 0x4e, 0xbd, 0xa6, 0x93, 0xfb, 0x5e, 0xe8, 0x6e, 0x1d,
  0xe5, 0x2c, 0xbe, 0xdd, 0xd9, 0x8b, 0xfc, 0xaf, 0xe6, 0x47, 0xea, 0x07,
  0xbc, 0x7f, 0xe9, 0xdc, 0x1b, 0xf0, 0x52, 0x2d, 0x5b, 0xbb, 0xb4, 0x1c,
  0xec, 0x3b, 0x3b, 0xe6, 0x46, 0x10, 0xdc, 0xe2, 0x23, 0x98, 0x2d, 0xc6,
  0x57, 0x41, 0xcf, 0x22, 0x05, 0xf7, 0x12, 0x8e, 0x33, 0x09, 0x1d, 0x28,
  0xe8, 0x75, 0xd4, 0x7f, 0x0f, 0x00, 0xa4, 0xa4, 0x66, 0x4c, 0xb1, 0xfc,
  0x34, 0xe5, 0xae, 0xdc, 0x10, 0xf5, 0xcf, 0xc9, 0x4c, 0x15, 0xe0, 0xf3,
  0x15, 0x04, 0x2f, 0x17, 0x01, 0x27, 0x2f, 0xfa, 0x16, 0xfc, 0x19, 0x04,
  0x92, 0xdb, 0x2d, 0xdb, 0x0c, 0xad, 0x23, 0x89, 0x88, 0xd3, 0xde, 0xe3,
  0xe8, 0xef, 0x41, 0x77, 0xf8, 0xce, 0x44, 0xe0, 0x21, 0x32, 0xd9, 0xeb,
  0xdc, 0xd5, 0x40, 0xc9, 0x87, 0x29, 0x37, 0xf4, 0x31, 0x1c, 0x67, 0x64,
  0xcd, 0xd4, 0xed, 0x65, 0xf0, 0x57, 0xfa, 0x81, 0xc6, 0x0b, 0x81, 0x0a,
  0xa9, 0x07, 0x5e, 0x3f, 0x0f, 0x08, 0xe8, 0x52, 0xe6, 0xcb, 0x0f, 0x29,
  0xa2, 0xde, 0xca, 0xb9, 0xaa, 0xea, 0x74, 0x48, 0xef, 0xe2, 0x20, 0x42,
  0x8f, 0x16, 0xed, 0xf1, 0x63, 0xb9, 0xed, 0xfb, 0xfb, 0x8c, 0x41, 0x1f,
  0x11, 0xe0, 0x79, 0xac, 0xa6, 0x14, 0x0c, 0xd9, 0x43, 0xc2, 0xdd, 0xfa,
  0x5d, 0x92, 0x09, 0xe9, 0xda, 0xff, 0x18, 0xea, 0xdf, 0x60, 0x7f, 0x3e,
  0xcd, 0x2c, 0xf8, 0x40, 0x87, 0x4c, 0xb5, 0x0d, 0xce, 0x33, 0xf7, 0x38,
  0xc6, 0x20, 0x40, 0xe3, 0xb8, 0xc3, 0xa6, 0xe0, 0x28, 0xc0, 0xc2, 0xc2,
  0xce, 0xdc, 0xaf, 0xf3, 0x61, 0x30, 0x0a, 0x54, 0x1a, 0xcb, 0x06, 0xb5,
  0x0a, 0x0a, 0x1b, 0x1e, 0x5d, 0xa3, 0x56, 0x18, 0x42, 0x34, 0x87, 0x2b,
  0x1a, 0x6b, 0x0f, 0xa3, 0xd9, 0x1c, 0x33, 0xe1, 0x18, 0x5f, 0xbc, 0xf0,
  0x18, 0xbb, 0x84, 0x6f, 0xee, 0x2e, 0x88, 0x9f, 0x1b, 0x2e, 0xf8, 0x50,
  0x3f, 0x46, 0xc9, 0xf6, 0x42, 0x0d, 0x69, 0x01, 0x2c, 0x4b, 0xfc, 0x00,
  0x56, 0xe3, 0xec, 0x90, 0xd3, 0x05, 0x5e, 0xe4, 0xcd, 0x38, 0xd0, 0x8f,
  0x0e, 0x1d, 0x1b, 0x07, 0x2c, 0xc8, 0xe3, 0xbf, 0xde, 0xc0, 0xff, 0xff,
  0x04, 0x00, 0x00, 0x00, 0x18, 0x00, 0x00, 0x00, 0x51, 0xec, 0xff, 0xff,
  0xde, 0xf5, 0xff, 0xff, 0xd5, 0x0c, 0x00, 0x00, 0x35, 0xff, 0xff, 0xff,
  0xdc, 0x06, 0x00, 0x00, 0xea, 0x0a, 0x00, 0x00, 0x84, 0xbc, 0xff, 0xff,
  0x88, 0xbc, 0xff, 0xff, 0x0a, 0xc1, 0xff, 0xff, 0x04, 0x00, 0x00, 0x00,
  0x10, 0x00, 0x00, 0x00, 0xff, 0xff, 0xff, 0xff, 0x31, 0x00, 0x00, 0x00,
  0x28, 0x00, 0x00, 0x00, 0x01, 0x00, 0x00, 0x00, 0xa8, 0xbc, 0xff, 0xff,
  0x2a, 0xc1, 0xff, 0xff, 0x04, 0x00, 0x00, 0x00, 0x40, 0x00, 0x00, 0x00,
  0x00, 0x00, 0x00, 0x00, 0x00, 0x00, 0x00, 0x00, 0x00, 0x00, 0x00, 0x00,
  0x00, 0x00, 0x00, 0x00, 0x00, 0x00, 0x00, 0x00, 0x00, 0x00, 0x00, 0x00,
  0x00, 0x00, 0x00, 0x00, 0x00, 0x00, 0x00, 0x00, 0x00, 0x00, 0x00, 0x00,
  0x00, 0x00, 0x00, 0x00, 0x00, 0x00, 0x00, 0x00, 0x00, 0x00, 0x00, 0x00,
  0x00, 0x00, 0x00, 0x00, 0x00, 0x00, 0x00, 0x00, 0x00, 0x00, 0x00, 0x00,
  0x00, 0x00, 0x00, 0x00, 0x76, 0xc1, 0xff, 0xff, 0x04, 0x00, 0x00, 0x00,
  0x30, 0x00, 0x00, 0x00, 0xc2, 0xf0, 0x04, 0xf0, 0x1c, 0xa9, 0xf5, 0xb5,
  0x49, 0xda, 0x02, 0xb6, 0xdd, 0x5b, 0xef, 0x1a, 0x4e, 0xda, 0x5b, 0x2f,
  0x34, 0xaf, 0xc7, 0xc2, 0xac, 0x26, 0x0f, 0xb6, 0x5c, 0xea, 0xe6, 0xf5,
  0xbe, 0x2e, 0x2c, 0x01, 0x32, 0xe5, 0xc1, 0x37, 0xb9, 0xfe, 0x22, 0xfb,
  0x7f, 0x47, 0x1b, 0x4f, 0x34, 0xbd, 0xff, 0xff, 0x38, 0xbd, 0xff, 0xff,
  0xba, 0xc1, 0xff, 0xff, 0x04, 0x00, 0x00, 0x00, 0x00, 0x28, 0x00, 0x00,
  0x40, 0xc4, 0xe6, 0xec, 0x03, 0xb9, 0x10, 0x0f, 0x24, 0xb5, 0x03, 0xb9,
  0xf2, 0xb4, 0xd0, 0x38, 0x09, 0xff, 0xe9, 0x02, 0xec, 0x09, 0x18, 0x3d,
  0x64, 0x37, 0xcb, 0x39, 0x27, 0x0d, 0x3d, 0xbe, 0x83, 0xd4, 0x5f, 0x19,
  0xf5, 0x1e, 0xb8, 0xe9, 0xde, 0xbd, 0xd9, 0x16, 0x5c, 0x09, 0x04, 0x26,
  0x1e, 0xf5, 0xd4, 0xd7, 0x08, 0x34, 0x54, 0x03, 0x13, 0x26, 0x95, 0x13,
  0xf2, 0x27, 0x28, 0x04, 0x00, 0x2a, 0x25, 0xe2, 0x04, 0x4b, 0x3d, 0x14,
  0x8d, 0xee, 0xe5, 0xcf, 0x24, 0x12, 0x7f, 0xbb, 0x01, 0x27, 0x42, 0xdd,
  0xdc, 0x07, 0xce, 0xc6, 0x2d, 0xbc, 0xef, 0x51, 0x10, 0x8a, 0x57, 0xf9,
  0x0b, 0xb9, 0xde, 0xd8, 0x94, 0x02, 0x1c, 0x08, 0x1c, 0x38, 0x1a, 0xe1,
  0x3d, 0xd3, 0x02, 0xa0, 0x32, 0xeb, 0xda, 0x0f, 0xfd, 0x2c, 0xbc, 0xd5,
  0x10, 0xcd, 0xcb, 0x17, 0xbd, 0x1d, 0x2b, 0xfc, 0x19, 0x49, 0xc1, 0x35,
  0x35, 0x47, 0x9b, 0x04, 0x21, 0x21, 0xe1, 0x09, 0x6e, 0x3d, 0x52, 0xdf,
  0x3f, 0xe9, 0xed, 0x6a, 0x07, 0x29, 0x01, 0xc7, 0xdb, 0x0e, 0xbc, 0xc2,
  0x33, 0xe4, 0x37, 0xb2, 0x7b, 0x4d, 0xd8, 0xf1, 0x06, 0xf5, 0xcd, 0x23,
  0xde, 0x30, 0x90, 0xe8, 0x23, 0x7d, 0xfc, 0x57, 0x23, 0x2a, 0xa7, 0x34,
  0xb5, 0x19, 0xe5, 0xf4, 0xf7, 0xc0, 0x6a, 0xf0, 0xfb, 0x60, 0x5c, 0x67,
  0x23, 0xf5, 0xfd, 0xe5, 0xcd, 0x03, 0x04, 0x99, 0x0b, 0x27, 0x3d, 0xfd,
  0x21, 0x1d, 0xe1, 0xe3, 0x08, 0x24, 0x29, 0xa3, 0x0a, 0x99, 0x6f, 0xde,
  0x05, 0x8e, 0xe2, 0xd1, 0x81, 0x7d, 0xf0, 0xf9, 0xca, 0xc5, 0xf9, 0xfe,
  0x0d, 0x33, 0x4b, 0x9f, 0xf5, 0x03, 0x18, 0xed, 0x97, 0xd2, 0xe0, 0xcb,
  0xf9, 0xed, 0x50, 0x26, 0x98, 0xc4, 0x79, 0x1c, 0x8d, 0x38, 0x1d, 0x5d,
  0xe9, 0x15, 0xf3, 0x79, 0xa9, 0x25, 0xc3, 0xbc, 0xad, 0x8b, 0x16, 0xd5,
  0xe5, 0xf3, 0x50, 0x2a, 0x1c, 0xc1, 0x8d, 0x46, 0x26, 0x03, 0x54, 0x2e,
  0x48, 0x2d, 0x08, 0x37, 0x92, 0x1c, 0xe8, 0x00, 0x09, 0xed, 0x05, 0x18,
  0x68, 0xa5, 0x43, 0xdf, 0xe2, 0xc8, 0x49, 0x19, 0x16, 0x23, 0xee, 0xc4,
  0xfa, 0xd9, 0x72, 0x25, 0xf2, 0xe0, 0xe1, 0x55, 0xfe, 0x0d, 0xac, 0x05,
  0xaf, 0x27, 0x96, 0xdb, 0x05, 0xd6, 0xc5, 0x20, 0xfa, 0x15, 0xab, 0x45,
  0x7c, 0x63, 0x0a, 0x23, 0x10, 0xc6, 0x24, 0x17, 0x1a, 0x63, 0x1c, 0xde,
  0x09, 0xc6, 0x18, 0xe6, 0xc9, 0x06, 0xe9, 0xac, 0x73, 0xa0, 0xd7, 0x1a,
  0xe4, 0x24, 0xe1, 0x36, 0x2a, 0x4c, 0x3e, 0xcb, 0x3d, 0xda, 0x53, 0x02,
  0x39, 0xe7, 0xd2, 0x08, 0x11, 0x31, 0x3f, 0xd9, 0x28, 0x12, 0xf6, 0x1c,
  0xc8, 0x42, 0x1d, 0x5a, 0x6d, 0xe4, 0xad, 0xf8, 0x4e, 0xc0, 0x0a, 0x26,
  0xfe, 0xe2, 0xe8, 0xe9, 0xed, 0x58, 0x09, 0x0f, 0xaf, 0xa3, 0xb2, 0x57,
  0x47, 0x54, 0x31, 0xfd, 0xfe, 0xa2, 0x26, 0xe0, 0x0e, 0xc0, 0x74, 0x0f,
  0xe6, 0xf6, 0xb0, 0x5a, 0xf5, 0xce, 0xe0, 0x3a, 0x2d, 0xcb, 0x44, 0xf4,
  0x60, 0x4c, 0x1e, 0xdf, 0xcd, 0xce, 0x2f, 0x0f, 0x29, 0xbc, 0xff, 0xcc,
  0x01, 0xef, 0xb3, 0x32, 0x24, 0x1e, 0xf4, 0x57, 0xca, 0xe6, 0xe2, 0xe3,
  0x14, 0xcd, 0x04, 0xef, 0xdc, 0x13, 0xee, 0x47, 0xd4, 0xb8, 0x19, 0x1d,
  0x19, 0x9a, 0xe0, 0xc7, 0x3d, 0x6b, 0x12, 0x74, 0xfd, 0x3d, 0xd1, 0x29,
  0x0e, 0x3d, 0xd6, 0xe2, 0x07, 0xf8, 0xac, 0x31, 0x3d, 0x9f, 0x10, 0x5b,
  0x08, 0x2c, 0x2a, 0x28, 0x09, 0x5b, 0xf0, 0x9c, 0x01, 0xa3, 0x38, 0x40,
  0x7a, 0xc6, 0xd4, 0x15, 0xeb, 0xe3, 0xde, 0x97, 0xdf, 0x30, 0xca, 0xa8,
  0xab, 0xf6, 0x45, 0x71, 0x19, 0x05, 0x11, 0xd2, 0xe6, 0x23, 0xf1, 0x47,
  0x00, 0xd3, 0x0a, 0xb3, 0xbd, 0xfd, 0x5c, 0xeb, 0x64, 0x59, 0xf8, 0x46,
  0xc5, 0x2d, 0x08, 0xde, 0xaf, 0x17, 0x1d, 0x94, 0x33, 0x42, 0x4b, 0xe1,
  0x3e, 0xc0, 0x11, 0x44, 0xaa, 0x12, 0xbd, 0xc8, 0x9e, 0xaa, 0xf7, 0xba,
  0x66, 0x0e, 0xfb, 0x48, 0xce, 0x0e, 0x29, 0x04, 0x1b, 0x1f, 0x0a, 0xdc,
  0x2f, 0xe7, 0x03, 0xb8, 0xc8, 0xda, 0x0b, 0x0c, 0xc1, 0x31, 0xae, 0xc4,
  0xf9, 0x1d, 0x2d, 0xc2, 0x3e, 0xdf, 0xe3, 0x23, 0x71, 0x04, 0x75, 0xfc,
  0xb2, 0xb9, 0xf0, 0x11, 0xed, 0xca, 0xb4, 0x1c, 0x4b, 0xa8, 0x0d, 0xe3,
  0xbf, 0xe2, 0xad, 0xc1, 0x5a, 0xfc, 0xf4, 0x01, 0x95, 0x31, 0x8f, 0x12,
  0xfc, 0x3b, 0x06, 0x34, 0x5c, 0xb9, 0x19, 0xde, 0x51, 0x38, 0x7e, 0xde,
  0x18, 0x05, 0xde, 0x00, 0xd3, 0x03, 0x9a, 0xe5, 0x92, 0x27, 0xd0, 0xf6,
  0x08, 0x05, 0xfa, 0x0a, 0x09, 0xdc, 0x45, 0xc2, 0xfc, 0x5b, 0xde, 0x1d,
  0xc4, 0xbf, 0xf5, 0x29, 0xf5, 0x4e, 0xee, 0xa6, 0x08, 0xa2, 0xb0, 0x10,
  0x2f, 0xfb, 0x1f, 0xc2, 0x31, 0xa6, 0xe4, 0xef, 0x18, 0x30, 0x4d, 0x00,
  0x9f, 0x11, 0xa6, 0x30, 0xf3, 0x20, 0xef, 0xe9, 0x31, 0x31, 0xe0, 0x52,
  0x10, 0xb2, 0xd8, 0x36, 0x9c, 0xf4, 0xf9, 0xa4, 0x0e, 0x71, 0x20, 0xc6,
  0x41, 0x10, 0x1d, 0xaa, 0xf4, 0xc3, 0xe7, 0x04, 0x0a, 0xf5, 0x4b, 0xe9,
  0x1e, 0xe2, 0xa7, 0xa4, 0x13, 0xed, 0x4c, 0x54, 0xfb, 0x9d, 0xde, 0xf3,
  0xae, 0x9d, 0x06, 0x6b, 0x86, 0xe8, 0xce, 0xed, 0x5d, 0x2a, 0xd3, 0x35,
  0xe0, 0xeb, 0xda, 0x4b, 0xd1, 0xff, 0xf8, 0x5f, 0xa0, 0xfe, 0x13, 0xf3,
  0xed, 0xa5, 0x5c, 0xc3, 0x27, 0xfa, 0x0f, 0xdd, 0xd4, 0xf2, 0xae, 0x3e,
  0x00, 0x03, 0x50, 0x45, 0x27, 0x2b, 0xc2, 0xff, 0xe6, 0x53, 0xab, 0x27,
  0x13, 0x12, 0x69, 0x3b, 0xb0, 0x6c, 0xc3, 0xe5, 0x72, 0x26, 0x38, 0x19,
  0xb2, 0x18, 0x0c, 0x0c, 0x15, 0xce, 0xc5, 0xe0, 0x04, 0xc7, 0x14, 0xdc,
  0x09, 0x6b, 0x1b, 0x23, 0x0d, 0x26, 0x4a, 0x51, 0xcd, 0x78, 0xdb, 0xf4,
  0x24, 0xe9, 0x6f, 0x94, 0xb9, 0xd7, 0xb2, 0xb5, 0xcf, 0xd9, 0x98, 0x91,
  0x1a, 0xf8, 0x12, 0xf9, 0xec, 0xfd, 0x56, 0xfe, 0xb4, 0xd2, 0xf8, 0xd4,
  0xcf, 0xa5, 0x2c, 0xeb, 0xc2, 0xe7, 0xe3, 0x2a, 0x08, 0xf7, 0xbe, 0xee,
  0xd2, 0x48, 0xc7, 0x2a, 0x65, 0x0c, 0x8c, 0xed, 0x09, 0x25, 0xc7, 0x44,
  0x2c, 0x15, 0xfd, 0x12, 0xdd, 0x07, 0x29, 0xfe, 0x32, 0xf7, 0xc2, 0xc7,
  0xee, 0x2c, 0x4c, 0xd7, 0x22, 0x12, 0xd4, 0x63, 0xe9, 0x15, 0x4e, 0xf3,
  0x1f, 0xcc, 0x24, 0x5c, 0x14, 0x01, 0xff, 0xe4, 0x13, 0xbc, 0x2f, 0xd6,
  0xf1, 0xdc, 0x0f, 0xfd, 0xc1, 0x34, 0x58, 0x2b, 0x4d, 0x8f, 0x0c, 0x2a,
  0xeb, 0xb7, 0xd9, 0xcd, 0x49, 0x35, 0x8d, 0xd3, 0xb1, 0x1d, 0x43, 0xe8,
  0xf4, 0x2c, 0x54, 0x4b, 0x0c, 0x9d, 0xca, 0x2c, 0x84, 0x01, 0xe7, 0x31,
  0x39, 0xd9, 0x2b, 0x26, 0xd9, 0x20, 0xc0, 0x0e, 0x3d, 0xe1, 0xe3, 0xcc,
  0x2e, 0x02, 0xb3, 0xb6, 0x4b, 0xbb, 0xf8, 0x92, 0x97, 0x5a, 0x23, 0x04,
  0x87, 0x28, 0xeb, 0xa0, 0x69, 0x0e, 0xfd, 0xd1, 0x9f, 0x25, 0x98, 0x2c,
  0x53, 0xec, 0x0e, 0xc5, 0x41, 0x17, 0x60, 0xbc, 0x04, 0x01, 0x34, 0x0b,
  0xb7, 0x4d, 0x5f, 0xe3, 0xfb, 0x04, 0x77, 0x8a, 0x0d, 0x8d, 0xdd, 0x0b,
  0x06, 0x50, 0x6b, 0xc2, 0x46, 0x41, 0x78, 0x1a, 0x4f, 0xe6, 0x11, 0x06,
  0x55, 0xe4, 0xdb, 0x13, 0xfc, 0xaf, 0xae, 0xb5, 0x36, 0x0b, 0xf5, 0x03,
  0xd3, 0xd2, 0xf4, 0x3a, 0x4a, 0xf8, 0x93, 0xcd, 0x01, 0xff, 0x39, 0x05,
  0x36, 0xb3, 0xd5, 0x91, 0x3b, 0xcd, 0x87, 0xff, 0x0b, 0x27, 0xf0, 0xfd,
  0x19, 0xa3, 0x35, 0xee, 0x19, 0xe3, 0x3b, 0x00, 0x44, 0x96, 0xc0, 0xdd,
  0x08, 0x14, 0x72, 0xc3, 0xe1, 0xd4, 0xe0, 0x5b, 0xad, 0xec, 0x89, 0xed,
  0xd4, 0xf6, 0xd8, 0x1d, 0xc2, 0xad, 0xc2, 0x2f, 0x31, 0x4f, 0x20, 0xef,
  0x25, 0x4c, 0x4b, 0x01, 0xcd, 0x4a, 0xa1, 0xb2, 0x22, 0x3d, 0x00, 0x18,
  0xee, 0xe8, 0x31, 0x18, 0x70, 0xdb, 0x07, 0x04, 0x9c, 0xb0, 0x2c, 0xaf,
  0xb5, 0x55, 0x1b, 0x88, 0x35, 0xce, 0x33, 0xc0, 0xc8, 0xef, 0xa0, 0x54,
  0x42, 0xf6, 0x0e, 0xb5, 0xf3, 0xdb, 0x1c, 0x63, 0xa9, 0xe8, 0xe1, 0xd3,
  0xe3, 0x50, 0xdc, 0x1b, 0xbd, 0xa3, 0xcc, 0xc5, 0x44, 0x04, 0x96, 0x24,
  0xab, 0x0d, 0xd8, 0xf3, 0xa6, 0x31, 0x25, 0x61, 0x5d, 0x2c, 0xeb, 0x41,
  0xb8, 0x26, 0x32, 0x3f, 0x39, 0xc7, 0x26, 0xf1, 0x06, 0xaf, 0x5b, 0x6f,
  0x4b, 0xe0, 0x32, 0xb9, 0x0f, 0xdc, 0x64, 0xed, 0x1c, 0x1a, 0xf0, 0xa2,
  0xce, 0xca, 0xbc, 0x64, 0x24, 0x64, 0x4d, 0x06, 0xca, 0xf2, 0x06, 0xe9,
  0x32, 0x4e, 0x8f, 0x26, 0x4c, 0xc0, 0xa9, 0xfb, 0xf9, 0x03, 0x19, 0xb3,
  0x21, 0xb2, 0x00, 0x1d, 0x89, 0x22, 0xc3, 0x4c, 0xb2, 0x9d, 0x7c, 0x16,
  0xe8, 0x1d, 0x29, 0xe9, 0x22, 0xa4, 0x93, 0x3c, 0x4a, 0x19, 0x5f, 0x02,
  0xf0, 0x05, 0xe2, 0xd3, 0x31, 0xf8, 0xc3, 0x42, 0xa2, 0x37, 0x1f, 0x32,
  0xba, 0xd8, 0x0d, 0xf0, 0xfc, 0xe6, 0xdf, 0xbe, 0x99, 0xe5, 0xb1, 0xc5,
  0x1f, 0xbc, 0xf5, 0xbf, 0x15, 0xdb, 0x11, 0x21, 0xd3, 0x0b, 0xc1, 0xe0,
  0x2e, 0xee, 0x01, 0xba, 0x40, 0x97, 0xdf, 0x3b, 0x99, 0x4a, 0xfe, 0x2a,
  0xf7, 0xab, 0xdd, 0x26, 0x3c, 0x25, 0xa5, 0xc7, 0x1f, 0xe9, 0xf4, 0x15,
  0xfe, 0x14, 0xcf, 0xb1, 0x6a, 0x66, 0x2c, 0x05, 0xfb, 0x02, 0xd0, 0xe1,
  0xd8, 0x2b, 0xed, 0xc4, 0xca, 0xb8, 0xd9, 0x26, 0x25, 0xc8, 0xe6, 0x0a,
  0xda, 0xfc, 0xe8, 0xe3, 0x47, 0x0d, 0xf2, 0xf7, 0xe4, 0x28, 0xe4, 0x01,
  0x30, 0x56, 0x1d, 0x16, 0x13, 0xd1, 0x3c, 0x0d, 0xa9, 0xf5, 0x3b, 0x18,
  0xd4, 0x14, 0xc6, 0x64, 0xc4, 0x68, 0xc6, 0xd2, 0x24, 0x1c, 0x65, 0x3e,
  0x56, 0x48, 0x09, 0x7f, 0xec, 0x11, 0x0f, 0xe3, 0x3f, 0xea, 0xb7, 0x0b,
  0x2a, 0xf0, 0x2a, 0xef, 0x98, 0x12, 0xdd, 0x4e, 0xef, 0x3b, 0xfd, 0xd6,
  0xe8, 0xe6, 0x1a, 0x23, 0xec, 0xba, 0xcb, 0x2c, 0x2f, 0x2b, 0x29, 0x1e,
  0xd2, 0xdc, 0x2e, 0x1c, 0x1d, 0xff, 0xcf, 0xee, 0x14, 0xa3, 0xd5, 0x1e,
  0xfd, 0xa9, 0x57, 0xcc, 0x2c, 0x1f, 0xe2, 0xde, 0x3b, 0x0b, 0xd7, 0x11,
  0x11, 0xc1, 0xf1, 0xf2, 0xc4, 0x63, 0x89, 0x4c, 0xf2, 0x05, 0x2a, 0x27,
  0x0b, 0x1c, 0x0a, 0xcd, 0x29, 0x1d, 0x29, 0xf9, 0x18, 0xa3, 0xef, 0x08,
  0x48, 0xd9, 0xc8, 0x2b, 0xda, 0xff, 0x4f, 0xc4, 0xd0, 0x47, 0x02, 0x2a,
  0x22, 0x0c, 0xce, 0xfc, 0xa0, 0x1b, 0x08, 0x29, 0x24, 0x51, 0x1c, 0x0f,
  0x19, 0x39, 0x57, 0x86, 0x5a, 0x36, 0x60, 0x25, 0x4f, 0x13, 0x15, 0x06,
  0x88, 0xea, 0x06, 0xab, 0xb9, 0x3c, 0xb9, 0x31, 0x18, 0xe3, 0xfe, 0x1c,
  0xd8, 0xf4, 0xf7, 0xd8, 0x42, 0x09, 0xff, 0xef, 0x50, 0xa0, 0xee, 0xd3,
  0x5c, 0x1e, 0x29, 0x2a, 0x1a, 0xf2, 0x19, 0xd0, 0xc5, 0xf0, 0x07, 0x2a,
  0xfd, 0x01, 0xdd, 0x62, 0x06, 0xd2, 0xde, 0x3c, 0x00, 0x4e, 0xde, 0x0b,
  0xe2, 0xe3, 0xf7, 0x06, 0x18, 0xf0, 0x0d, 0x7d, 0x26, 0x17, 0x88, 0xcb,
  0x47, 0x1a, 0x0e, 0xdf, 0xee, 0xee, 0xe3, 0x75, 0x39, 0x34, 0x38, 0x94,
  0x07, 0xc4, 0xea, 0x46, 0xe6, 0xee, 0x2c, 0xd5, 0xad, 0x6c, 0x12, 0xe0,
  0x12, 0x83, 0x0c, 0xf9, 0xf9, 0x5c, 0x1e, 0xec, 0x07, 0x95, 0x97, 0xf6,
  0x2e, 0x5b, 0xec, 0x74, 0xc8, 0x43, 0x18, 0x0a, 0x1c, 0xbd, 0xf4, 0x05,
  0x1f, 0xff, 0xea, 0xe0, 0x50, 0x15, 0x74, 0xe6, 0xec, 0x04, 0xcc, 0xed,
  0xbc, 0x05, 0x57, 0x0e, 0x35, 0x32, 0x54, 0x53, 0x52, 0xca, 0x0d, 0x45,
  0x3a, 0xd2, 0x29, 0xd2, 0x82, 0x0d, 0xda, 0xef, 0x2d, 0x1d, 0x69, 0x1d,
  0xdd, 0xf2, 0xe0, 0x10, 0x4f, 0x12, 0x1b, 0xbe, 0xfb, 0x17, 0xe1, 0xd3,
  0x14, 0x27, 0xcc, 0xd9, 0xea, 0xf9, 0x18, 0xa3, 0xef, 0x90, 0x43, 0x1b,
  0xca, 0x3c, 0x04, 0xdf, 0xf5, 0x09, 0x16, 0x2d, 0x0f, 0xab, 0x99, 0x2e,
  0xef, 0xcf, 0x42, 0xe2, 0xee, 0x34, 0xfc, 0x1e, 0x54, 0x20, 0xe4, 0xf1,
  0x6e, 0xe0, 0x1a, 0x3c, 0x02, 0x1f, 0x36, 0x3a, 0xe8, 0xa9, 0x45, 0x16,
  0x1e, 0xe4, 0xb6, 0xdd, 0xb1, 0xb5, 0x1f, 0x21, 0xf9, 0x45, 0xd6, 0x3c,
  0xe8, 0x02, 0x0d, 0xcb, 0x03, 0x59, 0xa3, 0xf9, 0x0b, 0xd6, 0x9a, 0x3d,
  0x00, 0x35, 0xd3, 0xf3, 0xd1, 0x2c, 0x24, 0x3a, 0xb4, 0x6c, 0xd4, 0x0d,
  0x24, 0xf9, 0xb6, 0x48, 0x4f, 0x0c, 0x1c, 0xfc, 0x41, 0x1a, 0x20, 0xed,
  0xfc, 0x46, 0x1a, 0x81, 0x2e, 0xab, 0xbe, 0x31, 0x46, 0xfb, 0xda, 0x0f,
  0x09, 0xf2, 0xf4, 0x0b, 0x1e, 0x96, 0xc3, 0xa2, 0x03, 0x48, 0xc6, 0x58,
  0xe9, 0x25, 0x8a, 0x35, 0x4c, 0x11, 0xea, 0xe7, 0x32, 0xe3, 0xbe, 0x06,
  0xa5, 0xf3, 0x3f, 0x36, 0x1c, 0xc1, 0x3f, 0xd5, 0xeb, 0x59, 0x30, 0x16,
  0x4d, 0xa4, 0x02, 0x5e, 0xc7, 0xf1, 0xca, 0xd5, 0xc1, 0xdf, 0xd7, 0x1b,
  0xfd, 0x17, 0xf6, 0xa2, 0xf2, 0x71, 0x12, 0xbe, 0x13, 0xef, 0x7d, 0x31,
  0x18, 0x90, 0x28, 0x47, 0xcd, 0xec, 0x83, 0xbb, 0xfa, 0xf0, 0xd2, 0xa7,
  0xbe, 0x27, 0xfd, 0x43, 0x96, 0x1a, 0x5f, 0x9f, 0x10, 0x2b, 0x00, 0xec,
  0xdb, 0x55, 0x70, 0x00, 0x03, 0x50, 0x33, 0x05, 0x39, 0xb3, 0xa8, 0x71,
  0x8d, 0xaf, 0x33, 0x2f, 0xc3, 0xdc, 0x34, 0xe1, 0x0d, 0x70, 0x8f, 0x23,
  0xc2, 0xc1, 0xc5, 0x08, 0x27, 0x16, 0x07, 0x02, 0xf0, 0x2d, 0x39, 0xe5,
  0xe4, 0x1f, 0xe4, 0x26, 0x58, 0xe7, 0xce, 0x6c, 0xe1, 0x38, 0x3c, 0x2e,
  0xb1, 0xb9, 0xfd, 0xff, 0x2e, 0x6f, 0x19, 0xb5, 0xbf, 0x5b, 0x39, 0xf5,
  0x15, 0xc1, 0xe3, 0xbd, 0x1e, 0x20, 0x2b, 0x1d, 0xe6, 0x37, 0x00, 0x51,
  0x9b, 0x09, 0x2b, 0x29, 0x18, 0x0a, 0xfc, 0xf5, 0xb4, 0x47, 0x92, 0x0e,
  0x2a, 0xf8, 0xcf, 0x56, 0xe9, 0xd3, 0x20, 0xf8, 0x26, 0x51, 0xbf, 0x59,
  0x01, 0x12, 0xd7, 0xe7, 0x47, 0xc3, 0xd9, 0x11, 0xeb, 0x28, 0x85, 0x1e,
  0xd9, 0xa5, 0x9e, 0xa3, 0xd2, 0x60, 0xd4, 0x33, 0xde, 0x4a, 0x48, 0x94,
  0xdd, 0x49, 0xde, 0x1d, 0xa2, 0xd3, 0x30, 0x45, 0xa4, 0x98, 0xf8, 0xd0,
  0x04, 0x7e, 0xd0, 0xde, 0x5c, 0x84, 0xc1, 0x8f, 0xd5, 0xc4, 0xf5, 0x0e,
  0x1f, 0xe9, 0x16, 0xfe, 0x22, 0x08, 0xba, 0x20, 0xcf, 0x30, 0x85, 0x35,
  0x08, 0x18, 0xd2, 0x2b, 0xe8, 0xe4, 0x29, 0x00, 0x37, 0x30, 0xa0, 0xe2,
  0xcb, 0x01, 0x2e, 0xe6, 0x2e, 0xb2, 0x1d, 0x31, 0x08, 0x28, 0x06, 0xbc,
  0xe5, 0x4e, 0xf8, 0xd3, 0xfe, 0x24, 0x02, 0x04, 0x6d, 0xdc, 0xac, 0x3d,
  0x3e, 0xf2, 0xb6, 0x1f, 0x0c, 0x61, 0x2d, 0xc9, 0x45, 0x1d, 0xda, 0xd5,
  0x37, 0x8d, 0x21, 0xe2, 0xe6, 0xe1, 0x1c, 0x0f, 0xce, 0xd3, 0x32, 0xc7,
  0xa8, 0xe8, 0x53, 0x23, 0x3a, 0x1d, 0xf4, 0x49, 0xd3, 0x11, 0x0b, 0x2f,
  0x1d, 0x2f, 0xd7, 0xd4, 0xfe, 0xcc, 0xf9, 0x44, 0x46, 0x35, 0x12, 0xea,
  0x1c, 0x1a, 0x3a, 0xec, 0xc1, 0xbd, 0xf0, 0xbb, 0x10, 0x60, 0xa8, 0x9a,
  0xc5, 0xe8, 0xa3, 0xa9, 0xc2, 0xe9, 0x0c, 0xe1, 0x03, 0xe7, 0xd9, 0x22,
  0x01, 0xd2, 0xed, 0x6d, 0x36, 0xe4, 0x01, 0xc3, 0x90, 0x43, 0x56, 0xc3,
  0xb1, 0x1b, 0x63, 0xc3, 0x7c, 0xb3, 0x0d, 0x41, 0xd9, 0x49, 0x18, 0x5d,
  0xed, 0x47, 0xf4, 0xfe, 0x13, 0x3b, 0x4d, 0xff, 0x56, 0x48, 0x3e, 0x98,
  0xcb, 0xb3, 0xc1, 0xfd, 0xf6, 0x6f, 0x96, 0x25, 0x1e, 0xf8, 0x23, 0xc8,
  0xfa, 0xfb, 0x34, 0x6c, 0xea, 0x25, 0xeb, 0x4b, 0xf3, 0x2b, 0x64, 0xe0,
  0xff, 0xea, 0xff, 0x28, 0xc1, 0xbe, 0x98, 0x6a, 0x29, 0x41, 0xbe, 0xce,
  0x25, 0xdb, 0xfe, 0xcc, 0x1a, 0x13, 0x44, 0x97, 0x57, 0xc8, 0xaf, 0x5a,
  0x00, 0x2b, 0xf3, 0x53, 0xac, 0x06, 0xc6, 0xdc, 0x58, 0xd3, 0x11, 0xbc,
  0x01, 0xb9, 0x27, 0x0e, 0xec, 0xfc, 0x61, 0x3f, 0x61, 0xce, 0x7f, 0xbc,
  0x07, 0x21, 0xa1, 0xb9, 0x46, 0x49, 0x75, 0xf1, 0x64, 0xa5, 0x1f, 0xaf,
  0xad, 0xd1, 0x40, 0xf6, 0xf0, 0xc9, 0xe9, 0x43, 0x32, 0xa0, 0x9f, 0xed,
  0x13, 0x0a, 0xfe, 0x07, 0x3e, 0xc5, 0x28, 0x07, 0xe7, 0xc6, 0xcb, 0x1a,
  0xcd, 0x40, 0x14, 0x24, 0xb8, 0x32, 0x13, 0xe6, 0x9d, 0x0f, 0xe8, 0x38,
  0x5a, 0x63, 0x4b, 0x2a, 0x2c, 0xfe, 0x13, 0xaa, 0x20, 0xed, 0x7f, 0xad,
  0xff, 0xea, 0xb6, 0xbb, 0x3e, 0xf5, 0x19, 0xc7, 0x5d, 0x47, 0x0e, 0x39,
  0x79, 0x0a, 0xd9, 0x15, 0xb5, 0x0e, 0x62, 0x1e, 0x0d, 0x2c, 0xff, 0x0e,
  0xd5, 0x2d, 0xe7, 0x3c, 0x00, 0xa6, 0xc0, 0xbf, 0x0b, 0xfe, 0xa3, 0xf9,
  0x3a, 0x07, 0xf0, 0x4b, 0xed, 0xeb, 0xc2, 0x37, 0xe4, 0x50, 0x0c, 0x7a,
  0xe9, 0xee, 0xf6, 0xf6, 0x06, 0x8d, 0xff, 0x9c, 0xbd, 0x4b, 0xcf, 0xad,
  0x1d, 0xa6, 0xf4, 0x08, 0x45, 0x46, 0x6c, 0xe0, 0x2b, 0xdc, 0x95, 0xcb,
  0x3c, 0xf9, 0x92, 0xd0, 0xc7, 0xdf, 0xc1, 0xfc, 0xa3, 0x10, 0xf3, 0x97,
  0x2a, 0x33, 0x02, 0xb0, 0x97, 0x00, 0xc0, 0xb0, 0x7b, 0xc8, 0xe7, 0xe7,
  0xfa, 0x07, 0xba, 0xcf, 0x5f, 0xf3, 0xef, 0x02, 0x65, 0x4f, 0xd2, 0x3a,
  0x1b, 0x02, 0xfb, 0xde, 0xd6, 0xf1, 0xe2, 0x85, 0xf1, 0x46, 0x0e, 0x52,
  0xc8, 0x05, 0x41, 0x0e, 0x86, 0x01, 0xb8, 0xd6, 0xe6, 0xf0, 0xe7, 0x04,
  0x1a, 0x09, 0x23, 0xa0, 0xd2, 0xce, 0xd8, 0x12, 0x0d, 0x8e, 0x03, 0x38,
  0x1f, 0x8d, 0x0d, 0x45, 0x5a, 0x0f, 0xec, 0x3b, 0xeb, 0x20, 0xbe, 0x19,
  0x25, 0x1e, 0x61, 0x25, 0x19, 0xb0, 0x2b, 0xe6, 0xee, 0x2e, 0x1e, 0x0e,
  0x52, 0x56, 0xcb, 0xc1, 0xea, 0xf8, 0xfe, 0x3f, 0x10, 0x29, 0x2a, 0xf5,
  0x0e, 0xda, 0x62, 0x24, 0x71, 0xbf, 0xa5, 0x4a, 0x0f, 0x29, 0x3b, 0x77,
  0xb3, 0x14, 0x51, 0x8d, 0x02, 0x30, 0xd0, 0xce, 0x8b, 0xed, 0x48, 0x39,
  0x03, 0x10, 0x59, 0x15, 0x1e, 0x29, 0xb9, 0x97, 0x3b, 0x02, 0x6b, 0x01,
  0x3a, 0x3e, 0x1e, 0x4b, 0x4b, 0xac, 0x8f, 0xd0, 0xf8, 0x4e, 0x45, 0xb4,
  0xd7, 0x10, 0x06, 0xc4, 0x3b, 0xd6, 0x19, 0x14, 0xab, 0x65, 0x1a, 0x1f,
  0x83, 0x20, 0xcd, 0xd3, 0xf9, 0xd3, 0x25, 0xd2, 0xa0, 0xfb, 0x09, 0x62,
  0x07, 0xd1, 0x01, 0xe9, 0xde, 0xc8, 0x4e, 0xe1, 0x06, 0x2b, 0xc0, 0x35,
  0x3e, 0x3b, 0x10, 0xf3, 0x2b, 0xf6, 0x3e, 0xf1, 0xee, 0xf4, 0xe7, 0x4d,
  0x11, 0xe4, 0x01, 0x35, 0x22, 0x13, 0xfc, 0xba, 0x36, 0x31, 0x1c, 0xa7,
  0x19, 0x24, 0xe6, 0x0b, 0xbc, 0x18, 0x06, 0xcf, 0xe0, 0xe4, 0xea, 0x72,
  0x01, 0xde, 0xef, 0x63, 0xd0, 0xf1, 0xaf, 0x3f, 0x12, 0x64, 0x11, 0x23,
  0xf4, 0x8b, 0xfe, 0xf5, 0x90, 0x09, 0x9f, 0xe0, 0x4d, 0xc1, 0x3e, 0x0a,
  0x35, 0xb0, 0xfb, 0xcf, 0xcc, 0x2c, 0xc5, 0xea, 0x5b, 0x00, 0x15, 0x1d,
  0x15, 0x30, 0xd1, 0xe1, 0xab, 0x5e, 0x1c, 0x76, 0x58, 0xdb, 0xf7, 0xff,
  0x38, 0xa9, 0x87, 0x45, 0xe2, 0xe9, 0x13, 0x15, 0xfe, 0x2a, 0xe3, 0x40,
  0x62, 0xeb, 0xbf, 0x34, 0xf8, 0xd5, 0x61, 0x23, 0x09, 0x1c, 0xd1, 0xcf,
  0xd9, 0xf4, 0xb5, 0x0d, 0x3b, 0xe1, 0x51, 0x6a, 0xcc, 0xe8, 0xea, 0xc9,
  0xf9, 0x2c, 0xf3, 0x52, 0x41, 0xcc, 0x19, 0x19, 0x9f, 0x41, 0x3d, 0x17,
  0xb5, 0x0d, 0x09, 0x31, 0x22, 0x13, 0xd3, 0x1b, 0x36, 0xf1, 0x94, 0x90,
  0xb6, 0x55, 0x30, 0x22, 0x82, 0x27, 0xe7, 0xde, 0x30, 0x2e, 0x3d, 0x5f,
  0x31, 0x20, 0x39, 0xa8, 0x47, 0xea, 0x46, 0x07, 0x51, 0x43, 0x8d, 0xee,
  0x11, 0xca, 0xa3, 0xf0, 0xe2, 0xc2, 0xf7, 0x1d, 0xc7, 0xfc, 0x06, 0xf9,
  0xc8, 0xa8, 0x06, 0xf8, 0x3a, 0xb1, 0x13, 0xfe, 0x10, 0xe4, 0xce, 0x14,
  0xd3, 0x01, 0xf3, 0x39, 0xe3, 0x0a, 0xc3, 0x74, 0xd6, 0x16, 0x21, 0x6e,
  0x4a, 0xd3, 0x28, 0x15, 0x4f, 0xce, 0x46, 0xfa, 0xc6, 0xeb, 0x51, 0xb7,
  0xfa, 0xd2, 0xae, 0xbc, 0xb5, 0x8c, 0xfe, 0xbf, 0xd0, 0xc6, 0x5b, 0xc0,
  0xbd, 0xfa, 0xd6, 0x73, 0xd7, 0x2d, 0x69, 0xdd, 0x2f, 0xdf, 0x10, 0xe5,
  0xea, 0xcf, 0xb5, 0x8e, 0x0d, 0x36, 0x8d, 0xd3, 0x2f, 0x8c, 0x08, 0x38,
  0xd8, 0xc5, 0xd6, 0x27, 0xe6, 0xfb, 0xd2, 0xd0, 0xb8, 0x0f, 0x88, 0xad,
  0xdd, 0x43, 0xa8, 0xc6, 0x12, 0x46, 0x25, 0xe8, 0xdb, 0x05, 0x0c, 0x87,
  0x5b, 0xe2, 0xd3, 0x32, 0x92, 0xf0, 0xec, 0x50, 0xe8, 0xcf, 0xf5, 0xfc,
  0x18, 0xe8, 0x18, 0x75, 0xd6, 0xec, 0xeb, 0x6f, 0x52, 0xc2, 0x4a, 0x18,
  0x4e, 0xdd, 0x0d, 0x6d, 0xba, 0xc6, 0x15, 0x17, 0x1b, 0xdf, 0x24, 0xe5,
  0x29, 0xe0, 0xf3, 0x26, 0x13, 0xe1, 0x4e, 0xf3, 0x39, 0x1a, 0x19, 0xe5,
  0x29, 0x15, 0x46, 0x05, 0x32, 0x3c, 0x9c, 0xdd, 0x42, 0xbe, 0x50, 0xe2,
  0x14, 0xfb, 0xba, 0x9b, 0xe7, 0x16, 0x06, 0x20, 0xfb, 0x24, 0x34, 0x21,
  0x36, 0xf1, 0x35, 0x26, 0x11, 0x0e, 0xd1, 0xf5, 0xa1, 0x50, 0xb5, 0xb0,
  0xc1, 0x24, 0x3f, 0x2c, 0x2a, 0x13, 0xcf, 0xff, 0x2a, 0x23, 0x4a, 0xee,
  0xfd, 0x0f, 0x0c, 0xee, 0x0a, 0xa2, 0xb7, 0x3a, 0x3c, 0x4a, 0x48, 0xf9,
  0x04, 0x33, 0xaf, 0x11, 0xc2, 0x06, 0x1a, 0x37, 0xc8, 0xdb, 0x22, 0x3a,
  0xf8, 0xff, 0xb7, 0x37, 0xd9, 0xdc, 0x2d, 0x05, 0xee, 0x39, 0xd2, 0x10,
  0xd7, 0x3b, 0x28, 0xf5, 0xbd, 0xff, 0x0f, 0x6b, 0x3a, 0x19, 0x3f, 0x21,
  0x40, 0x60, 0xed, 0xf5, 0xdb, 0xda, 0x69, 0x29, 0x6e, 0x1c, 0xac, 0x2a,
  0xe2, 0x6f, 0xfa, 0xf1, 0x1f, 0xfd, 0xe2, 0xa6, 0x95, 0xfc, 0x45, 0xe8,
  0x36, 0x31, 0x19, 0xbd, 0xc8, 0x29, 0xdb, 0xf7, 0xc1, 0x7c, 0xc4, 0xdb,
  0xfb, 0xd7, 0x10, 0x8b, 0x1d, 0xc7, 0xa0, 0x1b, 0xe7, 0xfb, 0xba, 0xeb,
  0x0e, 0x03, 0xf5, 0xef, 0x3c, 0x50, 0xf3, 0x23, 0x13, 0x9c, 0xb7, 0xde,
  0xb2, 0xf4, 0x04, 0xee, 0xfc, 0x18, 0xb6, 0xd0, 0x89, 0x30, 0x55, 0x8c,
  0x0c, 0xce, 0x3c, 0xdc, 0x07, 0x95, 0x15, 0x24, 0xb6, 0xdb, 0xe4, 0x15,
  0x96, 0xbc, 0x42, 0xf5, 0x0a, 0xdc, 0xe5, 0xb9, 0x3d, 0x55, 0xe5, 0x6e,
  0x50, 0xc9, 0xe7, 0x4b, 0xf3, 0x1b, 0x20, 0x01, 0x14, 0x23, 0x78, 0x82,
  0xc6, 0x36, 0xfe, 0xf8, 0xe3, 0xfa, 0x3d, 0xcf, 0xbd, 0x5c, 0x1c, 0xd6,
  0x2d, 0x02, 0x5e, 0xfb, 0x0a, 0x3e, 0x19, 0x39, 0xc3, 0x4b, 0xf1, 0xf1,
  0x30, 0x26, 0x00, 0xcb, 0x01, 0xa5, 0x06, 0xeb, 0x39, 0x43, 0x50, 0xce,
  0x09, 0xcb, 0x2f, 0xff, 0xf9, 0x3c, 0xd7, 0xc9, 0x13, 0x1e, 0x29, 0x93,
  0xb6, 0xc3, 0x3c, 0xb3, 0x6e, 0xcd, 0x5b, 0xdb, 0x13, 0xe7, 0x27, 0xff,
  0xcc, 0x41, 0x3d, 0xc4, 0x3a, 0xb4, 0x93, 0xf1, 0x15, 0x33, 0x21, 0x7d,
  0x15, 0xce, 0x33, 0xf1, 0x0b, 0xb7, 0xd3, 0x38, 0xe7, 0xae, 0x2a, 0x03,
  0x39, 0xda, 0xfa, 0xb0, 0x33, 0x4a, 0x0d, 0x57, 0x19, 0xbc, 0xb4, 0xa8,
  0xc6, 0xdc, 0xef, 0x68, 0x2e, 0x12, 0xd8, 0x52, 0x0d, 0x00, 0x1e, 0x6a,
  0xfb, 0x06, 0xe0, 0x97, 0x32, 0xfa, 0x1f, 0xb4, 0x24, 0x12, 0x2d, 0xf8,
  0xea, 0xcf, 0xb5, 0xf4, 0xf9, 0xbb, 0xeb, 0xd1, 0xc8, 0x44, 0x15, 0x0e,
  0xf3, 0xc0, 0x7d, 0x37, 0xb2, 0x34, 0xcd, 0xcd, 0xd8, 0xc2, 0x13, 0x5d,
  0x19, 0x48, 0x5f, 0xbe, 0x2d, 0x2b, 0xba, 0xfe, 0xea, 0x45, 0x46, 0x39,
  0x6a, 0x47, 0x5f, 0x41, 0xaf, 0x02, 0x9e, 0x3a, 0x40, 0x50, 0xcc, 0x1d,
  0x3e, 0xb5, 0xba, 0xcb, 0xde, 0x4e, 0xef, 0xef, 0xfb, 0x07, 0xfd, 0x07,
  0xb5, 0x0d, 0x06, 0x32, 0xe7, 0x1a, 0xd1, 0x40, 0x15, 0x72, 0x24, 0x2e,
  0x32, 0xef, 0xc4, 0x43, 0xcb, 0x38, 0xda, 0x20, 0xc2, 0x0d, 0x34, 0xb9,
  0xb9, 0x04, 0x10, 0xb4, 0x91, 0xec, 0xd8, 0x17, 0x24, 0xfa, 0xfa, 0x0d,
  0x28, 0x41, 0xe5, 0x54, 0x0f, 0x23, 0xcf, 0x1e, 0x2e, 0xd4, 0xb5, 0x54,
  0x14, 0xa4, 0x56, 0x93, 0xb7, 0x90, 0xd3, 0x05, 0x5d, 0x3b, 0x30, 0xe1,
  0x3e, 0xdf, 0x76, 0x1b, 0x30, 0x04, 0xc7, 0xd8, 0x91, 0xfe, 0x85, 0x0c,
  0x05, 0xf4, 0x05, 0xf5, 0xcb, 0x10, 0x0e, 0x00, 0x30, 0xcf, 0x1d, 0xf9,
  0xdd, 0x44, 0xe6, 0x95, 0xe5, 0xbf, 0x00, 0xbb, 0xf2, 0x07, 0x46, 0x4a,
  0x6e, 0x36, 0xfb, 0xcd, 0xe2, 0x4c, 0xd9, 0x13, 0xd5, 0x14, 0xea, 0x24,
  0xe2, 0xa9, 0x0d, 0x2e, 0x32, 0x2f, 0xd0, 0xaa, 0xa0, 0x9f, 0x06, 0x26,
  0x09, 0xfe, 0x4c, 0x6a, 0x73, 0x2b, 0x04, 0xda, 0xdf, 0x18, 0x6a, 0xeb,
  0x27, 0xe4, 0x02, 0x37, 0xfd, 0x29, 0x24, 0x18, 0x60, 0xe6, 0x19, 0x4c,
  0xeb, 0x83, 0xf4, 0x08, 0x45, 0x62, 0x0f, 0x3d, 0xf6, 0xf2, 0xd8, 0x3c,
  0x68, 0x36, 0xf9, 0xbe, 0x39, 0x49, 0x23, 0xee, 0xab, 0xfe, 0xf1, 0x1d,
  0x0a, 0xe2, 0x27, 0xde, 0xaf, 0xed, 0xf2, 0x19, 0xee, 0xcc, 0xcb, 0xf6,
  0xfd, 0x36, 0xb6, 0x0f, 0x1d, 0x16, 0x13, 0x4f, 0xe4, 0xc0, 0xf7, 0xf3,
  0x1f, 0x22, 0xfb, 0xef, 0xae, 0x04, 0x4c, 0xf9, 0x1f, 0x5f, 0x13, 0xd7,
  0x1a, 0xbd, 0x11, 0x2c, 0x6e, 0x87, 0x0c, 0x05, 0x1f, 0xe2, 0xbc, 0xe0,
  0x01, 0x2b, 0xf4, 0x01, 0x10, 0xe9, 0xcc, 0x18, 0x0d, 0xb4, 0x06, 0x48,
  0x2a, 0x06, 0x58, 0x04, 0xf0, 0x0d, 0x54, 0xf5, 0xa7, 0x06, 0x00, 0xf0,
  0xc1, 0x7b, 0x10, 0x7d, 0x27, 0xf9, 0x0c, 0x0a, 0xfc, 0x0e, 0x1b, 0xff,
  0x2c, 0x55, 0xd4, 0xaf, 0xdb, 0x04, 0x1b, 0xf5, 0xe4, 0xec, 0x0c, 0x7a,
  0xce, 0x26, 0xb4, 0x64, 0x8c, 0x9f, 0xce, 0x08, 0xe1, 0x5b, 0x17, 0x49,
  0xd9, 0xbc, 0xb9, 0xc2, 0xd6, 0x21, 0x16, 0x16, 0x05, 0xf7, 0xdf, 0x7f,
  0x0b, 0x01, 0x61, 0xd7, 0x04, 0x3d, 0x26, 0x8d, 0x9a, 0xf9, 0x21, 0xbf,
  0x16, 0x25, 0x45, 0xcf, 0x14, 0x46, 0xf5, 0x1c, 0xfb, 0x6b, 0x21, 0xaf,
  0x81, 0x47, 0x90, 0x32, 0xdb, 0xcc, 0x5c, 0x4d, 0xe2, 0x60, 0x94, 0xde,
  0x44, 0x29, 0x56, 0x23, 0x0e, 0xc2, 0xca, 0xf0, 0xe7, 0x3b, 0xab, 0xba,
  0x25, 0x82, 0x03, 0x1f, 0xff, 0x38, 0x76, 0xce, 0x5e, 0xe9, 0xf4, 0xdd,
  0xdc, 0x13, 0x04, 0xe1, 0x00, 0x5d, 0xd3, 0xf1, 0x0d, 0xf6, 0xf1, 0x8a,
  0x0b, 0x02, 0x93, 0x1b, 0x14, 0xa4, 0xf8, 0x1f, 0x92, 0x2c, 0xfb, 0x1a,
  0xe7, 0xbb, 0x3e, 0x79, 0xd8, 0x0b, 0xe3, 0x4d, 0xfd, 0x96, 0x2d, 0x03,
  0xcb, 0x1d, 0xdb, 0x3d, 0xa6, 0xdf, 0xb9, 0x79, 0x62, 0xf2, 0x30, 0x21,
  0xfe, 0xeb, 0x56, 0xd0, 0x38, 0xe4, 0xc7, 0x30, 0xee, 0xd3, 0x15, 0x01,
  0x11, 0x3c, 0x3f, 0xff, 0x51, 0xe6, 0x28, 0xed, 0x28, 0x48, 0xe7, 0xfe,
  0x3d, 0x2d, 0x3f, 0x1e, 0x69, 0xf9, 0xff, 0xf8, 0xe5, 0xc3, 0xac, 0xf8,
  0xf5, 0xae, 0x0a, 0x35, 0x2a, 0x40, 0x39, 0xb6, 0x1c, 0x01, 0x0d, 0xed,
  0x12, 0xdf, 0xd7, 0xe4, 0xc0, 0xe3, 0x9f, 0x95, 0x9c, 0x75, 0xc7, 0xff,
  0xd8, 0xd4, 0xdd, 0xdf, 0xd6, 0xd0, 0x30, 0xb5, 0x15, 0xde, 0x1e, 0x66,
  0x2f, 0xb1, 0x5d, 0xec, 0xfc, 0x36, 0x08, 0xf2, 0xd4, 0x2f, 0x60, 0xe8,
  0xfc, 0xa3, 0xf5, 0x21, 0x84, 0x23, 0xc9, 0xfd, 0x07, 0xe4, 0x56, 0x25,
  0xea, 0x09, 0x27, 0xde, 0x2c, 0x92, 0x1c, 0x1a, 0xef, 0xf9, 0x70, 0x6f,
  0xec, 0x0c, 0xad, 0xdf, 0xc0, 0xfb, 0x50, 0xb7, 0xbc, 0xd4, 0xcd, 0xba,
  0x49, 0x11, 0xe3, 0xd1, 0x64, 0xfd, 0xe5, 0x24, 0xfa, 0xda, 0x0e, 0x13,
  0x56, 0xb9, 0x2c, 0x0b, 0xf6, 0xe8, 0xe4, 0xff, 0xcf, 0x08, 0xcb, 0x16,
  0xe2, 0x2b, 0x1f, 0xdc, 0xc6, 0x41, 0xf8, 0x09, 0xff, 0xc0, 0xf0, 0xfa,
  0x25, 0xd1, 0xe5, 0x08, 0xb4, 0x0d, 0x93, 0xf3, 0xae, 0x6a, 0xd7, 0x56,
  0x96, 0xd8, 0x42, 0x37, 0x11, 0x28, 0xf8, 0xd5, 0x1c, 0xf5, 0xcd, 0x32,
  0xd7, 0xf9, 0x04, 0x24, 0x99, 0x3b, 0x46, 0x11, 0x0c, 0xf3, 0x14, 0xf4,
  0x50, 0xa9, 0x76, 0xd1, 0x9a, 0x04, 0xa2, 0xc3, 0xf2, 0x40, 0xa5, 0xb3,
  0x27, 0xe4, 0x22, 0x08, 0xe3, 0x3b, 0x3e, 0x58, 0x32, 0x27, 0xe7, 0xf1,
  0xf4, 0x45, 0x79, 0x0e, 0x31, 0x12, 0x01, 0xf5, 0xdc, 0xfe, 0xcc, 0xbe,
  0x12, 0x9a, 0xd1, 0xf6, 0x08, 0xe2, 0x18, 0x13, 0xb3, 0xcd, 0xf9, 0x33,
  0x81, 0x0f, 0x12, 0x07, 0x28, 0xaf, 0xeb, 0xdc, 0x09, 0xca, 0x3e, 0xc3,
  0xfa, 0x43, 0xde, 0x35, 0x1c, 0xcc, 0x25, 0x03, 0xce, 0xd0, 0x58, 0x0a,
  0xbe, 0x0e, 0x21, 0x1d, 0xb7, 0xc0, 0xbc, 0x10, 0x4a, 0x0e, 0x51, 0xfa,
  0x17, 0xfa, 0xfa, 0xd0, 0x88, 0xd7, 0x9b, 0xd4, 0x83, 0xef, 0x32, 0xa7,
  0x1d, 0x47, 0x20, 0xda, 0x96, 0x11, 0xa1, 0x0c, 0xf6, 0xfd, 0xea, 0xf6,
  0x96, 0x26, 0xb0, 0x1e, 0xb7, 0x0f, 0xe5, 0x04, 0x52, 0xf6, 0xd8, 0x06,
  0xc5, 0x06, 0x02, 0xfe, 0x62, 0xb4, 0xfa, 0xa3, 0x1a, 0x0a, 0xcf, 0x39,
  0xe3, 0xdb, 0xb3, 0x21, 0x0f, 0x36, 0xa2, 0xef, 0x44, 0xe2, 0x42, 0x70,
  0x2e, 0x70, 0x38, 0x45, 0xa5, 0xa0, 0x13, 0x4e, 0xaa, 0x08, 0x0d, 0x23,
  0x06, 0x2c, 0x27, 0xdc, 0xef, 0xe5, 0x1f, 0x15, 0xb6, 0x33, 0x5e, 0x0a,
  0x0a, 0xeb, 0x29, 0xc8, 0xcf, 0xc9, 0xcf, 0x5a, 0x89, 0x60, 0x1f, 0xc5,
  0xb5, 0xdf, 0x78, 0x18, 0x16, 0xf3, 0x5c, 0xce, 0x88, 0xce, 0x0d, 0xd4,
  0xfb, 0x1b, 0xcf, 0xfe, 0xcc, 0xe1, 0xd7, 0xfb, 0x43, 0xda, 0xac, 0x9b,
  0xdb, 0xde, 0x2b, 0xa7, 0x5b, 0x45, 0x08, 0xe7, 0x1f, 0xde, 0x2b, 0xc7,
  0xd2, 0xeb, 0xd1, 0xc3, 0xa9, 0x51, 0xf2, 0x5f, 0xdf, 0x9b, 0xa7, 0xde,
  0x70, 0xac, 0xcf, 0x1f, 0xdd, 0x32, 0x0c, 0x29, 0xf0, 0x24, 0x10, 0x10,
  0xe5, 0x74, 0xee, 0x8f, 0x58, 0xff, 0x25, 0xff, 0x61, 0x14, 0x27, 0x22,
  0x0a, 0x3e, 0xc7, 0xcc, 0xdc, 0xe5, 0x3f, 0x77, 0x06, 0xa5, 0xea, 0x2b,
  0x57, 0x0e, 0x1d, 0xb1, 0x2d, 0xe8, 0x28, 0x21, 0xdb, 0x1d, 0x07, 0xe8,
  0x01, 0xae, 0x23, 0x40, 0xde, 0x62, 0xfd, 0xd9, 0xc7, 0x0a, 0x34, 0x43,
  0x39, 0xd4, 0x54, 0x15, 0x1e, 0xf9, 0x05, 0xdd, 0xd4, 0xfc, 0xb7, 0xfe,
  0x37, 0x16, 0xa8, 0x9e, 0x5b, 0xc2, 0xc6, 0x5d, 0xff, 0xe2, 0x08, 0xf3,
  0xec, 0xc3, 0xfc, 0x35, 0xc2, 0xd9, 0xc5, 0xd1, 0xfc, 0xed, 0xdc, 0xe6,
  0xb5, 0xf5, 0xcb, 0x66, 0x41, 0xbe, 0x4d, 0xf0, 0xd4, 0xf6, 0x2a, 0x1b,
  0x0b, 0x00, 0x39, 0xad, 0x24, 0x2b, 0x0b, 0xd6, 0xd4, 0x85, 0x03, 0xe9,
  0x0a, 0x1f, 0x15, 0x45, 0xd1, 0xdd, 0x18, 0x4c, 0x5a, 0xe5, 0xf3, 0x32,
  0x4b, 0x13, 0x18, 0x02, 0xf6, 0x08, 0x7a, 0xb1, 0x47, 0xc7, 0xdf, 0x12,
  0xf7, 0x1f, 0x3d, 0x84, 0x82, 0xf3, 0x0b, 0xfd, 0x00, 0xf7, 0xf5, 0xee,
  0x34, 0xbe, 0x07, 0xcc, 0xd6, 0x2f, 0xe7, 0xed, 0xda, 0xca, 0xf6, 0x2f,
  0x32, 0x33, 0x99, 0x13, 0xd5, 0xfd, 0xee, 0x00, 0xd9, 0x0a, 0xec, 0x17,
  0x25, 0x30, 0xc4, 0xd7, 0x2e, 0x22, 0xd7, 0x34, 0x39, 0xef, 0xe3, 0xb7,
  0x26, 0x55, 0xe9, 0xdd, 0xec, 0x3c, 0xbd, 0xe0, 0x18, 0x2d, 0x13, 0x16,
  0x4b, 0x09, 0xfb, 0x99, 0xe8, 0x28, 0x24, 0x35, 0xf3, 0xec, 0x02, 0xf7,
  0xe9, 0x40, 0x8c, 0xf0, 0x20, 0x74, 0x48, 0xc6, 0x12, 0xbc, 0x87, 0x71,
  0xbe, 0x47, 0x0a, 0x87, 0x43, 0xea, 0x0f, 0xb4, 0x86, 0xcf, 0xc0, 0x97,
  0xde, 0x41, 0x37, 0xdd, 0xd1, 0x14, 0xfb, 0xa7, 0xc5, 0x20, 0x51, 0x43,
  0xa4, 0xf1, 0xc8, 0xfb, 0x31, 0x02, 0x1d, 0x67, 0xeb, 0x92, 0xf9, 0xc7,
  0x4c, 0xa2, 0x58, 0x2c, 0x9e, 0xde, 0x19, 0x49, 0x04, 0x4b, 0x16, 0x0d,
  0x34, 0xda, 0x13, 0x5a, 0x26, 0xf0, 0x5b, 0xc0, 0xfa, 0x2a, 0xe6, 0x21,
  0x04, 0x36, 0xc3, 0x59, 0xe5, 0x19, 0xea, 0x22, 0xa8, 0x0f, 0xe3, 0xcc,
  0x9d, 0xdb, 0xe0, 0x07, 0xb0, 0xb2, 0x01, 0x2e, 0xfc, 0x53, 0xda, 0xf2,
  0x8a, 0xf9, 0x15, 0xd4, 0x04, 0xcb, 0x53, 0x54, 0xeb, 0x41, 0x0c, 0xda,
  0x05, 0xb9, 0x1b, 0x4a, 0x28, 0xff, 0x83, 0xa0, 0xe1, 0xf6, 0x08, 0x18,
  0x30, 0xde, 0xff, 0x01, 0xbc, 0xf7, 0x1d, 0x74, 0x06, 0x90, 0xaf, 0xc9,
  0x14, 0x2c, 0xf2, 0xe0, 0xa6, 0x03, 0x33, 0x25, 0xcc, 0xf4, 0x4b, 0x13,
  0x31, 0xcb, 0xe9, 0x16, 0xc2, 0x19, 0x1c, 0xb6, 0xe2, 0xd2, 0x2d, 0x23,
  0x78, 0xcb, 0xd1, 0xe7, 0x67, 0xf1, 0x08, 0x3a, 0xd8, 0x2d, 0x20, 0xb4,
  0xb2, 0x23, 0x36, 0x0e, 0x71, 0x14, 0x15, 0x10, 0x6a, 0x52, 0x83, 0x26,
  0x02, 0x4a, 0x33, 0x39, 0x38, 0x1a, 0x07, 0x1c, 0x6d, 0x35, 0xf8, 0xe4,
  0xaa, 0x32, 0xc4, 0xca, 0xff, 0xe7, 0x13, 0xd2, 0xbe, 0x19, 0xc1, 0xf9,
  0xb4, 0xce, 0x0d, 0x09, 0x4d, 0x39, 0x9c, 0xec, 0x30, 0x3d, 0x13, 0xe6,
  0x0d, 0xab, 0x0c, 0x12, 0x69, 0xef, 0xa1, 0xd4, 0xe7, 0x30, 0xb0, 0x04,
  0x30, 0xdd, 0x4a, 0x9b, 0x9c, 0x0f, 0x0f, 0x14, 0x35, 0x2b, 0x73, 0xbf,
  0xb8, 0xda, 0x20, 0xff, 0x57, 0x18, 0xc1, 0xea, 0xf8, 0xd4, 0xe7, 0x10,
  0x05, 0x08, 0xad, 0xf8, 0xef, 0x2b, 0xd4, 0xaf, 0xc7, 0xe1, 0x02, 0x02,
  0x42, 0x27, 0x0d, 0xb6, 0x38, 0x45, 0x05, 0x60, 0xd2, 0xda, 0xea, 0x19,
  0xf4, 0x05, 0xc0, 0x12, 0x40, 0x44, 0x0c, 0x6d, 0xf6, 0x09, 0x05, 0x5b,
  0x8e, 0x0d, 0xda, 0x5e, 0x67, 0xd6, 0x0e, 0xcd, 0xe2, 0x37, 0xbd, 0x63,
  0xd6, 0x06, 0xcf, 0x1e, 0xe6, 0x3f, 0xfb, 0xf8, 0x46, 0x97, 0xdc, 0xfd,
  0xb2, 0x02, 0x84, 0x05, 0x21, 0x01, 0x49, 0xc8, 0x03, 0x6e, 0x54, 0xe4,
  0x04, 0x14, 0xf0, 0xb1, 0x55, 0x0c, 0xf3, 0x5d, 0xb0, 0xc9, 0x3e, 0xd0,
  0x21, 0x20, 0xc9, 0xeb, 0xef, 0xe5, 0xb8, 0x2b, 0xfa, 0xb5, 0xdf, 0xf9,
  0xa6, 0x2e, 0x37, 0xe8, 0x3a, 0x3e, 0x15, 0x04, 0xed, 0x61, 0xde, 0xcc,
  0xfc, 0x23, 0x01, 0x35, 0xa0, 0xeb, 0x42, 0xec, 0x4b, 0xf4, 0x22, 0xbb,
  0x16, 0x68, 0xe5, 0x98, 0x5c, 0x1a, 0xce, 0xb9, 0xa3, 0x42, 0x3c, 0xd7,
  0x0a, 0xf7, 0x26, 0x3a, 0x42, 0xd2, 0x38, 0x15, 0xe3, 0x18, 0x46, 0x29,
  0xf8, 0x76, 0x03, 0x22, 0xd0, 0xce, 0x0e, 0x01, 0xd5, 0x04, 0xdb, 0xc1,
  0x39, 0x43, 0xe3, 0xc6, 0xf4, 0xe9, 0x4c, 0x09, 0x2f, 0x30, 0xf2, 0xc9,
  0x40, 0x0b, 0x46, 0x09, 0x35, 0x06, 0x4d, 0x1c, 0x70, 0x1e, 0xd6, 0xe9,
  0x08, 0xbf, 0xdf, 0x67, 0x19, 0xbc, 0xb2, 0x33, 0xa2, 0xaa, 0x42, 0x41,
  0x2d, 0xd3, 0xfd, 0x4e, 0x93, 0x47, 0x0d, 0x84, 0x2e, 0x24, 0x14, 0xf5,
  0xf4, 0x6c, 0x17, 0x14, 0x35, 0x29, 0x0c, 0xfb, 0xa5, 0x55, 0xd5, 0x0c,
  0xab, 0xdf, 0x9c, 0x74, 0xf8, 0xf1, 0x3c, 0x8d, 0x03, 0x06, 0xed, 0x51,
  0x29, 0xd6, 0xb8, 0x11, 0x1c, 0x0e, 0xe1, 0x56, 0x48, 0x6b, 0x7e, 0x66,
  0xf9, 0xc0, 0x22, 0x95, 0xc2, 0xdc, 0x1a, 0xd7, 0x11, 0xf0, 0xfd, 0xdf,
  0x04, 0xd7, 0x5a, 0xcb, 0x11, 0x5a, 0x49, 0x2f, 0x4c, 0x8e, 0xe1, 0xea,
  0xc6, 0xc0, 0x61, 0xae, 0xa2, 0xd6, 0xe7, 0xc4, 0x00, 0xb6, 0x05, 0xe6,
  0x95, 0x48, 0x33, 0x40, 0x0d, 0x53, 0x26, 0x3b, 0xf6, 0xff, 0xd6, 0xca,
  0x3c, 0xd9, 0x3f, 0xf3, 0x4f, 0x4b, 0xbc, 0x06, 0x0d, 0xe4, 0xaa, 0x13,
  0x2c, 0x0f, 0x17, 0x58, 0x0a, 0xc1, 0xb6, 0x30, 0xf8, 0x94, 0x60, 0xe7,
  0xbe, 0xd3, 0x34, 0xdd, 0x65, 0xb2, 0x3e, 0x3b, 0xbc, 0xf7, 0xfe, 0xd5,
  0xc6, 0xd7, 0x24, 0x6d, 0xf9, 0xeb, 0x3c, 0x19, 0xe4, 0x55, 0x56, 0x04,
  0x6f, 0x0a, 0x0f, 0xd0, 0x17, 0x64, 0xfa, 0x0e, 0xc0, 0x3e, 0xc2, 0xf2,
  0xdf, 0x22, 0x04, 0x57, 0xf3, 0x32, 0x2d, 0xd3, 0x2e, 0xdf, 0x1d, 0x44,
  0x84, 0x37, 0x34, 0xb7, 0x26, 0x38, 0xe0, 0x3b, 0x2c, 0x3c, 0x3b, 0x42,
  0xf5, 0x23, 0xee, 0x49, 0x9f, 0xc2, 0x29, 0x99, 0x1b, 0x6f, 0x12, 0x0d,
  0xec, 0x16, 0xef, 0xe5, 0xd0, 0xdb, 0x62, 0x24, 0x0f, 0xd1, 0xd4, 0xb3,
  0xfd, 0xfe, 0xd0, 0x51, 0xf8, 0xa6, 0xe4, 0x0f, 0xb7, 0xdb, 0xf7, 0x90,
  0xce, 0xe2, 0x08, 0xf2, 0x9f, 0x42, 0x2c, 0xef, 0x02, 0xca, 0xc8, 0x21,
  0xf4, 0x2f, 0xa2, 0x29, 0xc5, 0xc9, 0x87, 0x3a, 0xc1, 0x19, 0x36, 0x56,
  0xa8, 0xde, 0xe8, 0xc1, 0x2e, 0xe7, 0x1b, 0xe7, 0x2f, 0x06, 0x25, 0x8d,
  0xe3, 0x50, 0x5c, 0xe8, 0x08, 0xe5, 0xbb, 0x37, 0xe7, 0xc5, 0xf8, 0x9d,
  0x21, 0xf8, 0x2a, 0x5d, 0xfd, 0xde, 0xd4, 0xf7, 0xca, 0xa2, 0x57, 0x98,
  0xea, 0xd1, 0x62, 0xdf, 0x12, 0x52, 0x2b, 0xad, 0xaf, 0xab, 0x50, 0x20,
  0x2b, 0x1a, 0x0f, 0xd7, 0xc9, 0xfa, 0x0b, 0xb3, 0x3f, 0xd3, 0x5d, 0x17,
  0x1b, 0xba, 0xe2, 0xfe, 0x1c, 0x07, 0x02, 0x2f, 0x02, 0xb2, 0xb8, 0xda,
  0x25, 0x27, 0x4c, 0x7e, 0x03, 0x4c, 0x65, 0x66, 0xec, 0x1f, 0x09, 0x44,
  0xf8, 0xf2, 0xff, 0x27, 0xf8, 0xfd, 0x0f, 0x1c, 0x09, 0x02, 0xfc, 0x6c,
  0xfe, 0xfc, 0xd8, 0x32, 0x61, 0xdf, 0xde, 0x09, 0x0b, 0x50, 0x01, 0x30,
  0x0d, 0x17, 0xf4, 0x0f, 0xdb, 0xf3, 0x6a, 0x5d, 0xf4, 0xef, 0x75, 0x0e,
  0xf6, 0xb7, 0xef, 0x5a, 0x07, 0xe5, 0x28, 0xc8, 0xc1, 0xc6, 0xf4, 0x40,
  0x56, 0xe1, 0x02, 0xb6, 0x27, 0x06, 0xb3, 0x30, 0x47, 0x02, 0x61, 0x5f,
  0x51, 0x24, 0xfb, 0xe3, 0x40, 0x0a, 0x0c, 0x9e, 0x41, 0x95, 0xf2, 0xd8,
  0xed, 0xc6, 0x77, 0xf9, 0xbd, 0xc7, 0xf8, 0x24, 0x9c, 0xea, 0xf3, 0x1c,
  0x0a, 0x16, 0xe0, 0x0e, 0x03, 0xc5, 0xf1, 0xf7, 0x7f, 0x39, 0xbf, 0x57,
  0xb0, 0xaf, 0x3a, 0x9c, 0xf2, 0x27, 0xf2, 0x16, 0x03, 0xd1, 0xe9, 0x26,
  0x23, 0xc3, 0x01, 0xfc, 0xc0, 0xd9, 0x0d, 0x25, 0x0c, 0xd6, 0x27, 0x12,
  0x28, 0x07, 0xc6, 0x0e, 0xb1, 0xc4, 0xbf, 0xe4, 0xea, 0xd3, 0x23, 0x9a,
  0xcf, 0x60, 0x31, 0xa4, 0x14, 0xa3, 0xfd, 0xc4, 0xb8, 0x81, 0xde, 0x2d,
  0x0a, 0xdc, 0xd5, 0xe7, 0x5f, 0xe2, 0x31, 0xad, 0x53, 0xdd, 0xf8, 0xe2,
  0xc8, 0xb0, 0xb3, 0x48, 0x09, 0x15, 0xf9, 0x42, 0xce, 0x2c, 0xcb, 0x3b,
  0x03, 0x02, 0xc6, 0xd4, 0xdb, 0xaf, 0xf0, 0xff, 0x76, 0x06, 0xbb, 0x40,
  0xe8, 0x14, 0x5f, 0x17, 0xc0, 0x08, 0x1b, 0x2c, 0xc1, 0xb6, 0xac, 0x06,
  0x48, 0xe8, 0x37, 0xee, 0x1b, 0xc7, 0x2b, 0xf0, 0xd3, 0x1c, 0x33, 0xd3,
  0x24, 0x0c, 0x36, 0x2d, 0x28, 0xd3, 0xd1, 0xa8, 0xe2, 0xcc, 0xab, 0xe8,
  0xf2, 0x1d, 0xef, 0xa1, 0x46, 0xe5, 0xc9, 0xef, 0xfd, 0x03, 0xd8, 0x29,
  0x3d, 0x12, 0xf2, 0xcc, 0xba, 0xac, 0xf5, 0x9e, 0xc4, 0x8f, 0x42, 0xa6,
  0xea, 0xd2, 0x2c, 0x50, 0x1c, 0x2e, 0x07, 0xe7, 0x6d, 0x6e, 0x61, 0xaf,
  0xdd, 0x9d, 0xbb, 0xee, 0xea, 0xa4, 0x0d, 0x49, 0x10, 0xa6, 0xf2, 0xab,
  0xa7, 0x3d, 0xca, 0x05, 0xc5, 0x1d, 0xdd, 0x0b, 0x3b, 0xb5, 0xee, 0x22,
  0x1c, 0x0c, 0xe8, 0x19, 0xbd, 0xf2, 0xe6, 0xc4, 0x20, 0xde, 0xe8, 0x96,
  0x20, 0xeb, 0xbf, 0x38, 0x40, 0xcd, 0xcb, 0x43, 0x13, 0x28, 0x02, 0x38,
  0xdb, 0xcc, 0x13, 0x9e, 0x78, 0x95, 0x20, 0x16, 0x31, 0x0a, 0x0a, 0x46,
  0x0d, 0x28, 0xc3, 0xf6, 0x1e, 0x2b, 0x96, 0xe6, 0x26, 0x99, 0xf6, 0x4d,
  0x06, 0x47, 0x2c, 0xb1, 0xca, 0x2d, 0x4a, 0x0b, 0x69, 0xcb, 0xfc, 0x11,
  0x95, 0x51, 0x54, 0xf7, 0x00, 0xbb, 0x2a, 0xc8, 0x0e, 0x23, 0x50, 0xe9,
  0xed, 0xff, 0x24, 0xee, 0xf6, 0x3f, 0xe7, 0x6d, 0xcd, 0x0f, 0x4d, 0xd6,
  0xcc, 0x24, 0xce, 0xb9, 0xf1, 0xae, 0x2c, 0x1e, 0x3e, 0xe6, 0x0c, 0xfd,
  0xd3, 0x2d, 0x30, 0xe5, 0x56, 0xa9, 0x06, 0xf4, 0x00, 0xb9, 0x2f, 0xc8,
  0xdc, 0xe7, 0x62, 0x91, 0xdf, 0x44, 0xf5, 0xd9, 0x23, 0xe0, 0x42, 0xc4,
  0x15, 0x65, 0xc4, 0x79, 0xe2, 0x9f, 0x6f, 0x20, 0x0c, 0xd1, 0x3b, 0xf3,
  0xfd, 0x61, 0xd2, 0xce, 0xe5, 0x02, 0xeb, 0xd5, 0x0a, 0xb2, 0xfb, 0x26,
  0x12, 0x71, 0x1b, 0xfd, 0x06, 0xaa, 0xe2, 0xf3, 0x76, 0xca, 0xf1, 0xe4,
  0xdb, 0xd9, 0x27, 0xa3, 0x44, 0x62, 0x28, 0xdb, 0x15, 0x44, 0x09, 0xc0,
  0xe8, 0xb1, 0xf3, 0x18, 0xe3, 0xbb, 0x18, 0xd4, 0x0b, 0xbf, 0xd4, 0x4b,
  0x2e, 0x52, 0x40, 0x05, 0xf2, 0xb2, 0x12, 0x1e, 0x22, 0xc1, 0x10, 0xfa,
  0x4a, 0xd9, 0xf9, 0x98, 0xed, 0x37, 0x2d, 0x35, 0x4e, 0x03, 0xa8, 0xe6,
  0xe9, 0xb2, 0xf5, 0xf4, 0xe6, 0x42, 0xc9, 0xb7, 0xe9, 0x1c, 0x43, 0x74,
  0xe0, 0x3f, 0xb9, 0xbe, 0xb6, 0xcb, 0x32, 0xe1, 0xd5, 0x43, 0x11, 0xea,
  0x0e, 0xce, 0xd5, 0xe5, 0x23, 0x03, 0x9b, 0xc2, 0x0a, 0x02, 0x76, 0xc5,
  0x98, 0xef, 0x20, 0x0f, 0xf2, 0xcd, 0x4f, 0xce, 0x1f, 0xd5, 0x7d, 0xc3,
  0x21, 0x03, 0xc5, 0x70, 0xb4, 0x5d, 0xb9, 0x53, 0x1c, 0xe0, 0x0a, 0x26,
  0x3f, 0x49, 0x12, 0x5b, 0x5a, 0x11, 0x1b, 0x35, 0x2d, 0x2d, 0x2b, 0x32,
  0xe7, 0x12, 0x31, 0xeb, 0xf7, 0x02, 0xbb, 0xc2, 0xff, 0x0c, 0xf3, 0xeb,
  0x2e, 0xd2, 0x30, 0x2c, 0xfa, 0xcd, 0x4b, 0x7a, 0xbe, 0x53, 0xef, 0x05,
  0xee, 0xe5, 0xbd, 0xf7, 0x1d, 0xc1, 0x0a, 0xf7, 0x67, 0xe7, 0x36, 0x13,
  0x3a, 0x7f, 0xe7, 0x41, 0x4a, 0xf7, 0xbb, 0xcc, 0x03, 0xe3, 0xcd, 0xa0,
  0xcc, 0xee, 0x26, 0xe2, 0xda, 0x36, 0x2e, 0x4d, 0x14, 0xd0, 0x21, 0x2c,
  0x9a, 0x44, 0xa0, 0x4f, 0xc6, 0xc8, 0xd1, 0xb2, 0xe4, 0x44, 0xb3, 0xf2,
  0x35, 0x78, 0x0e, 0xb2, 0x20, 0x22, 0x15, 0x93, 0xaa, 0x05, 0x73, 0x05,
  0x4a, 0xf4, 0x50, 0x2c, 0xf6, 0xe5, 0xad, 0xd6, 0xaf, 0xc2, 0xd9, 0xad,
  0xe9, 0xcf, 0xe7, 0xf6, 0xe0, 0x3e, 0xdc, 0xf0, 0xa3, 0xf2, 0xd2, 0x30,
  0x4d, 0x3f, 0x43, 0x01, 0xf4, 0xb5, 0x46, 0x29, 0xd3, 0xd1, 0xcf, 0x23,
  0xfb, 0xdf, 0x0e, 0x1f, 0x30, 0x53, 0xee, 0x30, 0xa3, 0xcc, 0xff, 0x30,
  0xdf, 0x0c, 0xdf, 0x13, 0xb4, 0x0b, 0x03, 0x63, 0xf1, 0xc5, 0x11, 0xf7,
  0x16, 0xe5, 0x9b, 0x53, 0xeb, 0xf4, 0xe3, 0xc4, 0xcb, 0x30, 0x67, 0x66,
  0x97, 0xd3, 0xcd, 0x41, 0xc8, 0xec, 0xca, 0xe2, 0xde, 0x44, 0xbb, 0xc1,
  0x23, 0x2b, 0xf3, 0xe2, 0x36, 0xa7, 0xd5, 0x02, 0x29, 0xea, 0x0e, 0xf0,
  0x0c, 0x03, 0x01, 0x09, 0xac, 0x18, 0x88, 0xf4, 0x1a, 0x2c, 0xdf, 0x7f,
  0xdd, 0x0a, 0xd2, 0x59, 0xcc, 0x16, 0xde, 0x2a, 0xc9, 0x9e, 0xb4, 0xb0,
  0x1f, 0x4e, 0xfc, 0xf7, 0xf8, 0xc4, 0x1a, 0xf3, 0x12, 0xec, 0xa8, 0xaf,
  0xe5, 0x5f, 0xf2, 0xd1, 0xd7, 0x06, 0xf9, 0x14, 0x11, 0x21, 0x42, 0x1e,
  0x1f, 0x33, 0xdd, 0x3c, 0x44, 0x9c, 0xe6, 0xc1, 0xba, 0xcf, 0xac, 0x58,
  0xcc, 0xd5, 0x4e, 0x1b, 0xc9, 0x50, 0xdb, 0x75, 0xff, 0xe9, 0x45, 0xbb,
  0x25, 0x12, 0xfb, 0x03, 0x1e, 0xfb, 0xb6, 0x8e, 0x0d, 0xfb, 0xb9, 0x20,
  0xc8, 0x1f, 0x6a, 0x16, 0x14, 0xde, 0x2b, 0x17, 0x0b, 0xdb, 0xc3, 0x0e,
  0xca, 0x10, 0xb7, 0x10, 0xe7, 0xf1, 0x45, 0xa9, 0x96, 0xd8, 0x7a, 0x30,
  0x23, 0xf7, 0xc1, 0xca, 0xe5, 0x2d, 0x78, 0xd5, 0xf8, 0x62, 0xc2, 0x12,
  0x03, 0xdc, 0xee, 0x30, 0x46, 0xbe, 0xf1, 0x34, 0x06, 0x95, 0xe1, 0xb9,
  0xeb, 0xa3, 0x40, 0xf3, 0xf7, 0x14, 0xe9, 0xf0, 0x23, 0xbd, 0x27, 0x1d,
  0xea, 0xc2, 0x24, 0xea, 0x0f, 0xd2, 0xc6, 0xcb, 0xa8, 0x20, 0x25, 0xd0,
  0x2a, 0x05, 0xec, 0xc2, 0x10, 0xe5, 0x12, 0x34, 0xb8, 0x2c, 0x4f, 0xe0,
  0xec, 0x12, 0x3d, 0xa9, 0x5f, 0xd6, 0x35, 0x22, 0xe3, 0x5f, 0xd7, 0x5e,
  0x69, 0x44, 0xfc, 0x37, 0x2f, 0xe9, 0x33, 0x24, 0xe7, 0xca, 0xbf, 0x35,
  0xd4, 0xae, 0x56, 0x19, 0x02, 0xef, 0xe9, 0x13, 0x6e, 0xd5, 0x10, 0xe6,
  0xc6, 0xd6, 0x69, 0x12, 0x1a, 0xfd, 0x0c, 0xdb, 0xf1, 0xcd, 0x41, 0x2e,
  0xec, 0xb7, 0xfb, 0x6c, 0xef, 0x00, 0x0e, 0xef, 0xf7, 0xab, 0x0e, 0xe4,
  0xb3, 0xfb, 0xcd, 0x19, 0xf3, 0xbc, 0xf5, 0xe2, 0x8e, 0x92, 0x3f, 0x8b,
  0x65, 0xcd, 0x6a, 0xe6, 0x9b, 0x1f, 0x94, 0xea, 0x07, 0xc5, 0xfc, 0xde,
  0x8c, 0x1a, 0x4b, 0x37, 0x9a, 0x58, 0xf1, 0x00, 0x18, 0x19, 0xff, 0xa8,
  0xb3, 0x22, 0xf9, 0x4f, 0x99, 0x26, 0x3f, 0x1c, 0xe0, 0xd1, 0x40, 0x09,
  0x40, 0x3d, 0xba, 0xf3, 0x4a, 0xd6, 0xf9, 0x0c, 0xee, 0x4c, 0x5d, 0x18,
  0xff, 0x30, 0xd8, 0x0d, 0x41, 0x90, 0xf6, 0x20, 0xfa, 0xcd, 0x98, 0x18,
  0x0c, 0x6a, 0x1a, 0xbd, 0x40, 0xd3, 0x0d, 0xaa, 0xd7, 0xad, 0xbe, 0xb9,
  0x1e, 0xeb, 0x40, 0x68, 0xc7, 0xec, 0x26, 0x15, 0xf4, 0xe6, 0xe0, 0x90,
  0xd8, 0x49, 0x3b, 0x0b, 0x67, 0xb7, 0x37, 0xad, 0x19, 0xfb, 0xc6, 0xb7,
  0x05, 0x48, 0xd7, 0xc6, 0xba, 0xf1, 0xd1, 0xc9, 0x60, 0x12, 0x00, 0x10,
  0xc1, 0x43, 0xd4, 0xe0, 0x16, 0x66, 0x1e, 0xa0, 0x0d, 0x47, 0xf6, 0x1e,
  0x1e, 0x1d, 0xd7, 0xdd, 0xb9, 0xfd, 0xec, 0xf4, 0x25, 0x41, 0xf1, 0xfd,
  0x18, 0xc7, 0xe0, 0x25, 0x1a, 0xea, 0xf1, 0xfe, 0x26, 0xd1, 0xb4, 0x23,
  0xb0, 0x28, 0xd4, 0x35, 0xdb, 0xdc, 0x81, 0xe7, 0x06, 0xf3, 0xfd, 0xe2,
  0x1b, 0x0c, 0x14, 0xa9, 0x00, 0x0a, 0x06, 0x2f, 0xdf, 0xe6, 0x28, 0xe6,
  0x27, 0xea, 0x1e, 0xd7, 0x6b, 0xa6, 0xee, 0xf8, 0xf9, 0xe3, 0xa7, 0xb9,
  0xe7, 0xfd, 0x41, 0xf1, 0xc2, 0x95, 0xfa, 0x13, 0x3c, 0xc6, 0xda, 0x65,
  0x0b, 0xd9, 0xeb, 0xe0, 0x22, 0xb2, 0x01, 0x0b, 0xaf, 0x64, 0x1a, 0x15,
  0x56, 0x10, 0x0c, 0x06, 0x22, 0x58, 0xd1, 0x9f, 0xd8, 0x1f, 0x0b, 0x1f,
  0xf0, 0x29, 0x26, 0x68, 0x0c, 0xf6, 0x0b, 0x0c, 0x1a, 0x91, 0xe2, 0xda,
  0x2b, 0x0d, 0x6c, 0xab, 0xdc, 0xc7, 0xdd, 0x34, 0xbc, 0xd3, 0xbb, 0x12,
  0x7c, 0x34, 0xee, 0xe7, 0x28, 0x1d, 0x10, 0x7e, 0x2b, 0xc3, 0x05, 0x85,
  0x20, 0x4f, 0x12, 0x4e, 0xc2, 0x11, 0xcb, 0xd0, 0x0b, 0x3e, 0x44, 0xcc,
  0x24, 0xfc, 0x0a, 0x57, 0xb9, 0xd0, 0x22, 0x3c, 0x08, 0x26, 0xe1, 0x6e,
  0xf2, 0xf0, 0xb7, 0x59, 0xc3, 0x8d, 0x53, 0xe2, 0x22, 0xcb, 0x52, 0x29,
  0x6b, 0x43, 0xf6, 0x5e, 0x62, 0xc6, 0xf6, 0x41, 0x04, 0x3c, 0xd0, 0xa3,
  0x05, 0x2d, 0xfc, 0xd3, 0x5b, 0x46, 0x2b, 0xd2, 0x78, 0xfe, 0x0d, 0xdf,
  0xee, 0xcf, 0xdd, 0x62, 0x79, 0xd6, 0x11, 0x50, 0xfb, 0x22, 0x40, 0x18,
  0x30, 0xab, 0x42, 0xcb, 0xcd, 0xc6, 0x3b, 0xfe, 0x17, 0xaf, 0x3d, 0x37,
  0xe3, 0xa7, 0x2c, 0x61, 0x22, 0xa7, 0xe3, 0xe6, 0xdc, 0xea, 0x02, 0x3f,
  0xc6, 0x41, 0x16, 0x0d, 0x61, 0xbe, 0x40, 0x03, 0xff, 0x17, 0x5c, 0x61,
  0x1e, 0xbb, 0x1c, 0x61, 0xe9, 0x2d, 0x14, 0x4c, 0xe9, 0xea, 0xf4, 0xb0,
  0x47, 0xd1, 0x28, 0x12, 0xd3, 0x37, 0xca, 0x52, 0x55, 0xab, 0xdb, 0x77,
  0x35, 0x27, 0xd1, 0xe8, 0xa2, 0x11, 0xd7, 0xdf, 0xb4, 0xdf, 0x31, 0xf1,
  0x14, 0xf8, 0xe3, 0x75, 0x0a, 0xd3, 0x72, 0xb6, 0x1e, 0x4c, 0xba, 0xe8,
  0xd2, 0xff, 0x12, 0x33, 0xe2, 0xfb, 0xa4, 0xe2, 0x29, 0xc7, 0xb5, 0x3d,
  0xde, 0xde, 0xaf, 0x2d, 0xdb, 0xcc, 0x03, 0xa7, 0xf6, 0xfb, 0x1a, 0xf2,
  0x23, 0x74, 0xd4, 0x0d, 0x2c, 0x49, 0xe6, 0x35, 0xc1, 0xd2, 0x0c, 0xf0,
  0xb4, 0xc2, 0x0a, 0x95, 0xe6, 0x43, 0x2e, 0x46, 0xf2, 0x4b, 0xdd, 0xcf,
  0xcd, 0xc3, 0xc5, 0x44, 0x32, 0x09, 0xf0, 0x10, 0x76, 0xd0, 0xc8, 0xef,
  0xc8, 0xc3, 0xb0, 0x2a, 0x93, 0x04, 0x11, 0xa9, 0xed, 0xa6, 0xe8, 0xa9,
  0xe4, 0x26, 0xe2, 0x15, 0x7a, 0x19, 0xb6, 0xc5, 0x1f, 0x2a, 0x4f, 0xce,
  0x46, 0xf0, 0xf1, 0x19, 0x0f, 0x48, 0x3e, 0xfb, 0x11, 0xb1, 0x09, 0xc8,
  0x28, 0xff, 0x2b, 0x86, 0x41, 0x1b, 0x2a, 0x1f, 0xa9, 0xea, 0x2b, 0x1a,
  0xd0, 0xea, 0xcd, 0x2f, 0x28, 0x2a, 0xfd, 0x0b, 0x22, 0xb2, 0xeb, 0xe4,
  0x1c, 0x23, 0xc3, 0xe3, 0x93, 0x60, 0x41, 0xd9, 0xef, 0x0f, 0xaa, 0x47,
  0xd5, 0x2a, 0x28, 0x07, 0x25, 0x4e, 0xbe, 0xba, 0x09, 0xed, 0x19, 0xe6,
  0xdd, 0xe8, 0xf6, 0x1c, 0x5b, 0x22, 0x52, 0xab, 0x1c, 0x84, 0xf8, 0x07,
  0x8a, 0xae, 0x51, 0xfe, 0x07, 0x32, 0x03, 0x1c, 0xc8, 0x38, 0x61, 0xf9,
  0x53, 0x01, 0x2d, 0xe6, 0xdd, 0xd2, 0xe2, 0x97, 0xe9, 0xf4, 0x58, 0x3a,
  0xea, 0x07, 0xb5, 0x40, 0xbb, 0x70, 0xb9, 0xae, 0xe5, 0xf8, 0x46, 0xfc,
  0xcf, 0xa7, 0x20, 0x60, 0x99, 0x1f, 0x89, 0x2e, 0x13, 0xe0, 0xb0, 0x22,
  0xb9, 0x16, 0xe8, 0xa3, 0x07, 0xd4, 0xcb, 0x1a, 0x9d, 0x8d, 0x79, 0x59,
  0xe7, 0x91, 0xd6, 0xf3, 0xf9, 0x0c, 0xed, 0x9d, 0xd6, 0xc7, 0x17, 0xfc,
  0xf0, 0x06, 0xea, 0xec, 0xd5, 0xca, 0xf8, 0x1a, 0x1a, 0x37, 0xc2, 0x00,
  0x0c, 0x09, 0x35, 0x07, 0x36, 0xcf, 0x07, 0xc0, 0x52, 0x21, 0x04, 0x08,
  0x52, 0xda, 0x17, 0xe5, 0x38, 0x17, 0x19, 0xdc, 0xf3, 0x1f, 0xf0, 0xd1,
  0x47, 0x5a, 0x16, 0x45, 0x81, 0xe0, 0x35, 0xe3, 0xf3, 0x0f, 0xcd, 0x13,
  0x38, 0xee, 0xee, 0x43, 0x68, 0xda, 0x0f, 0xb4, 0x14, 0x05, 0x17, 0x08,
  0x3b, 0xdc, 0xbb, 0x5f, 0x22, 0xe5, 0x77, 0xf3, 0xe7, 0x2d, 0x02, 0xd3,
  0xf8, 0x48, 0x62, 0xf9, 0xf3, 0xf9, 0x0f, 0xfd, 0xf3, 0x12, 0x0b, 0x0f,
  0xf9, 0xbe, 0x2d, 0xd9, 0xc7, 0xf2, 0x19, 0x19, 0xdc, 0xe4, 0x65, 0x25,
  0x19, 0x0d, 0x63, 0x30, 0x10, 0xe2, 0xf0, 0x98, 0x1e, 0x01, 0xad, 0xa9,
  0x64, 0xbf, 0xa5, 0xa5, 0x0b, 0xb7, 0xf1, 0x96, 0x26, 0xab, 0x45, 0x14,
  0xef, 0xd4, 0x24, 0xbf, 0xe8, 0x35, 0x67, 0x54, 0xd1, 0xa6, 0x12, 0x26,
  0xb3, 0x1a, 0xe3, 0xb7, 0x0c, 0x12, 0xd3, 0xd3, 0x23, 0x2e, 0x27, 0x00,
  0x17, 0x62, 0x0b, 0x39, 0x53, 0xbe, 0x01, 0x1c, 0xcf, 0x08, 0x52, 0x1e,
  0xd0, 0xd9, 0xb3, 0xfb, 0x67, 0xd9, 0x48, 0x31, 0x03, 0x46, 0x4f, 0x30,
  0x49, 0xe1, 0x42, 0x31, 0xbf, 0x63, 0x9d, 0x12, 0xe5, 0x71, 0x34, 0xed,
  0x22, 0xe7, 0xe1, 0xb1, 0xe7, 0xf3, 0x9d, 0x02, 0xd1, 0x23, 0xff, 0xfb,
  0x95, 0x96, 0x6e, 0xf0, 0x27, 0x21, 0xe5, 0x8d, 0x3e, 0x64, 0x05, 0x36,
  0x07, 0x14, 0xd4, 0x0c, 0xe5, 0x47, 0xf9, 0x29, 0x63, 0x60, 0x0a, 0x3d,
  0x24, 0xc7, 0xe7, 0x30, 0xa1, 0x47, 0x4b, 0xfb, 0xf0, 0x51, 0x6b, 0xfc,
  0xa7, 0xa7, 0xfd, 0xfa, 0x5f, 0xc0, 0x65, 0x18, 0x72, 0x33, 0xc0, 0x01,
  0xcb, 0xf5, 0x30, 0xd3, 0x3f, 0xb6, 0xdb, 0x2d, 0x2b, 0xd6, 0xe8, 0xb3,
  0x67, 0x1a, 0xf1, 0x0e, 0xd6, 0x95, 0xcf, 0xea, 0xfb, 0x18, 0xc2, 0x62,
  0xa2, 0xc0, 0xec, 0x3f, 0x81, 0xfe, 0xf2, 0xff, 0xc1, 0x1f, 0xeb, 0x1c,
  0x16, 0x7f, 0x62, 0x85, 0xdc, 0xd4, 0xda, 0x55, 0x0e, 0x51, 0xe9, 0x2b,
  0xda, 0xfe, 0xda, 0x35, 0x05, 0xf8, 0xd9, 0x3a, 0x63, 0x0b, 0x38, 0x1a,
  0x37, 0x4a, 0x60, 0xb8, 0x6f, 0x86, 0xb6, 0xec, 0x0a, 0xcc, 0xeb, 0xdb,
  0xef, 0xd9, 0x1b, 0x9f, 0xdb, 0xec, 0x51, 0x17, 0x22, 0xff, 0xbe, 0xf5,
  0x3b, 0x5f, 0xb2, 0x2c, 0x6f, 0xf1, 0x6b, 0x56, 0xb0, 0xda, 0x4f, 0xdc,
  0x31, 0xf2, 0xfb, 0x93, 0x96, 0x73, 0x05, 0x08, 0x32, 0xfa, 0x91, 0xfe,
  0xa9, 0xd4, 0xbc, 0x3b, 0xef, 0xea, 0x23, 0x3e, 0xcc, 0x48, 0x34, 0x1f,
  0x33, 0x10, 0x1d, 0xe0, 0xca, 0xc2, 0x9b, 0x44, 0xed, 0xca, 0xd3, 0x54,
  0x09, 0x88, 0xc9, 0x27, 0xa2, 0x8f, 0xd7, 0x1b, 0x31, 0xd8, 0x23, 0x81,
  0xfc, 0x34, 0x0f, 0xed, 0x16, 0x2b, 0x6e, 0xc8, 0xe2, 0xdd, 0x04, 0x05,
  0x07, 0xff, 0xc8, 0x1e, 0xab, 0xc2, 0xa7, 0xd6, 0xa5, 0xb4, 0x05, 0x46,
  0x02, 0xdd, 0x57, 0x03, 0x36, 0x59, 0xe3, 0xe3, 0x5f, 0xa9, 0xc4, 0x9c,
  0x27, 0x0a, 0xb9, 0xc0, 0x27, 0x46, 0x48, 0xdf, 0xc9, 0xfc, 0xba, 0x26,
  0xe4, 0xd3, 0x41, 0x11, 0x25, 0xe2, 0x98, 0x5f, 0x76, 0xf7, 0xbe, 0xfb,
  0x42, 0x45, 0xce, 0x07, 0x17, 0xe7, 0xa0, 0x1a, 0x13, 0xe8, 0x0a, 0xb0,
  0xec, 0xce, 0xfb, 0xfb, 0xd2, 0xf8, 0xf9, 0xf2, 0xc6, 0x0d, 0x04, 0x6d,
  0xb4, 0x3a, 0xda, 0x9f, 0x06, 0x01, 0xef, 0xdc, 0x19, 0xd2, 0xeb, 0xb2,
  0x48, 0xf3, 0x2a, 0xe7, 0xbc, 0xfd, 0xeb, 0xc2, 0xc7, 0xe6, 0x37, 0xc2,
  0xa8, 0x59, 0xb3, 0x2d, 0xd3, 0xe6, 0xd0, 0x26, 0xdb, 0xe6, 0x26, 0xd0,
  0xe1, 0xe3, 0x89, 0x00, 0xa6, 0xbb, 0x28, 0xa5, 0x06, 0xab, 0x35, 0x65,
  0x4c, 0x02, 0xae, 0x14, 0x24, 0x15, 0x25, 0x97, 0xff, 0x24, 0x31, 0x1c,
  0x36, 0xee, 0x25, 0x7c, 0xbe, 0x18, 0x11, 0xff, 0xd3, 0x01, 0x21, 0x65,
  0x95, 0xe8, 0xd1, 0xdb, 0x34, 0x9a, 0xfa, 0x9d, 0xb6, 0x4b, 0xa6, 0xc3,
  0xc6, 0x38, 0x8a, 0x66, 0x64, 0x30, 0xf7, 0xe9, 0x58, 0x22, 0x53, 0x39,
  0x42, 0xb4, 0xc2, 0x59, 0xf9, 0x8b, 0xe9, 0x53, 0x51, 0x93, 0x3e, 0xc3,
  0xcc, 0x30, 0x43, 0x15, 0xed, 0x2a, 0x04, 0x2f, 0xe0, 0x25, 0xd0, 0xd3,
  0xbb, 0xf3, 0x5b, 0x1a, 0x20, 0xfd, 0xf5, 0x01, 0x03, 0x61, 0x64, 0xf2,
  0x37, 0xf6, 0x29, 0xba, 0xd8, 0xf1, 0xf4, 0xf3, 0xe2, 0x07, 0x20, 0x54,
  0xf8, 0x28, 0x0f, 0x89, 0x05, 0xcb, 0xf3, 0x05, 0xed, 0x25, 0xb6, 0x41,
  0x09, 0x37, 0x19, 0xfd, 0x08, 0x42, 0xe9, 0x15, 0xe2, 0x2c, 0x36, 0xd7,
  0xc1, 0xdd, 0xde, 0xe7, 0xad, 0xd2, 0xba, 0xbb, 0x0c, 0x7d, 0xe2, 0x50,
  0xcc, 0x60, 0x1e, 0x3b, 0x9b, 0xd3, 0xfb, 0xf4, 0xb5, 0x1c, 0x29, 0x74,
  0x9c, 0x57, 0xc8, 0x3b, 0x91, 0x61, 0xfd, 0x43, 0xf1, 0xcb, 0xd1, 0x1f,
  0x0a, 0x02, 0xdc, 0xd5, 0x37, 0x34, 0x43, 0x3a, 0x4f, 0x20, 0x2b, 0xfc,
  0xcc, 0x27, 0x83, 0x31, 0xeb, 0x43, 0x23, 0xf4, 0x43, 0xc0, 0xaf, 0xbf,
  0xa4, 0x39, 0x00, 0x0a, 0xbe, 0xb1, 0x15, 0x94, 0x97, 0x14, 0xc2, 0xdb,
  0x6b, 0xd9, 0x23, 0x3b, 0x6e, 0xd0, 0x01, 0xa8, 0xd1, 0xe2, 0xff, 0xdc,
  0xde, 0xa8, 0xca, 0xf6, 0xf6, 0x52, 0xfc, 0x00, 0x20, 0x07, 0xce, 0xd6,
  0x04, 0xfb, 0xd0, 0x11, 0x1c, 0x6b, 0x3f, 0xb7, 0xfe, 0xb8, 0xcb, 0xf8,
  0x17, 0x1d, 0xa1, 0x11, 0xf8, 0x20, 0xe1, 0x41, 0x35, 0xf5, 0x28, 0x2a,
  0xcc, 0x93, 0x87, 0x10, 0xe5, 0x00, 0x0c, 0x58, 0x34, 0xc4, 0xb5, 0xb6,
  0x43, 0xfe, 0x2a, 0xec, 0xff, 0xf5, 0x42, 0x29, 0x10, 0xe9, 0x04, 0x1d,
  0xe0, 0x4c, 0xd7, 0x0e, 0x20, 0xe8, 0x8c, 0x1b, 0xec, 0x04, 0xd0, 0x2f,
  0x66, 0xf6, 0x3f, 0xe3, 0x3c, 0xa6, 0xc8, 0x98, 0x7c, 0xb1, 0xfb, 0xdd,
  0x49, 0xf1, 0xe5, 0x07, 0x37, 0x37, 0x3b, 0x37, 0xb5, 0x99, 0xbb, 0xcc,
  0x3a, 0x06, 0x4a, 0xf0, 0xc8, 0x28, 0x35, 0x14, 0x66, 0x12, 0xf1, 0xa8,
  0xca, 0x45, 0xe8, 0xc8, 0x02, 0x77, 0xf7, 0xe3, 0x14, 0x23, 0xfc, 0x1f,
  0x02, 0xce, 0x14, 0x57, 0xe2, 0xf1, 0x38, 0xbe, 0xf7, 0x8e, 0xa8, 0xd6,
  0xfb, 0x98, 0xc0, 0x0c, 0xe5, 0x32, 0xdf, 0xd4, 0xf1, 0x1b, 0x11, 0xe9,
  0xe4, 0xc2, 0x0c, 0x70, 0xcf, 0xf0, 0x3d, 0xfd, 0x74, 0xdb, 0x27, 0xcd,
  0xb2, 0xf7, 0x48, 0x6f, 0x2f, 0x17, 0x07, 0x2d, 0x2c, 0x2b, 0x66, 0x46,
  0xea, 0x34, 0xd8, 0x69, 0x79, 0x0e, 0xc7, 0xad, 0x34, 0xc7, 0x51, 0x63,
  0x3b, 0x35, 0x32, 0xb7, 0xb5, 0x42, 0xe1, 0x40, 0x41, 0x12, 0x5c, 0xc9,
  0xb7, 0x9e, 0x13, 0x28, 0x52, 0xbb, 0xf5, 0x15, 0x15, 0xdd, 0xe6, 0xf7,
  0x9a, 0x27, 0xa6, 0x26, 0xe9, 0x04, 0xd2, 0x1c, 0x30, 0x3a, 0xd4, 0xf1,
  0x3e, 0xab, 0x51, 0xb7, 0x11, 0xe4, 0xbd, 0xa3, 0x0f, 0x17, 0x6a, 0x31,
  0x9b, 0x4e, 0x62, 0x0f, 0x2b, 0x43, 0xf9, 0x18, 0x2c, 0x3c, 0xcb, 0x32,
  0x2a, 0xf1, 0x59, 0xae, 0xd6, 0xb9, 0xf7, 0xf9, 0x2f, 0xe0, 0x42, 0x5d,
  0x1a, 0xe4, 0x91, 0x3b, 0xba, 0x38, 0xbf, 0xfb, 0x1a, 0x35, 0xff, 0x20,
  0x4b, 0x02, 0xe9, 0x4b, 0x9c, 0x5b, 0x53, 0xce, 0xb3, 0x7e, 0x07, 0x19,
  0xe1, 0xe2, 0x27, 0x34, 0x41, 0xc0, 0xc8, 0x0f, 0x6a, 0x2e, 0xc9, 0x23,
  0xf1, 0x37, 0x11, 0xfa, 0xcf, 0x40, 0x0f, 0x06, 0xbe, 0x9a, 0x52, 0x41,
  0x84, 0x54, 0xb6, 0xf5, 0xcf, 0xd7, 0x1d, 0x22, 0xd0, 0x4d, 0x78, 0x27,
  0xe1, 0x13, 0xfa, 0xeb, 0x68, 0xe3, 0x20, 0x01, 0x2b, 0xb4, 0x2b, 0x97,
  0x11, 0x32, 0x63, 0x33, 0xc3, 0x3b, 0x12, 0xa6, 0xc9, 0x3f, 0x14, 0xcd,
  0x2c, 0x16, 0x2c, 0x6f, 0xf5, 0x07, 0xfb, 0xc1, 0x22, 0x64, 0xce, 0xf1,
  0xdb, 0xd3, 0x57, 0xbf, 0x51, 0xe2, 0x3b, 0xaf, 0xca, 0xb7, 0xab, 0xc2,
  0x9a, 0x13, 0xec, 0xf9, 0xd1, 0xdc, 0xaf, 0x28, 0xd1, 0xf2, 0x14, 0x49,
  0xce, 0x59, 0x47, 0x0e, 0x51, 0x15, 0xeb, 0x48, 0xc5, 0xc5, 0x28, 0x1c,
  0xd6, 0x46, 0x28, 0xca, 0x21, 0x2c, 0xd7, 0xe7, 0x13, 0x3b, 0xd1, 0xee,
  0xd6, 0xe3, 0x2c, 0xa3, 0x7b, 0x4c, 0x4e, 0xa2, 0xe4, 0x28, 0x42, 0x3a,
  0x18, 0xe7, 0xc4, 0xeb, 0x11, 0x06, 0x3a, 0xef, 0xa7, 0xe8, 0x0a, 0x25,
  0xfe, 0x31, 0x24, 0x35, 0x2e, 0xdf, 0xe2, 0x4c, 0xe3, 0x13, 0xcd, 0x75,
  0xf1, 0x22, 0xed, 0x3b, 0x18, 0x2f, 0xe2, 0xea, 0xc1, 0x6f, 0x01, 0xe4,
  0x36, 0x1f, 0x1b, 0xef, 0x65, 0x38, 0xec, 0xe0, 0x09, 0x96, 0xc8, 0xff,
  0x2b, 0x3b, 0xfd, 0x0a, 0x24, 0x19, 0x2c, 0x20, 0x0c, 0x01, 0xbe, 0xf2,
  0x11, 0x05, 0x52, 0x8c, 0x04, 0xca, 0xfc, 0xe4, 0x1f, 0x2a, 0xdb, 0x3e,
  0xcc, 0x8c, 0x54, 0xda, 0x08, 0xdb, 0x57, 0xfc, 0x08, 0xbf, 0x83, 0x1a,
  0x23, 0x55, 0x3f, 0x6d, 0xe4, 0xcf, 0xf1, 0xd9, 0xab, 0xfe, 0x54, 0xe0,
  0x32, 0xff, 0x1d, 0xd5, 0xce, 0xd5, 0x2d, 0xe6, 0x5e, 0x42, 0x60, 0x4e,
  0x99, 0xe2, 0xbd, 0xe7, 0x12, 0x51, 0x2d, 0x3d, 0x23, 0x23, 0xad, 0x1d,
  0x12, 0x35, 0x15, 0xcc, 0xc0, 0x8b, 0xaf, 0x21, 0x50, 0x06, 0x1c, 0x01,
  0xba, 0x00, 0xef, 0xe0, 0x46, 0x0d, 0x02, 0x59, 0x26, 0x30, 0xf8, 0xd3,
  0xf8, 0xcf, 0x13, 0x9d, 0x4a, 0xe7, 0x15, 0xf8, 0xf7, 0x1a, 0xfb, 0xfd,
  0x2b, 0x00, 0xea, 0x16, 0x20, 0xd6, 0xdc, 0x26, 0x16, 0x44, 0x05, 0x33,
  0xe0, 0x09, 0x13, 0xff, 0xe9, 0xfa, 0xbf, 0xee, 0x5f, 0x41, 0x06, 0xef,
  0x08, 0x31, 0xf1, 0xd9, 0xfd, 0x5f, 0xfd, 0xd5, 0xbf, 0xd5, 0xc0, 0x85,
  0xcc, 0xb6, 0x0c, 0x19, 0x5c, 0x3c, 0x02, 0xf3, 0x39, 0xcc, 0x0a, 0xf6,
  0xd6, 0x37, 0xed, 0x51, 0xbb, 0xe1, 0x33, 0xcd, 0x55, 0x2c, 0xbf, 0xda,
  0xf7, 0xb7, 0x5a, 0xf0, 0xcc, 0xcf, 0x03, 0xf1, 0x4d, 0x37, 0x26, 0x6e,
  0xa4, 0xc6, 0x3d, 0x0f, 0xfe, 0xeb, 0x2b, 0x2e, 0xeb, 0x01, 0xca, 0xe7,
  0xb6, 0xf9, 0x00, 0x65, 0xea, 0xe4, 0x53, 0xf9, 0x29, 0x48, 0x21, 0xa7,
  0x4f, 0xdd, 0x18, 0x15, 0x8b, 0x34, 0xdd, 0xea, 0xc2, 0xd0, 0xe1, 0xfb,
  0xed, 0x1d, 0x5b, 0xaa, 0xb0, 0x97, 0x0c, 0xac, 0x25, 0x70, 0xf9, 0xfa,
  0xcd, 0x01, 0x05, 0x08, 0xe4, 0x4e, 0xff, 0x38, 0x48, 0x05, 0x12, 0xf0,
  0xe7, 0xd8, 0x9c, 0xde, 0x01, 0x26, 0x3d, 0x17, 0xc9, 0x22, 0x37, 0x15,
  0x21, 0x2e, 0xb9, 0x24, 0x8d, 0x8e, 0x02, 0xc6, 0xcd, 0xd3, 0x9c, 0xc6,
  0xfe, 0x13, 0xfa, 0x55, 0x1b, 0x62, 0xc0, 0xf3, 0xf9, 0x44, 0xf4, 0x52,
  0xc6, 0x23, 0x25, 0xf1, 0xf3, 0xf5, 0xd1, 0xe3, 0xad, 0x1a, 0x2c, 0x10,
  0xfe, 0x3d, 0xbd, 0xe9, 0xe8, 0x0b, 0x62, 0xd0, 0xda, 0x32, 0xbd, 0x16,
  0x5f, 0x29, 0xe1, 0x42, 0xc6, 0xee, 0xab, 0xf7, 0xd7, 0x27, 0xac, 0xcd,
  0x45, 0x2e, 0x15, 0x00, 0x0e, 0x4b, 0xa0, 0xd3, 0xe5, 0x51, 0x0b, 0x6b,
  0x25, 0xcd, 0x25, 0x12, 0xba, 0xf0, 0x1d, 0xdc, 0x46, 0x9d, 0x1f, 0x1b,
  0x74, 0xe6, 0x04, 0xef, 0x68, 0xbc, 0x30, 0xce, 0x37, 0xe0, 0x1b, 0x55,
  0xff, 0xbc, 0xcd, 0xa6, 0x3d, 0xc9, 0x18, 0xf4, 0x59, 0x0c, 0xea, 0xf7,
  0x0d, 0x23, 0x0d, 0x41, 0x0c, 0x44, 0x30, 0x24, 0xeb, 0xf8, 0x3c, 0x87,
  0xd7, 0xa4, 0x14, 0xd5, 0x48, 0x44, 0x8f, 0x8a, 0x5d, 0x88, 0xf8, 0xf0,
  0xfa, 0x27, 0x54, 0x33, 0x23, 0xd0, 0xd0, 0x5a, 0x0b, 0xaa, 0xf3, 0xeb,
  0x44, 0x11, 0xb9, 0xc9, 0x6d, 0x2a, 0xd3, 0xe4, 0xe5, 0xb0, 0x6c, 0x22,
  0x51, 0x1a, 0x04, 0xc2, 0xa7, 0x1e, 0xfd, 0x68, 0x54, 0x0c, 0x3d, 0x0e,
  0x41, 0xf6, 0x17, 0xdc, 0xd2, 0x5d, 0xda, 0xbc, 0x3a, 0x60, 0x03, 0x41,
  0xab, 0xa4, 0x14, 0xe2, 0xf2, 0xbb, 0xc6, 0x96, 0xc0, 0xfc, 0x07, 0x24,
  0x6e, 0xeb, 0x07, 0xfe, 0x00, 0xa9, 0x14, 0xf1, 0x17, 0x33, 0xcb, 0x17,
  0x1c, 0x96, 0x23, 0xc9, 0x11, 0xe7, 0x84, 0xf7, 0xdb, 0xe7, 0xe8, 0xb1,
  0x7d, 0xe7, 0x41, 0xe9, 0x5b, 0x09, 0xc2, 0x48, 0x8a, 0x3d, 0xf9, 0x61,
  0xb8, 0xf2, 0xe0, 0x4d, 0xbe, 0x11, 0xfa, 0xd9, 0x1a, 0x1f, 0x44, 0x04,
  0xd7, 0x09, 0x18, 0x15, 0xf1, 0xfa, 0xf5, 0x39, 0x94, 0x14, 0x26, 0xcd,
  0xdc, 0x0a, 0xdd, 0xb9, 0x01, 0xc4, 0x3e, 0xd8, 0xb3, 0xcf, 0x03, 0x62,
  0xfa, 0x62, 0x5d, 0x18, 0xb5, 0xbf, 0x51, 0xda, 0x62, 0x74, 0xd9, 0x24,
  0x33, 0xc0, 0x20, 0xdd, 0x3f, 0xf1, 0x94, 0x6c, 0xdc, 0x0d, 0xff, 0x34,
  0xe1, 0xb7, 0x30, 0xe1, 0x1b, 0x54, 0xca, 0xe2, 0xbf, 0x6d, 0x2c, 0x62,
  0xf8, 0x24, 0x08, 0xfd, 0xef, 0xe1, 0x1e, 0x0a, 0xf8, 0xcb, 0xb2, 0xf8,
  0x8f, 0x06, 0xbe, 0x05, 0xb2, 0xa6, 0x1b, 0xb2, 0x2b, 0x0f, 0x4a, 0x3e,
  0x2b, 0x3f, 0x1c, 0xf3, 0x37, 0x4a, 0x83, 0xe0, 0x56, 0xdf, 0x17, 0x13,
  0xce, 0xe1, 0xf9, 0x7f, 0x41, 0xd4, 0xcb, 0x34, 0xf3, 0xd1, 0x02, 0xd8,
  0xcf, 0xd3, 0x39, 0x0b, 0x99, 0x26, 0x21, 0x97, 0xf7, 0xb1, 0xff, 0xef,
  0xf0, 0xc7, 0x28, 0x01, 0x1c, 0xa5, 0xc0, 0x32, 0xea, 0x8b, 0x0e, 0xf2,
  0xfc, 0x1f, 0xf7, 0x14, 0xfb, 0x2a, 0xec, 0xba, 0x49, 0x3f, 0xa5, 0xd0,
  0x4d, 0xe0, 0x32, 0xc1, 0x97, 0xf1, 0x76, 0x17, 0x1a, 0x11, 0xd1, 0x17,
  0xb1, 0xf1, 0xa6, 0x0f, 0x52, 0xc5, 0xf1, 0x26, 0x23, 0xde, 0xd0, 0x29,
  0x6a, 0x1d, 0xde, 0xfb, 0x31, 0x46, 0xf4, 0xe4, 0xdb, 0x20, 0xc6, 0xbf,
  0xe4, 0x4a, 0xc8, 0x25, 0x19, 0x5b, 0xe3, 0xfa, 0x19, 0x05, 0xd0, 0x45,
  0x1b, 0x0f, 0xab, 0xf6, 0xfa, 0xae, 0xed, 0x27, 0x39, 0xed, 0xee, 0xd4,
  0xb3, 0x36, 0x60, 0x10, 0x30, 0xe9, 0xfe, 0xe2, 0x27, 0xb4, 0x67, 0xca,
  0xa1, 0x17, 0xb8, 0x5c, 0x93, 0xb8, 0x54, 0x2e, 0x42, 0xcd, 0x6c, 0xd4,
  0x81, 0x49, 0xf2, 0x31, 0xe7, 0xa6, 0xd1, 0x29, 0x40, 0x02, 0xdc, 0xc2,
  0x94, 0xe0, 0x1b, 0xd9, 0xb9, 0xe6, 0x33, 0xf7, 0x16, 0x3e, 0x10, 0xe7,
  0xe0, 0x91, 0xf6, 0x1f, 0x06, 0xbb, 0x30, 0xbd, 0xe8, 0x0c, 0xe6, 0x91,
  0x91, 0x24, 0x1b, 0x30, 0x63, 0xfe, 0x25, 0xfd, 0x9f, 0x17, 0xf4, 0xef,
  0x03, 0x02, 0x03, 0xde, 0xe5, 0x08, 0x0e, 0xc1, 0x16, 0xec, 0x07, 0x0b,
  0x1b, 0xfa, 0x50, 0x55, 0x6a, 0xb0, 0x39, 0xb9, 0x13, 0xe4, 0xcd, 0x0b,
  0xb7, 0x11, 0xef, 0x05, 0xd6, 0x29, 0x42, 0x2c, 0xb5, 0x2f, 0x3f, 0xe6,
  0xe3, 0x26, 0x02, 0x20, 0xad, 0xeb, 0x9a, 0xc6, 0x24, 0xea, 0x9f, 0x37,
  0xf9, 0x00, 0x92, 0xf6, 0x1d, 0x16, 0xc0, 0x3a, 0x58, 0xd4, 0xe2, 0x2e,
  0xcc, 0x54, 0xf6, 0x70, 0x24, 0xeb, 0x31, 0xf9, 0xe8, 0xb2, 0x05, 0x4f,
  0x48, 0x0a, 0xb8, 0x0b, 0x64, 0xd3, 0x32, 0x3e, 0xfa, 0xd1, 0x4c, 0x31,
  0x89, 0xdb, 0x09, 0x08, 0x69, 0xd5, 0xca, 0x75, 0x3e, 0xb5, 0xec, 0xce,
  0xd2, 0x06, 0xef, 0xd0, 0xc0, 0x2e, 0x0f, 0xf9, 0xee, 0x03, 0x26, 0xc1,
  0xf3, 0xf6, 0x5b, 0xb1, 0x6a, 0xcb, 0x5a, 0x17, 0x9d, 0xc3, 0x37, 0x8c,
  0x28, 0xd3, 0x59, 0x37, 0xb1, 0x2b, 0x11, 0xcb, 0x5d, 0x7a, 0x1f, 0x0a,
  0xb9, 0xf4, 0x1d, 0xc9, 0x19, 0x98, 0x24, 0x6e, 0xff, 0xeb, 0xd2, 0x2f,
  0xfb, 0x0b, 0x17, 0x96, 0x12, 0x60, 0xb5, 0xae, 0xe5, 0x0f, 0xed, 0x4b,
  0x1a, 0xa2, 0x60, 0xe3, 0xf2, 0x06, 0xdd, 0x3c, 0xde, 0xe2, 0x97, 0xb9,
  0x05, 0x5b, 0x12, 0x6a, 0x07, 0xe1, 0xea, 0xd8, 0x1f, 0x51, 0xfb, 0x5b,
  0x0e, 0xf7, 0x9c, 0x0c, 0xdd, 0xdf, 0x66, 0x0f, 0x08, 0x4c, 0xee, 0x14,
  0xda, 0xea, 0x27, 0xc7, 0x4f, 0xd0, 0x0a, 0xdf, 0xfd, 0x32, 0x9d, 0xc3,
  0xf1, 0xc6, 0xdc, 0xaf, 0x86, 0xed, 0x29, 0xc1, 0x73, 0xfc, 0x32, 0xbb,
  0xa8, 0xbf, 0xbc, 0xf5, 0x8d, 0x07, 0xdd, 0x37, 0xbb, 0x44, 0xb1, 0x55,
  0xd4, 0xf2, 0x11, 0xb8, 0x0b, 0xda, 0xd4, 0x2a, 0x48, 0xe6, 0xb3, 0x14,
  0xd8, 0x2b, 0xc6, 0x1f, 0x24, 0x52, 0xec, 0xd7, 0xb0, 0xbf, 0xfb, 0x59,
  0x20, 0x35, 0xa5, 0xa8, 0x04, 0x18, 0xe6, 0x34, 0xa8, 0x63, 0x7d, 0xc9,
  0x0d, 0x66, 0x03, 0x8d, 0xc5, 0x31, 0xc2, 0x1d, 0x1a, 0x79, 0x72, 0xdd,
  0xf4, 0xc2, 0x17, 0xe1, 0x2b, 0x02, 0xeb, 0xce, 0xd2, 0x42, 0xb4, 0x19,
  0x0c, 0xc9, 0xe3, 0xe0, 0xf2, 0xc3, 0xbd, 0x07, 0x1a, 0xc7, 0x39, 0x25,
  0xe3, 0x36, 0xe3, 0x2d, 0x86, 0x53, 0x3b, 0x33, 0x18, 0xcf, 0x46, 0x1b,
  0xe6, 0xfd, 0xb1, 0x0e, 0x29, 0x2a, 0x1d, 0x03, 0x9e, 0xbb, 0xe4, 0x35,
  0x29, 0x56, 0x1c, 0xfe, 0xf3, 0x37, 0x66, 0xb7, 0x11, 0x6c, 0x5e, 0xa6,
  0xde, 0xa0, 0x2c, 0x37, 0xf2, 0x5f, 0x39, 0xef, 0xe2, 0xdf, 0x1e, 0xe8,
  0xbc, 0xdf, 0xf2, 0x18, 0x49, 0xd7, 0x5e, 0x3b, 0x0d, 0xcd, 0x18, 0x1d,
  0x34, 0x2f, 0xd3, 0x1d, 0x5a, 0xe6, 0x48, 0x45, 0x09, 0xe4, 0x35, 0xf4,
  0x05, 0x08, 0xf0, 0x1c, 0xb3, 0x2d, 0xba, 0x16, 0x01, 0x1d, 0xf3, 0xcb,
  0x0b, 0xd0, 0x3b, 0xe0, 0x40, 0x67, 0x08, 0xb1, 0x36, 0x60, 0x90, 0x02,
  0x15, 0x6b, 0x5d, 0xc1, 0x4a, 0xe4, 0xb5, 0xef, 0xee, 0x1a, 0xc9, 0x51,
  0x05, 0xae, 0xf8, 0xbf, 0x21, 0x78, 0x03, 0xda, 0x00, 0xf7, 0xf4, 0xdf,
  0x42, 0x23, 0x2e, 0xac, 0xc6, 0x2e, 0xf5, 0xf3, 0xb8, 0x17, 0xa2, 0x46,
  0x0a, 0x29, 0x43, 0x16, 0xb1, 0x3f, 0x1e, 0x16, 0x38, 0x10, 0x6f, 0x59,
  0xb3, 0x15, 0xbc, 0xc6, 0x24, 0x23, 0xe6, 0x27, 0x46, 0xfb, 0x0f, 0x57,
  0xe2, 0xe6, 0xc6, 0xe9, 0x34, 0x6a, 0xee, 0x01, 0x07, 0x23, 0x44, 0x88,
  0x00, 0x3f, 0xcb, 0x10, 0xab, 0xd1, 0x6e, 0xf0, 0x9e, 0x11, 0x32, 0x33,
  0x3d, 0x0e, 0x18, 0x53, 0x19, 0xad, 0x6f, 0x3a, 0xf6, 0x19, 0xdc, 0xd2,
  0xa6, 0x94, 0x7d, 0xd5, 0x49, 0x2f, 0xf6, 0xdf, 0xcd, 0xde, 0xa4, 0xe1,
  0x58, 0x41, 0x3f, 0x36, 0xf2, 0x29, 0xf1, 0x11, 0xa8, 0x1b, 0xb7, 0x41,
  0xfd, 0x27, 0xce, 0xff, 0x1e, 0x0c, 0x9f, 0x5e, 0x27, 0xef, 0x10, 0xa6,
  0x40, 0xae, 0xf1, 0x54, 0x5a, 0xe3, 0xaa, 0x12, 0xb8, 0x4b, 0x8d, 0xa7,
  0xda, 0xb5, 0xea, 0xcf, 0x52, 0x30, 0x6a, 0xd0, 0xf0, 0xbb, 0xf4, 0xfd,
  0xf7, 0x3c, 0x05, 0xc5, 0x25, 0x01, 0xd6, 0xbc, 0x37, 0xe0, 0xeb, 0xb9,
  0x13, 0xec, 0x9d, 0x24, 0x12, 0x1f, 0xb4, 0x00, 0x08, 0x5c, 0xd2, 0xd4,
  0xb4, 0xd3, 0x20, 0x66, 0x4c, 0x2d, 0x0e, 0xf2, 0xbe, 0x6e, 0x63, 0x6f,
  0xe2, 0xfe, 0x41, 0xf6, 0xec, 0xd9, 0xf3, 0xcd, 0x92, 0xed, 0x08, 0x0a,
  0xbc, 0x6a, 0x48, 0x69, 0xf7, 0xeb, 0xdc, 0x3d, 0xd5, 0x09, 0x17, 0x1f,
  0xec, 0xf5, 0x3a, 0xf4, 0x1e, 0x0c, 0x4c, 0xc8, 0x92, 0xae, 0xf3, 0x5e,
  0xea, 0xd2, 0xe1, 0xd7, 0xeb, 0xa6, 0x0a, 0x59, 0x3b, 0xbe, 0xa0, 0x06,
  0xb9, 0x44, 0x10, 0x9e, 0x2c, 0xfb, 0x2d, 0x1b, 0x0b, 0x53, 0xe6, 0x05,
  0x1c, 0xbc, 0x4c, 0xf5, 0x1a, 0x36, 0xab, 0x0c, 0x09, 0x01, 0x52, 0x58,
  0x5f, 0x7f, 0x08, 0x0a, 0x39, 0xfd, 0xb4, 0xdf, 0x72, 0x4d, 0xea, 0xfc,
  0x58, 0xed, 0xd6, 0x37, 0x14, 0x12, 0xe0, 0xe9, 0xd2, 0x1f, 0x20, 0x39,
  0x37, 0x5f, 0x32, 0x18, 0x22, 0xa9, 0x1f, 0xde, 0x74, 0xd6, 0x05, 0x46,
  0xe2, 0xba, 0xa6, 0xc1, 0x6e, 0xc4, 0xd5, 0xfc, 0x06, 0xe6, 0xa4, 0x53,
  0xe1, 0xce, 0xcd, 0x2c, 0x9e, 0xf8, 0x24, 0x33, 0xfe, 0x37, 0x12, 0xaa,
  0x37, 0xee, 0x8e, 0xea, 0xc2, 0x53, 0xbd, 0x9f, 0x51, 0x0e, 0x06, 0xf5,
  0x23, 0xe4, 0xd5, 0x26, 0x69, 0xf9, 0x00, 0xd5, 0x5d, 0xe0, 0x41, 0xab,
  0xa3, 0x03, 0x27, 0xf4, 0x35, 0x69, 0x5f, 0x0d, 0x2f, 0x09, 0x45, 0xac,
  0xcf, 0xfb, 0x21, 0xad, 0xf7, 0xf7, 0x07, 0x5c, 0xf0, 0x21, 0xd2, 0x5c,
  0xd7, 0xf3, 0x1d, 0x37, 0x26, 0x04, 0xed, 0x2b, 0xc2, 0x35, 0x39, 0xcb,
  0xd5, 0x63, 0x20, 0xf2, 0xd4, 0x11, 0xcf, 0x47, 0xcb, 0x92, 0x10, 0x7f,
  0xe0, 0x2f, 0x45, 0xdf, 0xd0, 0x0b, 0xe9, 0xc9, 0xe7, 0x96, 0xd9, 0x20,
  0x49, 0x8c, 0x1f, 0x1d, 0x3b, 0xe3, 0x6b, 0xd6, 0x3c, 0x33, 0x54, 0x6e,
  0xff, 0x54, 0x2f, 0x65, 0x09, 0x19, 0xf0, 0xcd, 0x67, 0x61, 0x3e, 0xd0,
  0x0c, 0x1d, 0x3d, 0xd9, 0x38, 0xec, 0x2e, 0xfe, 0x3d, 0xe1, 0x31, 0x3b,
  0xd4, 0x2a, 0xad, 0x18, 0x67, 0xc0, 0xdd, 0xfd, 0x26, 0xd4, 0xca, 0x0f,
  0xf0, 0x0f, 0x0a, 0xe8, 0xa7, 0xbb, 0x12, 0xeb, 0x1c, 0xa2, 0xeb, 0xfc,
  0xc7, 0xc6, 0xe4, 0xa6, 0xe8, 0x7d, 0x9e, 0xb4, 0xf0, 0xe3, 0x20, 0xed,
  0xcb, 0x94, 0xff, 0x70, 0xd6, 0x23, 0x04, 0x98, 0x05, 0x54, 0x47, 0x33,
  0xf6, 0xee, 0xec, 0xfa, 0xf0, 0x5c, 0xdd, 0xf0, 0xf6, 0x5e, 0x1f, 0x46,
  0xec, 0x4f, 0xe2, 0xff, 0x05, 0x01, 0xb6, 0x53, 0x51, 0x49, 0x57, 0xda,
  0x3e, 0x47, 0x36, 0x41, 0xaa, 0xb8, 0x46, 0xfe, 0xc3, 0xcc, 0x5c, 0x0f,
  0x50, 0xfb, 0xa1, 0xc5, 0x61, 0xe3, 0x25, 0xfa, 0xfe, 0x0a, 0x26, 0x0d,
  0x1f, 0xd2, 0x35, 0xc0, 0xca, 0x09, 0xd3, 0x37, 0xad, 0x0d, 0x36, 0xf5,
  0xd2, 0x3b, 0xf0, 0xc6, 0x08, 0x96, 0x38, 0xef, 0x63, 0xf2, 0xd5, 0xef,
  0x4e, 0xfa, 0x43, 0xf3, 0x13, 0x21, 0x7e, 0x08, 0x51, 0xe8, 0x24, 0x05,
  0xda, 0x6e, 0xcf, 0xf6, 0xf6, 0x1d, 0x06, 0x0d, 0xc6, 0x00, 0x0d, 0x1d,
  0xdc, 0x12, 0x50, 0xed, 0xc9, 0x3e, 0xb8, 0xe4, 0x04, 0xb2, 0x0b, 0xc3,
  0x34, 0xec, 0x4b, 0x1d, 0x28, 0xc2, 0x48, 0x05, 0xd2, 0xd7, 0x07, 0x46,
  0xf2, 0x5a, 0x08, 0xc2, 0x34, 0xb5, 0x06, 0xfb, 0xf5, 0x00, 0xc1, 0x1d,
  0xcf, 0xd5, 0x0a, 0xe6, 0xfb, 0xff, 0xef, 0x46, 0x9c, 0x56, 0xaa, 0x2c,
  0x67, 0xce, 0xb0, 0x11, 0xcf, 0x4a, 0x86, 0x76, 0xdb, 0x0d, 0xd6, 0xe8,
  0x2e, 0x2b, 0x4e, 0x03, 0xf7, 0x04, 0x7b, 0xc6, 0xde, 0x09, 0x84, 0x53,
  0xa5, 0xc2, 0xb5, 0x38, 0x5a, 0xe2, 0xaf, 0xea, 0x0c, 0xe4, 0x4e, 0x20,
  0x7b, 0x04, 0xac, 0x10, 0x52, 0x6d, 0xf6, 0xc5, 0xff, 0xd7, 0x01, 0x05,
  0xd2, 0x14, 0x15, 0xfa, 0x0d, 0x06, 0x5e, 0x23, 0x2f, 0xa8, 0x86, 0x68,
  0x0f, 0x12, 0xe5, 0x07, 0xee, 0xff, 0x06, 0xbc, 0x13, 0xdc, 0xfc, 0x09,
  0xf5, 0x2c, 0x7b, 0xf4, 0x2b, 0xd5, 0x0f, 0x70, 0x9d, 0xd1, 0x32, 0xe6,
  0x1c, 0x0b, 0x24, 0xb4, 0x10, 0xe5, 0x04, 0x05, 0x10, 0xf6, 0x20, 0xd3,
  0x17, 0x13, 0xd1, 0x3d, 0x10, 0xf8, 0x31, 0xf7, 0x88, 0xae, 0xac, 0x40,
  0xd7, 0x52, 0xe0, 0x1c, 0x15, 0xef, 0xb7, 0x2d, 0xf6, 0xc1, 0xfa, 0x91,
  0x9e, 0xd2, 0xfe, 0x6c, 0x0c, 0xb8, 0xc7, 0x1f, 0xfd, 0x1b, 0x5d, 0x34,
  0xba, 0x20, 0xa3, 0xe9, 0x1e, 0x1b, 0xde, 0x33, 0xdc, 0x01, 0xf1, 0xed,
  0xd8, 0xae, 0xd9, 0x1a, 0xfd, 0x3c, 0xea, 0xe5, 0x23, 0x95, 0x30, 0x18,
  0x62, 0x39, 0x45, 0xf6, 0x42, 0x1f, 0x32, 0x00, 0x33, 0xf9, 0x9f, 0x30,
  0xf3, 0x0c, 0xe8, 0xc4, 0x5c, 0xc1, 0x77, 0xfe, 0x31, 0x17, 0xe5, 0x01,
  0xbd, 0x4f, 0x12, 0xe5, 0xd6, 0x12, 0xde, 0x37, 0x52, 0xea, 0xd1, 0xed,
  0x54, 0x14, 0xed, 0x16, 0x23, 0xd9, 0x7c, 0x00, 0x08, 0xe8, 0x06, 0x5d,
  0x22, 0x1c, 0x1a, 0xb1, 0xfe, 0xdb, 0xca, 0x3d, 0x07, 0x1f, 0x33, 0x57,
  0xe8, 0xc7, 0x35, 0xd5, 0x10, 0xdd, 0xa5, 0x35, 0x1e, 0xcb, 0x08, 0x84,
  0x99, 0xd9, 0xa7, 0xda, 0xa3, 0xd6, 0x89, 0x0d, 0x49, 0x37, 0x03, 0xff,
  0xc4, 0xc6, 0xda, 0xc6, 0xd0, 0x38, 0x4b, 0xe4, 0xfd, 0x25, 0x79, 0xec,
  0xb5, 0x13, 0x65, 0xd4, 0x27, 0xab, 0x4d, 0xcc, 0xf1, 0xd2, 0xf5, 0x00,
  0x37, 0xfe, 0x06, 0xae, 0x07, 0x9e, 0x1d, 0xbb, 0xc6, 0x97, 0x02, 0xeb,
  0xdd, 0xc4, 0x38, 0xfc, 0x12, 0x29, 0xfa, 0x0f, 0xde, 0x01, 0xc3, 0x6e,
  0xf4, 0x01, 0x52, 0xb0, 0xa9, 0x37, 0x39, 0x0a, 0x48, 0xe6, 0x5b, 0xe7,
  0xf6, 0x3b, 0x01, 0x26, 0x1f, 0x1d, 0xbf, 0x22, 0xec, 0xf7, 0xe1, 0xe3,
  0x1e, 0xbe, 0x09, 0xee, 0xda, 0xd6, 0x66, 0xc3, 0x39, 0x73, 0x8e, 0x31,
  0xec, 0xeb, 0xbe, 0x0b, 0xcc, 0xf9, 0x09, 0xfc, 0x19, 0x33, 0xff, 0xf9,
  0xe1, 0xd0, 0xca, 0xd9, 0xeb, 0x74, 0x6b, 0xc4, 0x21, 0xb7, 0x1a, 0x14,
  0x0f, 0xe4, 0xdc, 0x4a, 0x22, 0x52, 0xf5, 0x4f, 0x0b, 0x07, 0xb8, 0x18,
  0xf1, 0x5f, 0x37, 0xff, 0xfa, 0xd0, 0x0a, 0xbe, 0x3d, 0x22, 0xfc, 0xe0,
  0x57, 0x6d, 0xc7, 0x34, 0x1b, 0x49, 0xc7, 0x13, 0x2f, 0x9a, 0xc5, 0x91,
  0xbe, 0xed, 0xea, 0x07, 0xf9, 0x9d, 0x42, 0xc2, 0xab, 0xf6, 0x13, 0xf1,
  0x10, 0x41, 0x77, 0xb7, 0x14, 0xeb, 0x2d, 0xf4, 0xca, 0x73, 0xc4, 0x48,
  0x03, 0x40, 0xec, 0xd5, 0x1c, 0x95, 0x38, 0x1f, 0xe6, 0xee, 0x3b, 0x0c,
  0x66, 0x65, 0xd6, 0xc4, 0xed, 0xd8, 0x09, 0x54, 0x1d, 0xcf, 0xfc, 0xdd,
  0xde, 0x48, 0x2e, 0x53, 0x31, 0x14, 0x5d, 0xe9, 0x4e, 0x20, 0x2d, 0x72,
  0xb5, 0x13, 0x97, 0x17, 0xca, 0x44, 0x25, 0x6b, 0xc1, 0x44, 0x11, 0xd5,
  0xe3, 0x2c, 0xe9, 0x49, 0xec, 0x96, 0xac, 0x60, 0x2a, 0x61, 0xcc, 0xe3,
  0x4a, 0xc6, 0x15, 0xcb, 0x54, 0xc9, 0x38, 0x07, 0x1e, 0x26, 0x63, 0xdb,
  0x15, 0x19, 0xf1, 0xdf, 0xfd, 0x64, 0x17, 0xe3, 0xfb, 0xef, 0x6f, 0xea,
  0x98, 0xf9, 0x9b, 0xfc, 0xf2, 0x88, 0x0f, 0x62, 0x24, 0xe8, 0xd8, 0x61,
  0x17, 0x0c, 0xaf, 0x14, 0xe0, 0x36, 0x0c, 0xdb, 0x1a, 0xf0, 0x5a, 0x0f,
  0xc0, 0xe3, 0xfc, 0xe8, 0x4d, 0x34, 0x3c, 0x7b, 0x74, 0x36, 0x8c, 0x19,
  0xfd, 0x23, 0xb3, 0x27, 0x68, 0xff, 0x08, 0xfd, 0x1b, 0x1e, 0xd6, 0x63,
  0xdf, 0x64, 0x28, 0xfe, 0x2d, 0x0c, 0xe4, 0x05, 0xee, 0x07, 0xe3, 0xfa,
  0x19, 0x2f, 0x5a, 0x91, 0xc2, 0x10, 0xf1, 0x16, 0x47, 0xec, 0x6f, 0x2c,
  0xee, 0x4f, 0x4c, 0xd7, 0xe0, 0xde, 0xff, 0x05, 0xfc, 0xea, 0x0e, 0x2e,
  0xa5, 0x4c, 0xe8, 0xe2, 0xce, 0xd6, 0x30, 0x34, 0xf4, 0xdf, 0x53, 0x41,
  0xe7, 0x0c, 0xd2, 0x11, 0x37, 0x56, 0x47, 0xab, 0x4f, 0x3f, 0xd0, 0x01,
  0x59, 0x1a, 0xb0, 0x9c, 0x05, 0x2e, 0xf1, 0x27, 0xc6, 0x30, 0x0f, 0x08,
  0x4c, 0xe6, 0x39, 0x66, 0x10, 0x5b, 0x32, 0x08, 0xcf, 0xd7, 0xff, 0x09,
  0x75, 0x31, 0x8f, 0x0f, 0xe1, 0x5d, 0x39, 0xb5, 0x56, 0x4f, 0xe9, 0x01,
  0xe6, 0xfb, 0xf5, 0x0a, 0x10, 0xa9, 0xef, 0x95, 0xf3, 0x3f, 0x30, 0x35,
  0xab, 0xe6, 0x1a, 0x84, 0xc6, 0xe9, 0xff, 0xff, 0x04, 0x00, 0x00, 0x00,
  0x20, 0x00, 0x00, 0x00, 0x00, 0x00, 0x00, 0x00, 0x00, 0x00, 0x00, 0x00,
  0x00, 0x00, 0x00, 0x00, 0x00, 0x00, 0x00, 0x00, 0x00, 0x00, 0x00, 0x00,
  0x00, 0x00, 0x00, 0x00, 0x00, 0x00, 0x00, 0x00, 0x00, 0x00, 0x00, 0x00,
  0xf2, 0xe9, 0xff, 0xff, 0x04, 0x00, 0x00, 0x00, 0x00, 0x14, 0x00, 0x00,
  0xe8, 0xc1, 0xbb, 0x9e, 0xca, 0x2c, 0x0e, 0xf3, 0x01, 0x06, 0xf3, 0xb2,
  0xce, 0xde, 0xfb, 0xfc, 0x15, 0x04, 0x46, 0xe2, 0xe1, 0x83, 0xf3, 0x76,
  0x2e, 0x66, 0x0d, 0x11, 0x12, 0xc1, 0xd1, 0xcc, 0x37, 0x05, 0x1e, 0xef,
  0x44, 0xbd, 0x32, 0x3a, 0xc1, 0x11, 0x28, 0xce, 0xa9, 0x12, 0x6b, 0x50,
  0x5a, 0x37, 0xf9, 0xac, 0x8c, 0xb0, 0xe5, 0x7b, 0xda, 0xc5, 0x9e, 0xf8,
  0x74, 0xf3, 0xfb, 0xd2, 0xcf, 0x82, 0xfb, 0x0b, 0xe7, 0x3a, 0x10, 0xb5,
  0x8f, 0xf3, 0x30, 0x25, 0x1b, 0x37, 0xf8, 0x23, 0x1a, 0xe6, 0x8a, 0xdb,
  0xfd, 0x5e, 0x11, 0xbd, 0x1d, 0x16, 0x39, 0x20, 0x17, 0xba, 0xf1, 0x45,
  0x06, 0x14, 0xd0, 0x2b, 0xd5, 0x54, 0x4b, 0xb6, 0x1c, 0xf5, 0x43, 0x09,
  0x04, 0x00, 0x13, 0xb2, 0x0f, 0x0e, 0x32, 0xa9, 0x88, 0x1b, 0xa1, 0xdd,
  0xe0, 0x21, 0xea, 0xb0, 0xdb, 0x73, 0x6b, 0xaf, 0xdb, 0xb3, 0xc8, 0x71,
  0x00, 0x20, 0x9d, 0xfb, 0x46, 0xe4, 0xe4, 0x56, 0x33, 0x36, 0x1a, 0x0b,
  0x54, 0xe3, 0xbf, 0xdc, 0x99, 0xc1, 0xbd, 0x1b, 0x17, 0xae, 0x2b, 0x08,
  0xa3, 0xff, 0x45, 0xe6, 0x2a, 0x98, 0xb8, 0xcd, 0xb0, 0x0a, 0x9e, 0xc7,
  0xc0, 0x31, 0xa6, 0xf2, 0xec, 0x20, 0xe1, 0x50, 0x41, 0xaf, 0x20, 0x24,
  0xd2, 0x4f, 0xd8, 0xb8, 0x6e, 0x0a, 0x8b, 0xfa, 0x17, 0xa5, 0x89, 0x75,
  0x74, 0xba, 0x1d, 0x13, 0x0f, 0xe3, 0xd0, 0xd4, 0xf1, 0x27, 0xe2, 0x14,
  0xee, 0x46, 0x06, 0x03, 0x86, 0x28, 0xef, 0x54, 0xb8, 0xa0, 0x95, 0x14,
  0xef, 0x44, 0x7f, 0x24, 0x0b, 0x1b, 0x39, 0x1d, 0x00, 0xd2, 0xaa, 0xfd,
  0xfb, 0x6d, 0xda, 0x1a, 0xf6, 0xf0, 0x0f, 0x57, 0xd1, 0x4e, 0xce, 0x0c,
  0x2e, 0x5e, 0xe2, 0x01, 0xd1, 0xb0, 0x0f, 0x14, 0x47, 0x73, 0x53, 0xfc,
  0xea, 0xe6, 0xe3, 0x02, 0x99, 0xac, 0x64, 0xc6, 0x6c, 0x62, 0x54, 0xb6,
  0x2b, 0xed, 0xff, 0x33, 0x02, 0xf8, 0xf7, 0x01, 0x3e, 0xce, 0x0a, 0xf3,
  0x85, 0x3e, 0xdc, 0x36, 0x46, 0xc8, 0xc5, 0x4d, 0xfb, 0x01, 0xfb, 0xca,
  0x20, 0xc0, 0x01, 0x3e, 0x0b, 0x3b, 0x71, 0x29, 0x9b, 0x31, 0xe9, 0x59,
  0x22, 0xe1, 0x2b, 0x1f, 0x9d, 0x54, 0x0a, 0xd6, 0xe5, 0x65, 0x34, 0x40,
  0xf4, 0xb3, 0x09, 0x13, 0x06, 0x41, 0x24, 0x9b, 0xfd, 0xf4, 0x1e, 0xe3,
  0xc4, 0x04, 0xb1, 0x24, 0x9f, 0xfa, 0x1c, 0xe0, 0x13, 0xe6, 0x9b, 0x47,
  0xf1, 0xef, 0x0d, 0xe9, 0x12, 0xc9, 0x38, 0x01, 0xb2, 0x20, 0xfe, 0xb6,
  0x8c, 0x16, 0x97, 0x1d, 0x11, 0xbf, 0x25, 0x0d, 0x55, 0x85, 0x0b, 0x9e,
  0xfd, 0xf8, 0x42, 0x39, 0xd4, 0x33, 0x6f, 0x26, 0x0e, 0x1b, 0xe1, 0xf5,
  0xe7, 0x40, 0xe7, 0xcb, 0xa1, 0xed, 0xb0, 0x5d, 0xdc, 0xeb, 0x45, 0xc7,
  0xcd, 0xb0, 0xb2, 0xeb, 0x1b, 0xcd, 0xdb, 0x0d, 0x09, 0x1c, 0x52, 0x84,
  0xf2, 0xd1, 0x50, 0xf0, 0xf2, 0x49, 0xe6, 0x09, 0x2e, 0x41, 0x2a, 0x2e,
  0x01, 0x3a, 0xe3, 0xc7, 0xe7, 0x62, 0x3a, 0x05, 0xae, 0xe1, 0xec, 0xfb,
  0x36, 0x02, 0xd4, 0x44, 0x0b, 0xed, 0x3c, 0x26, 0xf1, 0x9e, 0xf8, 0xfd,
  0x21, 0x11, 0x31, 0x02, 0xfd, 0xd4, 0x18, 0xb5, 0xce, 0xfe, 0xb9, 0xe2,
  0x1e, 0xbf, 0xf2, 0xe5, 0x9d, 0xea, 0x30, 0xfc, 0x9e, 0xe2, 0xc7, 0xdc,
  0xae, 0xb3, 0x17, 0x59, 0x23, 0xd9, 0xdd, 0x32, 0xeb, 0xeb, 0x10, 0x09,
  0x00, 0x27, 0x09, 0x18, 0x50, 0xee, 0x61, 0xf0, 0xdd, 0x1d, 0x3b, 0x4b,
  0x22, 0x63, 0xcf, 0x6e, 0x49, 0xd8, 0x3d, 0xea, 0xdc, 0x6e, 0x48, 0xdf,
  0xf2, 0xfc, 0xee, 0xaa, 0x1d, 0xa0, 0x70, 0x12, 0xcb, 0x39, 0xbd, 0x98,
  0xc2, 0x28, 0x0e, 0x0e, 0xd1, 0x0c, 0x1f, 0x0a, 0x03, 0xed, 0x77, 0x33,
  0xed, 0xe7, 0x11, 0xa5, 0xe1, 0x25, 0x2c, 0xa0, 0xfb, 0xbd, 0x17, 0x04,
  0x1d, 0x1b, 0xc1, 0x3c, 0xc9, 0x9c, 0x30, 0xa6, 0xf2, 0x34, 0xe9, 0x2a,
  0xa1, 0x3b, 0xd4, 0x05, 0xde, 0x35, 0xed, 0x01, 0xc6, 0xfc, 0xd8, 0x13,
  0x17, 0x4e, 0xf3, 0xc4, 0xd7, 0xc1, 0xa1, 0x87, 0xde, 0xd9, 0x48, 0xc9,
  0xf4, 0xe7, 0xe3, 0x97, 0x47, 0xce, 0x2b, 0xa8, 0xf5, 0x1a, 0xc5, 0x5d,
  0x1d, 0x3c, 0xe0, 0xa0, 0x14, 0xb5, 0x2f, 0xde, 0x18, 0xfa, 0xd0, 0x37,
  0x11, 0x11, 0x2f, 0x08, 0x0e, 0xf6, 0x20, 0x75, 0x37, 0xd0, 0x0c, 0xe8,
  0x00, 0x13, 0xd0, 0xff, 0x49, 0x14, 0xc9, 0xf1, 0x33, 0xf1, 0x0a, 0xa6,
  0x3c, 0xd6, 0xc4, 0x0d, 0xd3, 0xdd, 0xe0, 0xac, 0xe4, 0x5a, 0x0b, 0x79,
  0xc8, 0x3a, 0x0b, 0x5b, 0x4a, 0x49, 0x5a, 0x6a, 0x5b, 0x1f, 0xb2, 0x64,
  0xc9, 0xfc, 0xbc, 0xf6, 0x2d, 0x06, 0xe9, 0x0a, 0xdc, 0x0b, 0x1e, 0xd0,
  0xb5, 0x06, 0x2c, 0x5e, 0xe5, 0x26, 0xe0, 0x4a, 0xee, 0xc7, 0x21, 0xce,
  0xda, 0xf8, 0x37, 0xc0, 0xd4, 0xd9, 0xb7, 0xfd, 0xc4, 0x40, 0xb4, 0xc9,
  0x6c, 0x5a, 0x17, 0x9c, 0x06, 0xf3, 0x10, 0xdd, 0x1a, 0x42, 0xf6, 0xe1,
  0x02, 0xd1, 0xbc, 0xf1, 0xd0, 0x33, 0xad, 0xe6, 0xff, 0x1c, 0xe3, 0x12,
  0xb7, 0x21, 0xbc, 0x1b, 0xff, 0x05, 0xe6, 0xf6, 0xfd, 0x5d, 0xfe, 0xec,
  0xd4, 0x08, 0x19, 0xbe, 0x13, 0x35, 0x8d, 0xff, 0x20, 0x2f, 0x45, 0xd1,
  0x0d, 0xef, 0x14, 0xed, 0xe8, 0xd6, 0x11, 0x09, 0xbb, 0xd2, 0xfa, 0xf4,
  0x4d, 0x03, 0x72, 0xde, 0x50, 0xb3, 0xe1, 0xa1, 0x03, 0xbc, 0xf9, 0x1f,
  0x1c, 0x42, 0x01, 0x5d, 0x4d, 0x1e, 0xcf, 0xfc, 0xe0, 0x08, 0xe7, 0xd6,
  0x3e, 0xfa, 0xfc, 0x1b, 0xe3, 0x0c, 0x23, 0x18, 0x58, 0x15, 0x2d, 0x18,
  0xc2, 0x00, 0xb6, 0x11, 0xba, 0xa3, 0x3a, 0xb5, 0x82, 0xf5, 0xa1, 0x13,
  0x1a, 0xf4, 0xed, 0xbf, 0x20, 0xcf, 0x21, 0xdd, 0xf5, 0xd7, 0xfd, 0xdb,
  0x57, 0x27, 0xf4, 0xdf, 0x3a, 0xdf, 0xf9, 0xd2, 0x40, 0xeb, 0x4d, 0x5c,
  0x2d, 0xdf, 0x23, 0xbd, 0xa2, 0xfc, 0xd0, 0xf9, 0x0d, 0xd2, 0x3e, 0xeb,
  0xd9, 0x0b, 0xe4, 0xe8, 0x84, 0x91, 0x50, 0x62, 0x1e, 0xc3, 0xd9, 0x6b,
  0x29, 0xd4, 0xe9, 0xf3, 0xd9, 0x2a, 0x32, 0xe9, 0xcc, 0xf9, 0x96, 0xeb,
  0xde, 0xfd, 0x9f, 0xe3, 0x06, 0x8c, 0xd8, 0xea, 0x5d, 0xf9, 0xd4, 0xe4,
  0x3a, 0xe3, 0x13, 0xdf, 0x1f, 0x6a, 0xea, 0xf1, 0x13, 0x81, 0xb4, 0xfc,
  0xba, 0xfe, 0x89, 0xbf, 0x01, 0x08, 0x1d, 0xfa, 0xf8, 0xe4, 0x2e, 0x94,
  0xf4, 0x26, 0x31, 0xaf, 0x3a, 0xa5, 0x16, 0x55, 0xd9, 0x1a, 0x31, 0xd6,
  0xaa, 0x22, 0x84, 0xee, 0x1b, 0x31, 0xe4, 0x34, 0x1a, 0x90, 0x31, 0x17,
  0x36, 0x33, 0xee, 0xc3, 0xf2, 0x3e, 0x2a, 0x37, 0xe8, 0xbc, 0xd8, 0xdd,
  0x59, 0xf6, 0xc0, 0xa2, 0xf0, 0x09, 0xb7, 0x4d, 0xf9, 0x63, 0x5a, 0x4b,
  0x22, 0xe5, 0x9f, 0x0b, 0xed, 0x59, 0xa3, 0x3c, 0x33, 0xfb, 0x20, 0x03,
  0xd1, 0x1b, 0x0f, 0x4d, 0x05, 0x2a, 0xdc, 0x56, 0x23, 0xef, 0xf8, 0xd7,
  0xb1, 0xa7, 0xf2, 0xa5, 0xc6, 0xe3, 0xd9, 0xc9, 0xb7, 0x01, 0x30, 0xe4,
  0xfa, 0x1b, 0x3f, 0x46, 0x11, 0xa4, 0xac, 0x4e, 0x2b, 0xfe, 0x2a, 0xec,
  0xe0, 0xdb, 0xf4, 0xe9, 0x29, 0xf1, 0xb7, 0x12, 0x34, 0x20, 0xea, 0x37,
  0x58, 0x52, 0x3a, 0x5b, 0x81, 0x78, 0x4a, 0xf5, 0x0f, 0x1a, 0xca, 0x12,
  0x26, 0xf7, 0xdc, 0xf5, 0xdb, 0x3e, 0xed, 0xd5, 0xca, 0xca, 0xe2, 0x39,
  0xd6, 0xd2, 0xba, 0xf7, 0xd4, 0x5e, 0x4b, 0xbc, 0xae, 0x39, 0xc6, 0x5a,
  0xaf, 0x13, 0x2f, 0x94, 0x2b, 0x35, 0x20, 0xb3, 0x1f, 0xe0, 0x90, 0xcc,
  0xf6, 0x08, 0x07, 0x13, 0x59, 0xf4, 0xe6, 0x48, 0xe8, 0xed, 0x30, 0x93,
  0x1f, 0x96, 0x9b, 0x3b, 0xd0, 0x29, 0x63, 0x59, 0xef, 0x02, 0xda, 0xe2,
  0xaa, 0x12, 0x17, 0x47, 0xf8, 0xf4, 0xd7, 0x39, 0xef, 0xed, 0x1c, 0xe3,
  0xaf, 0xe5, 0x37, 0xfb, 0xf9, 0xda, 0xdb, 0x15, 0xea, 0x26, 0x2d, 0xe9,
  0xde, 0xcb, 0x17, 0x19, 0x56, 0x1c, 0x10, 0x30, 0xff, 0x8d, 0xd4, 0x50,
  0xe0, 0x40, 0xd0, 0xd1, 0x79, 0x63, 0x3b, 0x19, 0x35, 0xf5, 0x28, 0x2c,
  0xc9, 0x35, 0x1e, 0x00, 0xee, 0x04, 0x64, 0xb4, 0xad, 0xd1, 0xbc, 0xf1,
  0xe6, 0xce, 0x40, 0x56, 0x1f, 0x21, 0xe4, 0x46, 0xdd, 0xef, 0xfe, 0xfd,
  0x4b, 0x14, 0x5c, 0x01, 0x19, 0xaf, 0x0b, 0x98, 0xf4, 0xde, 0xee, 0x42,
  0xea, 0xca, 0x32, 0x3c, 0x28, 0x0c, 0xeb, 0xe8, 0x38, 0xc6, 0xd3, 0x04,
  0xab, 0x67, 0xf2, 0xb8, 0xd8, 0xf1, 0x2b, 0x1f, 0xee, 0x2f, 0x1b, 0x94,
  0xf1, 0x2b, 0x11, 0xcc, 0xc6, 0x21, 0x45, 0xdb, 0x4a, 0xa8, 0x1a, 0x1f,
  0x39, 0xc0, 0x53, 0xb9, 0x03, 0x0d, 0x0b, 0xb1, 0x5c, 0x1c, 0xe1, 0x09,
  0x04, 0x15, 0x35, 0x33, 0xf0, 0x39, 0x24, 0x48, 0xf2, 0x1d, 0x09, 0xe0,
  0x35, 0xf6, 0x00, 0x86, 0x2f, 0xed, 0xf0, 0xbc, 0xba, 0xa3, 0x40, 0xe6,
  0x29, 0x01, 0x3a, 0x0a, 0x25, 0xda, 0xdb, 0x9b, 0xd1, 0xe8, 0x0c, 0x4b,
  0x24, 0xe2, 0x36, 0xef, 0x5c, 0x9c, 0xdb, 0x32, 0x27, 0x27, 0xd3, 0xda,
  0x11, 0x44, 0x41, 0x1a, 0xf9, 0x0e, 0x56, 0x02, 0xd7, 0xd6, 0x54, 0x75,
  0x4d, 0xb4, 0x14, 0x2d, 0x14, 0x99, 0xc9, 0xd8, 0xb8, 0x00, 0x32, 0xdf,
  0x61, 0x22, 0x40, 0x52, 0x5a, 0xfc, 0xca, 0x0e, 0x03, 0x17, 0xd8, 0xd3,
  0x4a, 0xcc, 0xc1, 0x07, 0xda, 0xfe, 0xa1, 0xc1, 0x94, 0x2c, 0x2d, 0xff,
  0xfc, 0x6a, 0x95, 0xc6, 0xf0, 0x22, 0x1e, 0x36, 0xe5, 0x0d, 0x4d, 0x16,
  0x4d, 0xda, 0x82, 0xc1, 0x3a, 0x0d, 0x13, 0x14, 0x02, 0x25, 0x45, 0x03,
  0x09, 0x55, 0x27, 0x22, 0xa8, 0xff, 0xbb, 0x21, 0xd0, 0x49, 0xfc, 0x25,
  0xe9, 0x43, 0x5c, 0x21, 0xc7, 0x0d, 0x13, 0xc3, 0x37, 0x35, 0xcd, 0xd1,
  0xf7, 0x2b, 0x0c, 0x3e, 0x8f, 0x51, 0x8f, 0xf5, 0x11, 0xdb, 0x34, 0xd4,
  0xf6, 0x5b, 0xe0, 0x0c, 0x37, 0x15, 0x30, 0x10, 0x5b, 0x49, 0x9c, 0x29,
  0x51, 0x02, 0xa8, 0x1b, 0xa2, 0x4d, 0xb8, 0x0a, 0xd0, 0xb9, 0xe4, 0xea,
  0x0b, 0x08, 0xb9, 0xf3, 0x03, 0xa8, 0x15, 0x06, 0x57, 0x2f, 0xc1, 0xf4,
  0xa3, 0xe7, 0x4f, 0x27, 0x37, 0x60, 0x4e, 0xd8, 0x1a, 0xdd, 0xe6, 0x44,
  0xef, 0x40, 0x1e, 0xbb, 0x16, 0xf5, 0x35, 0x52, 0x3d, 0x1a, 0xc4, 0x4d,
  0xc2, 0xaa, 0x3a, 0xe0, 0x23, 0xf3, 0x21, 0x1e, 0x0d, 0xe2, 0x07, 0xf6,
  0x2d, 0xcb, 0xd7, 0xfd, 0xc3, 0xd0, 0x22, 0xf6, 0xfc, 0x26, 0xb2, 0xfe,
  0x49, 0x52, 0x09, 0xa5, 0x26, 0x02, 0xdb, 0xfd, 0xcf, 0xfd, 0x9d, 0xb9,
  0xa2, 0xf4, 0xe0, 0xc1, 0x2a, 0xf0, 0xf6, 0x52, 0xf3, 0xda, 0xe7, 0x23,
  0x97, 0xd4, 0xe2, 0xba, 0x39, 0x2b, 0x14, 0x09, 0x07, 0x60, 0x04, 0x38,
  0x7e, 0xf8, 0xa5, 0x10, 0x0d, 0xad, 0x3c, 0xab, 0xb4, 0x15, 0xfb, 0xe3,
  0xcb, 0xcb, 0x18, 0x2a, 0x1c, 0x2b, 0xe1, 0xf8, 0x05, 0x30, 0x23, 0xa6,
  0x15, 0x32, 0xfe, 0x05, 0x37, 0xf1, 0xde, 0x10, 0x95, 0xe3, 0x39, 0xfb,
  0xed, 0x2d, 0xf6, 0xab, 0x10, 0x75, 0xff, 0xed, 0xd7, 0xe3, 0x4a, 0x10,
  0xdc, 0x05, 0x1c, 0x23, 0x98, 0x31, 0xdf, 0x0b, 0xff, 0xeb, 0x06, 0xc0,
  0x29, 0xfb, 0x37, 0xc8, 0x04, 0xa6, 0x11, 0x00, 0x20, 0xad, 0x05, 0x08,
  0x09, 0x3a, 0xd8, 0xd9, 0xc7, 0x38, 0x32, 0x9a, 0xce, 0x33, 0xc7, 0xbb,
  0x1b, 0xcf, 0x28, 0x0b, 0xd8, 0xd7, 0xdd, 0xb2, 0x36, 0x55, 0xc4, 0x01,
  0xd0, 0x12, 0xd2, 0x1a, 0xf5, 0x24, 0x11, 0x4d, 0x4b, 0x48, 0xc1, 0xef,
  0xa6, 0x10, 0xe7, 0x17, 0x4e, 0x00, 0x95, 0x20, 0x17, 0x10, 0x34, 0x26,
  0xc1, 0x0f, 0x53, 0x42, 0xca, 0xfb, 0x98, 0x25, 0xb2, 0xe0, 0x4a, 0x19,
  0x12, 0x62, 0x12, 0xed, 0x01, 0xb2, 0x0f, 0x11, 0xdc, 0xe7, 0xa8, 0x4b,
  0x25, 0xf9, 0x5a, 0x2d, 0x34, 0xbf, 0xef, 0xea, 0x99, 0x7d, 0xce, 0xfa,
  0x18, 0x00, 0x07, 0x11, 0xaf, 0x0f, 0x17, 0x82, 0x81, 0xd6, 0xdf, 0x28,
  0xed, 0xbf, 0x13, 0x4a, 0x9d, 0x9b, 0xd6, 0x46, 0xf5, 0x06, 0x7b, 0xe1,
  0x27, 0xd9, 0x0a, 0xff, 0x45, 0x1b, 0xc2, 0x99, 0xef, 0x43, 0x24, 0xd4,
  0x3a, 0xb9, 0x41, 0x12, 0xe2, 0xdb, 0x1c, 0xd6, 0xa7, 0x4a, 0xe7, 0x44,
  0xdb, 0x5d, 0xe7, 0x11, 0x1c, 0x91, 0xbc, 0xe9, 0xac, 0xbe, 0x4a, 0xa0,
  0x2e, 0xf5, 0x09, 0xd7, 0x26, 0x44, 0xd1, 0x5b, 0x4a, 0xa7, 0xfb, 0xaf,
  0xf0, 0xb5, 0xea, 0xdd, 0x05, 0x2c, 0xfd, 0xe8, 0xda, 0x0a, 0x0d, 0x27,
  0x33, 0x0c, 0xcc, 0x37, 0x7a, 0xe1, 0xda, 0x97, 0x21, 0xee, 0x09, 0xf6,
  0xa7, 0xbb, 0x29, 0x10, 0xcc, 0x25, 0x1e, 0x46, 0x1a, 0x94, 0x4b, 0xde,
  0x20, 0x06, 0x9f, 0x7d, 0x24, 0xf5, 0xaa, 0xec, 0x0e, 0xf1, 0x44, 0x9f,
  0x11, 0xac, 0xde, 0x2d, 0xee, 0x2f, 0x75, 0x59, 0x3a, 0xa5, 0xcb, 0x54,
  0x39, 0x8b, 0x0a, 0xf9, 0xc3, 0x48, 0x3d, 0xc5, 0x4b, 0x0c, 0x2e, 0xc6,
  0x19, 0x33, 0xed, 0x29, 0xc9, 0x3a, 0x08, 0x05, 0xec, 0xf1, 0xeb, 0x50,
  0x84, 0x65, 0x5b, 0x17, 0x63, 0xda, 0x3f, 0x21, 0x06, 0xf4, 0x60, 0x0d,
  0x40, 0x2b, 0xb1, 0x3a, 0xec, 0xfa, 0x38, 0xd0, 0xf0, 0x70, 0x25, 0xaa,
  0xc3, 0xc0, 0xa2, 0x0b, 0xf0, 0x04, 0x53, 0xe9, 0xe4, 0x12, 0xb3, 0x2c,
  0x0e, 0xad, 0x32, 0x4c, 0x81, 0xe3, 0x36, 0x07, 0xdb, 0x21, 0x67, 0xfc,
  0xdc, 0x23, 0xcd, 0x32, 0x49, 0x0e, 0x56, 0x40, 0xf7, 0x5f, 0x14, 0x9f,
  0xb7, 0x69, 0x3a, 0x85, 0xea, 0xbe, 0x2d, 0xcf, 0x04, 0x2f, 0xe5, 0xcd,
  0x0b, 0xdf, 0x19, 0xc1, 0x29, 0xf7, 0x1e, 0x20, 0xe9, 0xda, 0xea, 0xdd,
  0xcc, 0xe7, 0x64, 0x74, 0xf1, 0x05, 0xf9, 0x0d, 0x42, 0xf6, 0x13, 0x2b,
  0xb1, 0x0d, 0x48, 0xd2, 0xef, 0x1f, 0x02, 0x03, 0xd6, 0x44, 0x3a, 0x12,
  0xaa, 0x4c, 0x0d, 0xb0, 0x1b, 0xae, 0xbe, 0xf5, 0x1b, 0x00, 0x08, 0xe8,
  0x1f, 0xb2, 0x0f, 0x4e, 0xcb, 0x5b, 0xb6, 0x88, 0xeb, 0x45, 0xdb, 0xd2,
  0xa2, 0xf9, 0x08, 0x41, 0xff, 0xe3, 0x01, 0xe0, 0x27, 0x57, 0x08, 0x41,
  0xc9, 0xec, 0xfd, 0xb4, 0x6a, 0xaa, 0x07, 0x0a, 0xbc, 0xd1, 0xc0, 0x27,
  0x16, 0xf2, 0x2c, 0xe8, 0xfc, 0x5a, 0x04, 0xff, 0xbc, 0x4e, 0xfb, 0x39,
  0xd2, 0x8e, 0x41, 0x4b, 0x1b, 0xca, 0xdb, 0xec, 0xde, 0x6a, 0xef, 0xfd,
  0x1e, 0x94, 0x0e, 0xdd, 0xf4, 0x74, 0xcb, 0xd4, 0x3c, 0xb4, 0x3c, 0x33,
  0xab, 0x29, 0x13, 0x32, 0x33, 0xf0, 0x0a, 0x04, 0xaa, 0x7d, 0x00, 0x91,
  0xbf, 0xeb, 0xd3, 0xce, 0xd0, 0xa2, 0x35, 0xb9, 0xe8, 0xb2, 0xc4, 0x66,
  0x28, 0x35, 0x69, 0xba, 0x31, 0x04, 0x25, 0xbe, 0xbb, 0xcd, 0xdf, 0xe3,
  0xd6, 0xf9, 0x56, 0xbc, 0x39, 0xcb, 0x4d, 0x1e, 0xe6, 0x21, 0x05, 0x0d,
  0xbe, 0x0e, 0x5f, 0x46, 0x02, 0x1c, 0x08, 0x09, 0xd3, 0xb7, 0xc3, 0x9c,
  0xdb, 0xf6, 0x2c, 0x28, 0xe3, 0xcf, 0x29, 0xae, 0xbf, 0x1e, 0xee, 0x18,
  0xcd, 0x99, 0x0b, 0x19, 0x2e, 0x11, 0xd6, 0xf0, 0x0f, 0x05, 0xb8, 0xde,
  0xcb, 0x67, 0x72, 0x11, 0x2d, 0x0e, 0x6f, 0x14, 0x7c, 0xfc, 0x10, 0x0c,
  0x08, 0xc1, 0x28, 0x16, 0xb8, 0x33, 0x25, 0xbb, 0xb7, 0xb9, 0x00, 0xd7,
  0x02, 0xc4, 0xe8, 0x0b, 0x62, 0x2d, 0x3b, 0xee, 0xca, 0x55, 0x03, 0xd2,
  0x13, 0x48, 0x0d, 0x41, 0x9f, 0x39, 0x1f, 0x81, 0xf9, 0x52, 0xaa, 0x16,
  0x00, 0xbc, 0x17, 0x26, 0x31, 0xc0, 0x1b, 0xda, 0xee, 0xf2, 0x72, 0x9c,
  0x33, 0x13, 0x44, 0x43, 0x19, 0xec, 0xed, 0x04, 0x41, 0xf0, 0xd4, 0x0a,
  0x42, 0x30, 0xd8, 0xe1, 0xeb, 0x11, 0xd9, 0x02, 0xd9, 0x99, 0xdc, 0x1d,
  0x81, 0xdd, 0x40, 0xb0, 0x0b, 0x46, 0x18, 0x5f, 0x44, 0xa2, 0x3d, 0x34,
  0x07, 0x18, 0xbc, 0xe6, 0x2d, 0xc8, 0xdf, 0xd0, 0x17, 0xe8, 0x7c, 0x00,
  0x3c, 0x37, 0xd0, 0xc8, 0xe7, 0xf0, 0x15, 0xaa, 0x0b, 0x0f, 0xe0, 0x26,
  0xe8, 0xb6, 0xc0, 0xee, 0xae, 0x08, 0xd7, 0xc5, 0xd4, 0x24, 0x8a, 0xf5,
  0x47, 0x02, 0xce, 0x06, 0xb3, 0xd8, 0x07, 0x9b, 0x5f, 0x1b, 0xff, 0x0c,
  0x25, 0xd3, 0xb4, 0x3f, 0x00, 0x55, 0xf1, 0x30, 0x4b, 0xfe, 0xaf, 0xb2,
  0xcb, 0x30, 0x22, 0x4f, 0xb9, 0x00, 0x7b, 0x17, 0x00, 0xe3, 0xc2, 0xd4,
  0xd6, 0x89, 0xf8, 0xbc, 0x0c, 0xe7, 0x26, 0x23, 0x4e, 0xbb, 0x13, 0xcc,
  0xeb, 0xf1, 0x12, 0xe3, 0x65, 0x53, 0xf3, 0x0d, 0x18, 0xfc, 0x28, 0x3d,
  0x3f, 0xea, 0xd6, 0x25, 0xdd, 0xa3, 0xe0, 0xe0, 0x29, 0x30, 0x31, 0x04,
  0xcf, 0xe8, 0x4f, 0xdc, 0xf8, 0x1c, 0xae, 0x94, 0x6f, 0xf9, 0xc1, 0x29,
  0xc1, 0xfd, 0x14, 0xb7, 0xe5, 0xc8, 0x21, 0x0e, 0xef, 0x32, 0x76, 0x70,
  0xb4, 0x1b, 0x2e, 0x1f, 0x14, 0xc7, 0xb5, 0x33, 0x06, 0xbe, 0x23, 0xe3,
  0xf4, 0x12, 0xf1, 0x01, 0x5d, 0x2c, 0x03, 0xe9, 0x46, 0x3a, 0x3a, 0x49,
  0xcc, 0x0d, 0x02, 0xbf, 0x23, 0x56, 0x73, 0x40, 0xec, 0xc4, 0xbe, 0xfc,
  0x5f, 0xc4, 0xe3, 0x27, 0x34, 0x1f, 0x29, 0x09, 0x85, 0xf7, 0xd3, 0x37,
  0x3b, 0xce, 0x03, 0xd4, 0x2a, 0xd9, 0x09, 0xe4, 0x12, 0x00, 0xf3, 0x35,
  0x5b, 0xd4, 0x12, 0x72, 0xf3, 0xb8, 0xb4, 0x34, 0xdf, 0x06, 0x5b, 0xeb,
  0x0e, 0x1b, 0xeb, 0x50, 0xaa, 0x4f, 0x1e, 0x06, 0x60, 0x79, 0xfe, 0x14,
  0xfd, 0x61, 0xf4, 0x7d, 0xd8, 0xc8, 0xdf, 0x42, 0x5e, 0xc8, 0x17, 0xf5,
  0x17, 0x5b, 0xb4, 0x36, 0x04, 0xba, 0x13, 0x04, 0x10, 0xd0, 0x93, 0xf7,
  0x95, 0xf6, 0x61, 0x63, 0xfc, 0xe3, 0x0e, 0xa5, 0x4f, 0xcd, 0xef, 0xd3,
  0x01, 0x2a, 0xee, 0x27, 0x8c, 0xef, 0xdf, 0xaa, 0x0f, 0x95, 0x02, 0xfe,
  0xf6, 0xfe, 0xa3, 0x91, 0xf0, 0xef, 0x0c, 0x40, 0x43, 0x4b, 0x4d, 0xba,
  0x07, 0x43, 0x36, 0x1d, 0xd9, 0x3c, 0xf0, 0xe6, 0x11, 0xf1, 0x37, 0xf4,
  0x18, 0x2e, 0xb3, 0x36, 0x14, 0xf1, 0xda, 0x05, 0xdc, 0x2a, 0xf0, 0xf0,
  0x00, 0x45, 0xe8, 0xda, 0x3d, 0x23, 0xc9, 0xe9, 0x66, 0x14, 0xd4, 0xbb,
  0x6e, 0xd5, 0x08, 0x14, 0xdc, 0x85, 0x27, 0x35, 0x12, 0xdb, 0xdf, 0xf6,
  0x1a, 0x2e, 0xd9, 0x23, 0xe8, 0xf4, 0xf6, 0x21, 0xe4, 0xef, 0xe8, 0xa7,
  0x82, 0xe1, 0x2d, 0x0f, 0x3f, 0xb5, 0x42, 0xe0, 0x28, 0x15, 0x1c, 0xf1,
  0xcf, 0x3e, 0xf8, 0x4c, 0x1c, 0xd8, 0x16, 0x49, 0xc9, 0xdc, 0xde, 0xb8,
  0xe7, 0x57, 0xf2, 0xf8, 0xff, 0x1d, 0xbc, 0x3c, 0xf3, 0x2f, 0x19, 0x1c,
  0x40, 0xf5, 0x18, 0xf5, 0xc6, 0xdd, 0xfa, 0x9d, 0x54, 0xff, 0xf3, 0xe6,
  0xee, 0xbd, 0xf3, 0xeb, 0xcd, 0xf0, 0x31, 0x2a, 0x03, 0x2a, 0x55, 0xc8,
  0x59, 0xdf, 0x3e, 0x12, 0xfd, 0x05, 0x5d, 0x56, 0xfb, 0x31, 0x39, 0xee,
  0x54, 0x7d, 0xc0, 0x5e, 0xe7, 0x4f, 0xc1, 0x37, 0x56, 0xc7, 0xab, 0x1c,
  0x4f, 0x54, 0xa3, 0x5e, 0xf5, 0xd1, 0x13, 0x19, 0xc4, 0xc1, 0x28, 0xfa,
  0xfc, 0xe4, 0x29, 0xb2, 0x2f, 0x15, 0xf9, 0x26, 0x56, 0xc1, 0xe4, 0xaf,
  0x6a, 0x93, 0x30, 0x81, 0xd5, 0x17, 0xf8, 0x00, 0xfe, 0x4e, 0x2d, 0x09,
  0xd4, 0xdf, 0x52, 0x4e, 0x1f, 0x5d, 0xdc, 0x2a, 0x4e, 0x36, 0xe6, 0xc1,
  0xc9, 0x52, 0xc3, 0xb6, 0xd2, 0xdc, 0xce, 0x01, 0xe2, 0x59, 0x57, 0x50,
  0x62, 0xdd, 0x19, 0xc9, 0xcc, 0x4a, 0x35, 0x47, 0x0a, 0xf9, 0x2a, 0xdf,
  0xb3, 0xc0, 0xfd, 0x41, 0xf9, 0xb2, 0xb0, 0xce, 0xb6, 0xe5, 0xdd, 0x86,
  0x9d, 0x20, 0xd8, 0x26, 0x12, 0xd1, 0xff, 0xda, 0xd5, 0xea, 0xb9, 0x3f,
  0x44, 0xd5, 0x0b, 0x12, 0x1c, 0xe4, 0xf1, 0xba, 0x59, 0xb1, 0xec, 0x38,
  0x35, 0x68, 0xee, 0x1c, 0xf4, 0x32, 0xdf, 0x73, 0x69, 0x7a, 0xf5, 0xd1,
  0x8c, 0xff, 0x03, 0x3a, 0xcb, 0x4f, 0xdd, 0xe4, 0x6d, 0x43, 0xdc, 0x58,
  0xa2, 0x89, 0x56, 0x15, 0xb1, 0x25, 0x5e, 0xfa, 0xc5, 0x28, 0x21, 0xf9,
  0xf5, 0x1b, 0x18, 0x0c, 0x2e, 0x7c, 0xda, 0xbb, 0x41, 0x13, 0x30, 0xc1,
  0x16, 0xcd, 0x3a, 0xe9, 0xd9, 0x21, 0xfb, 0x39, 0xe8, 0x16, 0xd0, 0xf3,
  0x20, 0xdb, 0xc8, 0x93, 0x3b, 0x03, 0xe9, 0xb9, 0x37, 0xde, 0xbb, 0x1a,
  0xdc, 0x52, 0x54, 0x27, 0xe6, 0xcf, 0x3d, 0x20, 0x1d, 0x00, 0x11, 0x22,
  0x1f, 0xdf, 0x1f, 0xfb, 0x29, 0x4a, 0xc5, 0xa7, 0xf3, 0xb1, 0x37, 0xdc,
  0xd7, 0xd1, 0xf7, 0x52, 0xc9, 0xc3, 0x86, 0x25, 0x4d, 0x37, 0x08, 0x10,
  0x41, 0x28, 0x28, 0xaf, 0xf2, 0x71, 0x2f, 0xa8, 0xce, 0x2d, 0x3f, 0x09,
  0x0f, 0x0d, 0x33, 0x1d, 0x74, 0xfc, 0x3c, 0xd6, 0xcd, 0x14, 0x5c, 0xc0,
  0x0e, 0x3c, 0x4c, 0xf2, 0xdd, 0xcf, 0x19, 0x3b, 0xfe, 0xee, 0xb9, 0x01,
  0x09, 0x61, 0x79, 0x0b, 0x08, 0x38, 0x00, 0xc9, 0x4c, 0x3f, 0x05, 0xf3,
  0x2d, 0x34, 0x99, 0xcc, 0x7e, 0xcd, 0xbe, 0x1f, 0xdf, 0xed, 0x11, 0xdd,
  0xd3, 0xd3, 0x26, 0x01, 0x9e, 0x77, 0x7a, 0xf7, 0x36, 0xb4, 0xf7, 0x12,
  0xf7, 0x41, 0x53, 0x1d, 0xe7, 0x12, 0x21, 0xf4, 0xfa, 0x5d, 0xd2, 0x2a,
  0x0d, 0xcc, 0xb5, 0xa3, 0xec, 0x13, 0xfe, 0xe5, 0xb5, 0x36, 0x1e, 0xbb,
  0x46, 0xe3, 0xfa, 0x2f, 0x2e, 0x10, 0x09, 0x31, 0x50, 0xec, 0xa9, 0x26,
  0x49, 0x38, 0xa2, 0x0f, 0xe7, 0xda, 0xfa, 0x14, 0x4f, 0xa4, 0x36, 0x27,
  0x04, 0xdb, 0x08, 0xc1, 0x97, 0x0e, 0x03, 0xcd, 0xbd, 0x52, 0xbf, 0xbc,
  0xfc, 0xb5, 0xee, 0x3b, 0xd9, 0xa5, 0xc9, 0x01, 0x5d, 0xe4, 0x0e, 0x30,
  0x92, 0x51, 0xe4, 0xc8, 0x34, 0xb0, 0xf6, 0x0d, 0xcb, 0x17, 0xf5, 0x73,
  0x3a, 0x7b, 0x36, 0x0c, 0x45, 0x26, 0x20, 0xc2, 0x20, 0x04, 0xf7, 0x1c,
  0xe0, 0x3e, 0xc9, 0x68, 0xe5, 0xed, 0x03, 0x42, 0x0a, 0x09, 0x7e, 0x8c,
  0xf0, 0x89, 0xca, 0x3a, 0x48, 0xe0, 0x10, 0xca, 0x19, 0x58, 0x19, 0x44,
  0x14, 0xf2, 0xd6, 0xc9, 0xf4, 0xf7, 0x1f, 0x19, 0x53, 0xf5, 0x1f, 0x3c,
  0x12, 0x4a, 0xb8, 0x32, 0x02, 0x05, 0x1f, 0x0c, 0xd2, 0xf8, 0x13, 0x18,
  0xc0, 0xa0, 0xed, 0x1e, 0x02, 0x29, 0xc6, 0xb0, 0x9a, 0x59, 0xfc, 0xfc,
  0x3e, 0x28, 0x03, 0x1a, 0xba, 0xdf, 0xdd, 0x1a, 0xad, 0xdf, 0x99, 0xfc,
  0x99, 0xd8, 0x4f, 0x09, 0xed, 0x9e, 0xae, 0xee, 0x28, 0x88, 0x1c, 0xb1,
  0x47, 0x1c, 0xe8, 0xac, 0x17, 0x20, 0x10, 0x3f, 0x0f, 0x29, 0x37, 0x42,
  0x69, 0xfc, 0xa8, 0x23, 0xe9, 0x40, 0xdf, 0x11, 0x2d, 0x24, 0x09, 0x1e,
  0xe8, 0x23, 0xd7, 0xcc, 0x2b, 0x5e, 0x65, 0x9c, 0xbf, 0xcc, 0x03, 0x65,
  0x2f, 0xce, 0x0f, 0x2a, 0x22, 0x27, 0xdb, 0xb1, 0x16, 0x27, 0xdc, 0x1d,
  0x8c, 0xf8, 0x41, 0x2e, 0xca, 0x17, 0xc1, 0x55, 0x0e, 0x24, 0x39, 0x24,
  0xec, 0xcb, 0x12, 0x19, 0x5d, 0xb5, 0x17, 0xbf, 0xe8, 0xd4, 0xf8, 0x22,
  0xf0, 0x13, 0x24, 0x2f, 0x04, 0xe3, 0x12, 0x07, 0xe8, 0xcf, 0xbb, 0xe1,
  0xdd, 0xb7, 0xf7, 0xce, 0xdf, 0x28, 0xdd, 0xcf, 0x0d, 0xb2, 0x65, 0xab,
  0x56, 0x09, 0xf8, 0x18, 0x25, 0xb2, 0x40, 0xd9, 0xf3, 0xcb, 0x32, 0x2f,
  0xf6, 0xf1, 0xee, 0xdf, 0xfc, 0x6a, 0x22, 0x38, 0xfd, 0xcc, 0xac, 0x18,
  0xfe, 0x1a, 0x30, 0x9c, 0x22, 0x27, 0xad, 0x6f, 0x32, 0x46, 0x1f, 0x45,
  0x32, 0xe7, 0xad, 0x02, 0xab, 0xbd, 0x0e, 0x3b, 0xed, 0x7c, 0x10, 0xaf,
  0x91, 0x01, 0x19, 0xfe, 0xa5, 0x53, 0xb4, 0xe0, 0x1b, 0xe9, 0x1f, 0xce,
  0x3c, 0xfb, 0xff, 0xc4, 0x4a, 0xff, 0x0b, 0x03, 0xf0, 0xca, 0xb8, 0x26,
  0xff, 0x49, 0xff, 0xd8, 0x5c, 0x72, 0x40, 0x8c, 0xce, 0x1d, 0xae, 0xf3,
  0x16, 0xe3, 0x8e, 0x36, 0xf5, 0x41, 0x14, 0x2e, 0xc9, 0x29, 0x8f, 0x8e,
  0x05, 0xd6, 0x28, 0x30, 0xf3, 0xbe, 0xee, 0x73, 0xd7, 0xed, 0x51, 0x28,
  0x2d, 0xc5, 0xe4, 0xb4, 0xa0, 0xf9, 0x27, 0xbf, 0xa4, 0x2c, 0xfc, 0x40,
  0x3f, 0x1a, 0x50, 0xc7, 0x25, 0xee, 0xdc, 0x17, 0x3a, 0x2b, 0xee, 0xc5,
  0xe3, 0xcd, 0x04, 0x20, 0x1c, 0x28, 0xe4, 0xb9, 0xc8, 0xe0, 0x51, 0xc6,
  0xb5, 0xec, 0xe5, 0xd5, 0x23, 0x69, 0xf8, 0x3b, 0xd5, 0x13, 0x14, 0x3d,
  0xcf, 0x61, 0xf5, 0xfc, 0x04, 0x2e, 0xc1, 0xeb, 0x29, 0xd3, 0xe4, 0xa3,
  0x3a, 0xd5, 0x3c, 0x0b, 0x72, 0x11, 0x25, 0xe4, 0xb5, 0xae, 0xc4, 0x22,
  0x8d, 0x88, 0x63, 0x65, 0xbb, 0xd0, 0xff, 0x5f, 0xd5, 0x11, 0x2a, 0xaf,
  0xeb, 0x16, 0x3d, 0xcc, 0x2f, 0xf4, 0x08, 0x96, 0x9d, 0x9a, 0x28, 0x0e,
  0x26, 0x16, 0xc4, 0xcf, 0x81, 0x34, 0xd8, 0xd0, 0x1d, 0xf8, 0x28, 0xdf,
  0x14, 0x5b, 0x20, 0xff, 0xdb, 0xf9, 0xbe, 0x12, 0xd8, 0x14, 0xac, 0x54,
  0xb1, 0x24, 0x01, 0x42, 0x42, 0x45, 0xf1, 0xf0, 0x11, 0xe7, 0xcb, 0x00,
  0x01, 0x8e, 0xce, 0x19, 0xe8, 0xca, 0xae, 0x43, 0xbc, 0xe6, 0xdd, 0xf2,
  0xbd, 0x4e, 0x16, 0x2d, 0xed, 0xf0, 0xf1, 0x3e, 0xf4, 0xfb, 0x2e, 0x4d,
  0x03, 0xfc, 0xe3, 0xe8, 0xfd, 0xbd, 0x33, 0x4f, 0xc9, 0x48, 0x8f, 0xe2,
  0x25, 0xb6, 0xe6, 0xe1, 0x4f, 0xc6, 0xc5, 0x51, 0xe4, 0xcf, 0xd7, 0xec,
  0xc2, 0xe6, 0x08, 0x00, 0x52, 0x30, 0xcd, 0x3f, 0xbe, 0xe4, 0x2b, 0x24,
  0x13, 0x30, 0x17, 0xe0, 0x11, 0x87, 0xc8, 0x00, 0x0e, 0x07, 0xe4, 0xeb,
  0x1a, 0xd9, 0xa9, 0x51, 0xbd, 0x24, 0xa8, 0x26, 0x36, 0x42, 0x18, 0xc6,
  0x48, 0xd3, 0xfb, 0xf2, 0x03, 0xb3, 0x36, 0x58, 0x10, 0x31, 0xf8, 0xbb,
  0xc4, 0x67, 0xdd, 0xf4, 0x36, 0x1f, 0x34, 0x21, 0x2f, 0x3f, 0xe0, 0xe9,
  0xbb, 0xfb, 0x37, 0x86, 0xc6, 0x40, 0xee, 0xf4, 0xd2, 0x47, 0xf7, 0x53,
  0x2b, 0x27, 0x13, 0xe8, 0xd8, 0x8c, 0x4b, 0xbc, 0x3c, 0x92, 0x55, 0xc3,
  0xef, 0x38, 0xc6, 0xd2, 0x1e, 0x4c, 0xa8, 0x3f, 0xa7, 0xf2, 0x0f, 0xb9,
  0xba, 0x2c, 0x01, 0x7b, 0x6b, 0x4f, 0x45, 0x38, 0x26, 0x3f, 0x1c, 0xde,
  0xfc, 0x70, 0x6f, 0x72, 0xd4, 0x94, 0x15, 0x17, 0x05, 0x47, 0xef, 0x26,
  0x41, 0xf6, 0x0c, 0x63, 0x09, 0xda, 0x20, 0xe6, 0xff, 0x59, 0xfb, 0x28,
  0xf6, 0x1d, 0xeb, 0x3d, 0xb5, 0x07, 0xf8, 0x63, 0x0a, 0xdf, 0xaf, 0x01,
  0x48, 0xc9, 0xef, 0x32, 0x3d, 0xab, 0x3b, 0x62, 0x72, 0xeb, 0x75, 0x4e,
  0x56, 0x16, 0x81, 0x25, 0x06, 0x31, 0xee, 0x06, 0x5c, 0x17, 0xe8, 0x38,
  0x95, 0xe0, 0xcf, 0x34, 0x08, 0xc8, 0x10, 0xc9, 0xe4, 0xdb, 0xa3, 0x0a,
  0xf6, 0x05, 0xc9, 0x99, 0xff, 0x44, 0x0a, 0xf7, 0x57, 0xe5, 0xd9, 0x13,
  0x45, 0x52, 0xec, 0xb0, 0x34, 0x7e, 0x0e, 0xd3, 0xb1, 0xff, 0x2b, 0xd9,
  0x68, 0x11, 0xcb, 0x08, 0x51, 0x00, 0x1b, 0xb6, 0x38, 0xc7, 0x6d, 0xa1,
  0xaf, 0x0a, 0x1d, 0xb7, 0x1d, 0xfb, 0x11, 0x33, 0x47, 0x3d, 0x04, 0xe9,
  0x9e, 0xe9, 0x5d, 0x67, 0x29, 0x64, 0x2c, 0xf6, 0x30, 0xd9, 0xf7, 0x0b,
  0xf5, 0xf1, 0x1e, 0xd7, 0xd4, 0xf2, 0xe9, 0x48, 0x5f, 0x0c, 0xd6, 0x21,
  0xf2, 0xe3, 0xce, 0xef, 0x06, 0x2a, 0x17, 0x65, 0x28, 0xee, 0x8a, 0xe3,
  0x5e, 0xc8, 0xef, 0x9d, 0xe9, 0x46, 0xec, 0x06, 0xb9, 0xb3, 0xe6, 0x02,
  0xe5, 0x18, 0x01, 0x9f, 0x00, 0xd2, 0x37, 0xba, 0x2c, 0x36, 0xcb, 0x50,
  0x5a, 0x46, 0x24, 0x23, 0x5d, 0x17, 0x3d, 0x3c, 0x45, 0xce, 0xda, 0xd9,
  0x0e, 0x47, 0xba, 0x3c, 0x56, 0xf7, 0x08, 0xd4, 0xa8, 0xe6, 0xe5, 0x78,
  0xf0, 0xe3, 0x02, 0x31, 0x7a, 0x1f, 0x16, 0x0f, 0xc7, 0xe0, 0x27, 0x05,
  0xf1, 0x1b, 0xbd, 0xc8, 0xa2, 0x06, 0x9f, 0xfa, 0x5f, 0x29, 0x09, 0xc7,
  0xa2, 0xec, 0x28, 0xd2, 0xcb, 0xd5, 0xde, 0x52, 0x45, 0xfa, 0x26, 0x03,
  0xf7, 0xe2, 0xad, 0xdb, 0xe2, 0xee, 0x3c, 0x16, 0x26, 0xed, 0xfc, 0x81,
  0x43, 0x41, 0x24, 0x8c, 0x6d, 0x89, 0xc5, 0x1d, 0x4e, 0xff, 0xef, 0x58,
  0x35, 0xcd, 0xc7, 0x91, 0x19, 0xa8, 0xd3, 0x03, 0xd1, 0xb6, 0xd7, 0xfe,
  0x0d, 0xd6, 0xcb, 0xee, 0x58, 0x13, 0x2d, 0x65, 0x0c, 0x10, 0x45, 0x16,
  0x13, 0xa0, 0xda, 0xe9, 0x87, 0xce, 0x8e, 0x17, 0x17, 0xfa, 0xc1, 0x45,
  0x33, 0xf0, 0x0b, 0x51, 0xd7, 0xd6, 0x09, 0xa7, 0xf0, 0xac, 0x1e, 0x03,
  0x46, 0xd3, 0x0a, 0x47, 0x26, 0xe7, 0xfe, 0x1b, 0x00, 0x1a, 0xf4, 0x27,
  0x7a, 0x0d, 0xc8, 0x1f, 0xdd, 0x3b, 0xc3, 0x21, 0x23, 0x1e, 0x31, 0x02,
  0xe7, 0x0c, 0x01, 0xf6, 0xe7, 0x3c, 0x55, 0xf4, 0x4c, 0xe1, 0x1f, 0xff,
  0x71, 0x33, 0xfd, 0x3a, 0xfa, 0x57, 0xd0, 0xb7, 0x43, 0xfb, 0x4b, 0x4a,
  0x51, 0xc7, 0xe1, 0x04, 0xdf, 0xd2, 0x21, 0xd2, 0x44, 0x27, 0x09, 0x2f,
  0x1d, 0xfd, 0xa8, 0xd7, 0x14, 0xba, 0xe5, 0x3f, 0xd6, 0x40, 0x8a, 0x0f,
  0xcc, 0xfd, 0xfd, 0x1d, 0x2c, 0xec, 0xc9, 0x38, 0x76, 0x2c, 0x0e, 0xf0,
  0x28, 0x1a, 0x38, 0xbb, 0x88, 0xf6, 0x37, 0x3f, 0x00, 0xca, 0x99, 0x4d,
  0xef, 0x14, 0xb2, 0x0d, 0x09, 0x03, 0xcd, 0x3e, 0xcb, 0x3b, 0x22, 0x28,
  0x44, 0x7f, 0x2a, 0x0a, 0x05, 0xa8, 0x06, 0x85, 0x03, 0xbb, 0x14, 0xcf,
  0xd2, 0x8b, 0x6e, 0x2c, 0x09, 0x9c, 0xe2, 0x53, 0xe1, 0xf5, 0x51, 0x47,
  0x85, 0xce, 0x9a, 0x55, 0x6b, 0x3f, 0xd9, 0x05, 0x42, 0xa1, 0xe0, 0x1d,
  0x15, 0xfb, 0xc6, 0x51, 0x0d, 0xf5, 0xf6, 0x2d, 0xea, 0x0e, 0xc0, 0xf3,
  0x1d, 0x1b, 0x16, 0x0a, 0xe7, 0xcd, 0x90, 0xd0, 0xd3, 0xad, 0xd9, 0x04,
  0x63, 0x02, 0x1c, 0xef, 0x33, 0xcf, 0xac, 0x25, 0xdf, 0x66, 0x28, 0x56,
  0xea, 0x12, 0xd4, 0x8d, 0x46, 0x83, 0x49, 0x0b, 0xd3, 0x2f, 0x23, 0xd9,
  0x14, 0xf7, 0xd5, 0x97, 0xf4, 0x02, 0x66, 0xb5, 0x08, 0x44, 0xfb, 0xe6,
  0x99, 0xeb, 0x40, 0xd4, 0x9b, 0xf9, 0x27, 0xaa, 0x2a, 0xcf, 0xed, 0xfa,
  0xc3, 0x5b, 0x4a, 0x9a, 0xcf, 0x3f, 0xf0, 0x3e, 0xda, 0xda, 0x18, 0xf8,
  0xd7, 0x5a, 0xc7, 0xfa, 0x3b, 0xee, 0x00, 0x08, 0x4d, 0x27, 0x67, 0xb9,
  0x92, 0xf9, 0xe6, 0x1f, 0xdf, 0x29, 0xd5, 0xc6, 0x0f, 0x63, 0x1f, 0xde,
  0x33, 0xbc, 0x1e, 0x0a, 0x19, 0x09, 0xf6, 0x5e, 0x8a, 0xd3, 0xdd, 0xe1,
  0x44, 0xb2, 0x54, 0xc4, 0xa9, 0x31, 0x02, 0xf9, 0x0d, 0xd0, 0x1a, 0x40,
  0x16, 0x1d, 0xfb, 0x10, 0xd7, 0xa9, 0xe6, 0xef, 0x44, 0x43, 0xd8, 0xc7,
  0x8b, 0xce, 0x3b, 0x01, 0x07, 0x53, 0x3b, 0x20, 0x74, 0x41, 0x14, 0x0b,
  0x65, 0xeb, 0xcf, 0x7c, 0x73, 0x19, 0xc4, 0x70, 0xe1, 0x19, 0xfd, 0xdb,
  0x5e, 0xa9, 0xf3, 0x1d, 0x44, 0xdf, 0x4a, 0x98, 0xc8, 0x35, 0x2a, 0x04,
