unsigned char g_model[] = {
  0x1c, 0x00, 0x00, 0x00, 0x54, 0x46, 0x4c, 0x33, 0x00, 0x00, 0x12, 0x00,
  0x1c, 0x00, 0x04, 0x00, 0x08, 0x00, 0x0c, 0x00, 0x10, 0x00, 0x14, 0x00,
  0x00, 0x00, 0x18, 0x00, 0x12, 0x00, 0x00, 0x00, 0x03, 0x00, 0x00, 0x00,
  0xf4, 0x39, 0x00, 0x00, 0xa4, 0x30, 0x00, 0x00, 0x8c, 0x30, 0x00, 0x00,
  0x3c, 0x00, 0x00, 0x00, 0x04, 0x00, 0x00, 0x00, 0x01, 0x00, 0x00, 0x00,
  0x0c, 0x00, 0x00, 0x00, 0x08, 0x00, 0x0c, 0x00, 0x04, 0x00, 0x08, 0x00,
  0x08, 0x00, 0x00, 0x00, 0x08, 0x00, 0x00, 0x00, 0x0e, 0x00, 0x00, 0x00,
  0x13, 0x00, 0x00, 0x00, 0x6d, 0x69, 0x6e, 0x5f, 0x72, 0x75, 0x6e, 0x74,
  0x69, 0x6d, 0x65, 0x5f, 0x76, 0x65, 0x72, 0x73, 0x69, 0x6f, 0x6e, 0x00,
  0x0f, 0x00, 0x00, 0x00, 0x44, 0x30, 0x00, 0x00, 0x1c, 0x30, 0x00, 0x00,
  0x8c, 0x2b, 0x00, 0x00, 0x5c, 0x2b, 0x00, 0x00, 0x54, 0x2b, 0x00, 0x00,
  0x4c, 0x2b, 0x00, 0x00, 0x44, 0x2b, 0x00, 0x00, 0x24, 0x2b, 0x00, 0x00,
  0x94, 0x28, 0x00, 0x00, 0x8c, 0x28, 0x00, 0x00, 0x7c, 0x00, 0x00, 0x00,
  0x74, 0x00, 0x00, 0x00, 0x24, 0x00, 0x00, 0x00, 0x1c, 0x00, 0x00, 0x00,
  0x04, 0x00, 0x00, 0x00, 0x62, 0xce, 0xff, 0xff, 0x04, 0x00, 0x00, 0x00,
  0x05, 0x00, 0x00, 0x00, 0x31, 0x2e, 0x35, 0x2e, 0x30, 0x00, 0x00, 0x00,
  0xbc, 0xca, 0xff, 0xff, 0x7a, 0xce, 0xff, 0xff, 0x04, 0x00, 0x00, 0x00,
  0x40, 0x00, 0x00, 0x00, 0x14, 0x00, 0x00, 0x00, 0x32, 0x00, 0x00, 0x00,
  0xd0, 0xff, 0xff, 0xff, 0x04, 0x00, 0x00, 0x00, 0x3d, 0x00, 0x00, 0x00,
  0x7d, 0x00, 0x00, 0x00, 0x6a, 0xff, 0xff, 0xff, 0x1f, 0x00, 0x00, 0x00,
  0xa4, 0xff, 0xff, 0xff, 0xd4, 0xff, 0xff, 0xff, 0x67, 0x00, 0x00, 0x00,
  0x3f, 0x00, 0x00, 0x00, 0x06, 0x00, 0x00, 0x00, 0xff, 0xff, 0xff, 0xff,
  0xf1, 0xff, 0xff, 0xff, 0xe4, 0xff, 0xff, 0xff, 0x0c, 0xcb, 0xff, 0xff,
  0xca, 0xce, 0xff, 0xff, 0x04, 0x00, 0x00, 0x00, 0x00, 0x28, 0x00, 0x00,
  0xf9, 0xea, 0xc0, 0x25, 0x11, 0xef, 0xea, 0x25, 0x01, 0xe0, 0xe2, 0x49,
  0x2e, 0x0a, 0xf3, 0xe6, 0x03, 0x01, 0xf6, 0x34, 0x30, 0x11, 0xfa, 0xda,
  0xfc, 0x18, 0xf7, 0x4a, 0x2e, 0x12, 0x02, 0xf4, 0xf1, 0x26, 0x19, 0x24,
  0x25, 0x20, 0x0c, 0x0a, 0xdf, 0x40, 0x1c, 0x30, 0x26, 0x23, 0x09, 0x00,
  0x0e, 0x0c, 0xf5, 0x2e, 0x1e, 0x16, 0x12, 0x09, 0xf3, 0x0a, 0x00, 0x33,
  0x28, 0x16, 0x12, 0x10, 0xf6, 0xce, 0xcd, 0x20, 0x01, 0xda, 0xce, 0x0b,
  0x04, 0xc8, 0xcc, 0x37, 0x05, 0xe8, 0xdb, 0x26, 0x26, 0xeb, 0xc7, 0x25,
  0x23, 0xfa, 0xe3, 0xf9, 0x21, 0x04, 0xe4, 0x44, 0x3c, 0xfd, 0xf7, 0xeb,
  0x04, 0x11, 0x00, 0x3a, 0x2a, 0x0b, 0x07, 0x1f, 0xf6, 0x26, 0x0d, 0x10,
  0x2b, 0x19, 0x15, 0x14, 0x1a, 0x00, 0xe1, 0x28, 0x28, 0x17, 0x0e, 0x2d,
  0xd6, 0x0c, 0xfd, 0x15, 0x25, 0x13, 0x16, 0x16, 0xf0, 0xbb, 0xe6, 0xec,
  0xf5, 0xcd, 0xbf, 0xe4, 0xf7, 0xad, 0xd5, 0x17, 0x0e, 0xc8, 0xda, 0xe2,
  0x2b, 0xdc, 0xc2, 0x10, 0x1f, 0xe4, 0xc5, 0x18, 0xef, 0x06, 0xc6, 0x24,
  0x3c, 0xde, 0xe3, 0xe6, 0x08, 0x21, 0xc8, 0x3c, 0x29, 0x07, 0xf6, 0x0c,
  0x1b, 0x23, 0xdd, 0x2a, 0x2b, 0x1d, 0x08, 0xf5, 0xe9, 0x04, 0xdd, 0x0b,
  0x3c, 0xfd, 0x0a, 0xe0, 0xfa, 0x0c, 0xe0, 0x37, 0x3b, 0x18, 0x12, 0xfb,
  0x15, 0xad, 0xd1, 0x12, 0xec, 0xab, 0x9d, 0x24, 0xe2, 0x9c, 0xc6, 0x25,
  0x08, 0xe8, 0xbe, 0xde, 0xf5, 0xb5, 0xcd, 0x04, 0x23, 0xde, 0xc6, 0xee,
  0x01, 0xf7, 0xc4, 0x22, 0x3d, 0xfb, 0xd1, 0x17, 0x13, 0xfe, 0xd0, 0x1c,
  0x33, 0x06, 0xf4, 0x07, 0xfa, 0x12, 0xfe, 0x23, 0x4a, 0x16, 0x00, 0x0d,
  0xe1, 0x28, 0xc0, 0x28, 0x38, 0x28, 0x0f, 0xe4, 0xef, 0x1a, 0xd9, 0x2d,
  0x49, 0x1c, 0x17, 0x0d, 0x18, 0xbb, 0xd6, 0xe7, 0xd0, 0xca, 0xd6, 0xf5,
  0xe2, 0xa0, 0xd5, 0x0c, 0x13, 0xa8, 0xcd, 0x1a, 0xf6, 0xb2, 0xc0, 0xf4,
  0x06, 0xcb, 0xad, 0xdd, 0xf2, 0xd9, 0xb8, 0x09, 0x3b, 0xe7, 0xcd, 0x19,
  0x0e, 0xed, 0xe2, 0x2c, 0x42, 0xfe, 0xeb, 0x1f, 0x1a, 0x0b, 0xd4, 0x39,
  0x42, 0x09, 0xf8, 0xf1, 0x0d, 0x10, 0xc0, 0x18, 0x5c, 0x0f, 0x24, 0xed,
  0xe9, 0x1f, 0xfb, 0x3c, 0x61, 0x26, 0x2d, 0x03, 0xdf, 0xa7, 0xdd, 0xec,
  0xbf, 0xb3, 0xcf, 0x0f, 0xf8, 0xa1, 0xe7, 0xee, 0xe2, 0xe8, 0xf7, 0xed,
  0x01, 0xa9, 0xc0, 0xfb, 0xe9, 0xbf, 0xd2, 0x06, 0x02, 0xf2, 0xd6, 0xf3,
  0x39, 0xb8, 0xb9, 0xea, 0x03, 0xc2, 0xc6, 0x18, 0x35, 0x02, 0xd5, 0xd4,
  0x0d, 0xfd, 0xd7, 0x26, 0x66, 0xef, 0xe2, 0xf4, 0x0a, 0xf2, 0xfb, 0x29,
  0x55, 0x00, 0xf5, 0xf9, 0x30, 0x40, 0xe5, 0x22, 0x6d, 0x18, 0x1e, 0x05,
  0x03, 0xb8, 0xc7, 0x01, 0xd4, 0xdf, 0xda, 0xfd, 0xf7, 0xb9, 0xe9, 0x18,
  0xf9, 0x06, 0xf8, 0x12, 0x04, 0xce, 0xd1, 0xfc, 0xf9, 0xca, 0xcb, 0xe5,
  0x25, 0xd2, 0xed, 0xfc, 0x0e, 0xbd, 0xb7, 0xe3, 0xf7, 0xb7, 0xdf, 0x0a,
  0x0a, 0xba, 0xc7, 0x08, 0xf1, 0xdc, 0xa7, 0x2d, 0x13, 0xd0, 0xbb, 0x14,
  0x13, 0xdc, 0xca, 0x34, 0x6e, 0xe3, 0xef, 0x0e, 0x06, 0x0e, 0x03, 0x3c,
  0x7f, 0x04, 0xe5, 0x0d, 0x12, 0xd9, 0xda, 0x19, 0x09, 0xda, 0xf2, 0x1a,
  0xec, 0xd1, 0x14, 0xf9, 0xc9, 0xf0, 0x27, 0x21, 0x01, 0xd4, 0xf9, 0xda,
  0xe7, 0xeb, 0xda, 0xff, 0xf2, 0xbf, 0xd6, 0xf3, 0xe5, 0xcf, 0xc8, 0x17,
  0x14, 0xad, 0xd6, 0xea, 0xda, 0xbe, 0xb1, 0x21, 0x05, 0xce, 0xc2, 0x04,
  0xe1, 0xbd, 0xd0, 0xde, 0x08, 0xbf, 0xc9, 0x2e, 0x08, 0xe2, 0xc8, 0x1e,
  0x0e, 0xfb, 0xf1, 0x42, 0x54, 0xfb, 0xf3, 0x0b, 0xf8, 0xe4, 0xef, 0x17,
  0xe6, 0xf8, 0x2a, 0xda, 0x00, 0xf3, 0xe0, 0x10, 0x1a, 0x1e, 0xf0, 0x20,
  0x15, 0xd2, 0xf3, 0xc0, 0xe5, 0xbd, 0xf3, 0x08, 0x10, 0xe6, 0xe6, 0xd4,
  0xd8, 0xb0, 0xb5, 0xff, 0x04, 0xd7, 0xf7, 0xfd, 0xd0, 0xb0, 0xa7, 0xeb,
  0xea, 0x99, 0xe1, 0x10, 0xc8, 0xcf, 0xb0, 0xf8, 0x01, 0xdc, 0xc3, 0x22,
  0x11, 0xc4, 0xb0, 0x04, 0x1b, 0xfb, 0xff, 0x2f, 0x13, 0xf0, 0xda, 0xf1,
  0x0d, 0xfc, 0x02, 0x0c, 0xf2, 0x23, 0x0e, 0xea, 0x2e, 0xfe, 0x2d, 0xfe,
  0x11, 0xfc, 0x2e, 0xee, 0xcf, 0xe3, 0x0f, 0xe4, 0xd8, 0xd1, 0xc8, 0xe3,
  0xf4, 0xca, 0xeb, 0xd0, 0xe9, 0xdd, 0xaa, 0xf1, 0x23, 0xd3, 0xc2, 0xdb,
  0xd3, 0xd4, 0xb3, 0x0c, 0x01, 0xa5, 0xf9, 0x0b, 0xcd, 0xb3, 0xb4, 0x1d,
  0xe2, 0xd3, 0xd8, 0x0c, 0xe3, 0xb0, 0xb3, 0xf0, 0xe9, 0xd1, 0xc5, 0x42,
  0xe1, 0xbb, 0xd2, 0x04, 0xff, 0x31, 0x10, 0xf9, 0x1a, 0x03, 0xfa, 0x16,
  0xfe, 0x46, 0x3a, 0xd2, 0x02, 0xfe, 0xec, 0xeb, 0x03, 0x48, 0x3b, 0x1a,
  0x02, 0x06, 0x01, 0xfb, 0x16, 0x1f, 0x66, 0xfb, 0xfb, 0x0b, 0x14, 0x17,
  0x1f, 0x1a, 0x49, 0xe9, 0xfa, 0x14, 0x0e, 0xef, 0x06, 0x18, 0x38, 0xee,
  0xea, 0x0f, 0x0c, 0x07, 0xf2, 0x0b, 0x3a, 0xdf, 0xef, 0x0a, 0x0c, 0xde,
  0xfa, 0x25, 0x50, 0xd9, 0xec, 0x10, 0x0b, 0xfe, 0x0b, 0x38, 0x27, 0xf0,
  0x09, 0x13, 0x02, 0x1d, 0x05, 0x4c, 0x44, 0xc7, 0x08, 0x0a, 0xfa, 0xf9,
  0x0f, 0x39, 0x53, 0x13, 0xff, 0x0a, 0x06, 0x05, 0x1a, 0x14, 0x40, 0xf2,
  0xe9, 0x06, 0x0f, 0x07, 0x04, 0x11, 0x3a, 0xe4, 0xe1, 0x0d, 0x12, 0x12,
  0x1c, 0x01, 0x2e, 0xf1, 0xde, 0x09, 0x0b, 0x28, 0x13, 0x02, 0x3f, 0xeb,
  0xde, 0xff, 0x06, 0x2f, 0xea, 0x1f, 0x4e, 0xdb, 0xe1, 0x09, 0x0e, 0x2a,
  0xf2, 0x54, 0x1f, 0xdd, 0x0a, 0x20, 0x05, 0xff, 0xef, 0x4e, 0x28, 0xda,
  0xfe, 0x15, 0xf9, 0xd5, 0xf2, 0x2f, 0x42, 0x18, 0xf5, 0x0b, 0xfe, 0x26,
  0x03, 0x11, 0x4f, 0xf4, 0xc7, 0x05, 0x1f, 0x22, 0x21, 0x03, 0x4a, 0xe8,
  0xce, 0x07, 0x1a, 0xeb, 0xe4, 0xfe, 0x24, 0xf4, 0xcc, 0xfe, 0x0a, 0x03,
  0xfe, 0xef, 0x18, 0xee, 0xda, 0x00, 0x10, 0x04, 0x1a, 0x08, 0x31, 0xf6,
  0xd2, 0x06, 0x17, 0xf2, 0x08, 0x52, 0x2f, 0xdd, 0x08, 0x1e, 0x0e, 0xfa,
  0x2f, 0x46, 0x21, 0xb3, 0xf2, 0x12, 0x07, 0xf1, 0x0f, 0x34, 0x40, 0x20,
  0xe1, 0x0c, 0x0d, 0xe9, 0x2c, 0x12, 0x2a, 0xe8, 0xca, 0x0b, 0x18, 0xfc,
  0xed, 0xfe, 0x2f, 0xe6, 0xc3, 0xf2, 0x07, 0x13, 0xf8, 0xe8, 0x19, 0x10,
  0xc8, 0xf6, 0xfb, 0x07, 0x1b, 0xdc, 0x06, 0x16, 0xdc, 0x00, 0x13, 0xe7,
  0x00, 0xf3, 0x13, 0xec, 0xce, 0x11, 0x14, 0x0e, 0xdf, 0x73, 0x41, 0xc9,
  0x0c, 0x2d, 0x27, 0xe6, 0x28, 0x41, 0x1d, 0xc1, 0x03, 0x2a, 0xf8, 0x02,
  0xfa, 0x31, 0x2a, 0x1e, 0xd3, 0x12, 0x02, 0xea, 0xe2, 0x00, 0x49, 0xf5,
  0xc2, 0xff, 0x0c, 0xd6, 0xfe, 0xfd, 0x35, 0xef, 0xb8, 0xf9, 0xfd, 0x19,
  0x08, 0xcf, 0x06, 0x13, 0xd0, 0xe5, 0xfd, 0x05, 0x25, 0xee, 0x1f, 0xef,
  0xc9, 0xf9, 0x13, 0xfd, 0xe0, 0xef, 0x15, 0xf3, 0xe3, 0xf4, 0x0e, 0x11,
  0x07, 0x71, 0x46, 0xb8, 0x2f, 0x27, 0x26, 0xfa, 0x0d, 0x46, 0x2b, 0xc1,
  0x09, 0x01, 0x0a, 0xe8, 0x0b, 0x26, 0x11, 0xe1, 0xdb, 0x0d, 0x00, 0xee,
  0x0e, 0x1a, 0x30, 0xcd, 0xae, 0x0c, 0x13, 0x17, 0x11, 0xe8, 0x1b, 0xe6,
  0xab, 0xc4, 0xf3, 0xe7, 0xe6, 0xb1, 0x02, 0xfc, 0xc4, 0xce, 0xe0, 0xfb,
  0xdf, 0xd2, 0x11, 0xe4, 0xe3, 0xe0, 0xdd, 0xeb, 0x0c, 0xe8, 0x08, 0xc9,
  0xbd, 0xe5, 0xfc, 0x2c, 0xf0, 0x77, 0x3c, 0xc5, 0x1c, 0x38, 0x1b, 0x15,
  0x05, 0x40, 0x19, 0xed, 0x04, 0xfe, 0xf5, 0x1e, 0xea, 0x2d, 0x23, 0xf1,
  0xce, 0xff, 0xf4, 0xde, 0x31, 0xf5, 0x21, 0xf2, 0xb1, 0xf8, 0xe7, 0x0d,
  0xd4, 0xc0, 0x06, 0xec, 0xa7, 0xce, 0xe8, 0x0c, 0xfb, 0xa5, 0xf8, 0x09,
  0xd8, 0xba, 0xd1, 0xf6, 0x0b, 0xe7, 0xea, 0x12, 0xc6, 0xd9, 0xe5, 0xf4,
  0x02, 0xde, 0xfd, 0x02, 0xc1, 0xe5, 0xf7, 0xe7, 0xf8, 0x7b, 0x48, 0xbf,
  0xed, 0x31, 0x07, 0x17, 0xe2, 0x48, 0x1f, 0xf5, 0xef, 0xfb, 0xfb, 0x18,
  0x16, 0x03, 0x19, 0xf1, 0xc4, 0xf8, 0x00, 0x19, 0xf4, 0x0e, 0xf8, 0xd7,
  0xc5, 0x06, 0xe8, 0xfa, 0x25, 0xbf, 0x12, 0x03, 0xaa, 0xb7, 0xe8, 0xf2,
  0x25, 0x8e, 0xe0, 0x0b, 0xb7, 0xbc, 0xde, 0x0c, 0xf4, 0xba, 0x0d, 0xfd,
  0xc0, 0xe0, 0xed, 0x00, 0x0f, 0xf4, 0x07, 0xd9, 0xb7, 0xc1, 0xf0, 0x17,
  0x27, 0x4a, 0x2f, 0xf4, 0xf0, 0x11, 0xea, 0x0b, 0x14, 0x30, 0x03, 0xfb,
  0xf4, 0xfa, 0xd2, 0x0b, 0x22, 0xe8, 0x14, 0xf7, 0xda, 0xd9, 0xd7, 0x04,
  0xf5, 0xdd, 0x18, 0xe6, 0xb3, 0xd0, 0xcc, 0x0b, 0xd7, 0xb6, 0xf5, 0x0a,
  0xcd, 0xca, 0xf6, 0x0d, 0x11, 0x81, 0xcc, 0xea, 0xdd, 0xa6, 0xf3, 0x0a,
  0x15, 0xe2, 0xfe, 0xd9, 0xd2, 0xf6, 0xf6, 0xf0, 0x04, 0xef, 0xe9, 0xf0,
  0xb8, 0xb5, 0xd9, 0x12, 0xfa, 0x43, 0x2c, 0xea, 0xd5, 0xca, 0xc3, 0xeb,
  0x2d, 0x0f, 0xfe, 0xeb, 0xea, 0xc7, 0xab, 0x02, 0xdb, 0xf8, 0xe1, 0x0d,
  0xc7, 0xbb, 0xbf, 0x02, 0x1f, 0xdf, 0x01, 0x0e, 0xb8, 0xc1, 0xe2, 0x0b,
  0xe0, 0xba, 0xde, 0xec, 0xb3, 0xc0, 0xf1, 0xdc, 0xe3, 0x9e, 0xea, 0x08,
  0xb4, 0xb2, 0xbb, 0xf6, 0xf8, 0xef, 0x0f, 0xfb, 0xd7, 0xdd, 0xcd, 0xdc,
  0xef, 0xe1, 0x04, 0xcb, 0xc1, 0xbc, 0xf2, 0xf6, 0xf1, 0xf3, 0xf8, 0x56,
  0x10, 0x06, 0x04, 0x15, 0x18, 0x13, 0x18, 0x42, 0x16, 0x09, 0x0c, 0x06,
  0x0a, 0x20, 0x32, 0x04, 0x01, 0xf9, 0x01, 0xf5, 0xfe, 0x04, 0x04, 0x00,
  0x0c, 0xff, 0xfb, 0x13, 0x10, 0x0d, 0x29, 0xed, 0x0b, 0xfe, 0xfd, 0x26,
  0x16, 0x1b, 0x3e, 0xcd, 0x0e, 0x0d, 0x05, 0x1b, 0x11, 0x1c, 0x3b, 0xc8,
  0x12, 0x08, 0x03, 0x0c, 0xfd, 0x27, 0x32, 0xd3, 0x16, 0x07, 0x08, 0x28,
  0xf8, 0xe9, 0xea, 0x63, 0x08, 0x02, 0xfb, 0xee, 0x15, 0x13, 0x18, 0x19,
  0x14, 0x06, 0x0d, 0x07, 0x03, 0x1e, 0x0e, 0x04, 0x08, 0x16, 0xfc, 0x06,
  0x12, 0x0e, 0x08, 0xfe, 0x00, 0xff, 0x00, 0xd8, 0xf8, 0x16, 0x27, 0xe3,
  0x09, 0x02, 0x02, 0x0c, 0x03, 0x27, 0x21, 0xcb, 0x04, 0x06, 0x04, 0x15,
  0xe2, 0x0e, 0x3c, 0xd0, 0x0a, 0x03, 0x00, 0xfa, 0xfe, 0x16, 0x22, 0xd8,
  0x0f, 0x06, 0xff, 0x14, 0x05, 0xd5, 0xd9, 0x2f, 0x23, 0xfb, 0xfa, 0x21,
  0xf9, 0x01, 0x14, 0x30, 0x0e, 0x0c, 0x08, 0x1e, 0xf2, 0x1c, 0x37, 0x04,
  0x08, 0x00, 0xfc, 0xf5, 0x1c, 0x1d, 0x0a, 0xfd, 0x02, 0x08, 0xf8, 0xf4,
  0xf7, 0x1a, 0x24, 0xe0, 0x03, 0x04, 0x00, 0xd9, 0x19, 0x1a, 0x3b, 0xb8,
  0x04, 0xfe, 0x01, 0xdb, 0xef, 0x09, 0x2d, 0xba, 0x04, 0x04, 0xf9, 0x02,
  0xfa, 0x19, 0x29, 0xc5, 0x04, 0x06, 0x03, 0x0b, 0xea, 0xde, 0xe6, 0x52,
  0x0b, 0x03, 0xee, 0xfe, 0x1f, 0x08, 0xfb, 0x05, 0xfc, 0x12, 0x06, 0x0d,
  0xfe, 0x25, 0x3d, 0x01, 0x0b, 0xff, 0xf2, 0x1d, 0x26, 0x09, 0x1c, 0xf8,
  0x06, 0x06, 0xfe, 0xfd, 0xda, 0x17, 0x29, 0xbc, 0x00, 0x05, 0xff, 0x09,
  0x1a, 0x24, 0x31, 0xb0, 0xfe, 0x03, 0xff, 0x28, 0x13, 0x0a, 0x2e, 0xcf,
  0xff, 0x0d, 0x00, 0xee, 0x09, 0x21, 0x14, 0xcb, 0x00, 0x08, 0x01, 0xf2,
  0x02, 0xea, 0xd9, 0x0e, 0x1e, 0xee, 0xeb, 0x0c, 0xf5, 0x1e, 0x03, 0xec,
  0xfd, 0x13, 0x02, 0x14, 0x03, 0x2e, 0x31, 0x04, 0x10, 0x03, 0xfc, 0x18,
  0xe2, 0x14, 0x03, 0xf1, 0x11, 0x00, 0x01, 0x12, 0x16, 0x11, 0x33, 0xbb,
  0x00, 0x0a, 0x03, 0xe3, 0x18, 0x1b, 0x26, 0xb7, 0xf2, 0x0d, 0x09, 0xf9,
  0x05, 0x12, 0x23, 0xca, 0xed, 0x14, 0x0f, 0x06, 0x01, 0x1c, 0x18, 0xbf,
  0xf5, 0x0a, 0x11, 0x0b, 0xe5, 0xdd, 0xc5, 0x18, 0x13, 0xe7, 0xe3, 0x10,
  0xf5, 0x13, 0x06, 0xf3, 0xf5, 0x09, 0xf5, 0x13, 0x04, 0x2d, 0x1f, 0xfe,
  0x1d, 0x06, 0x09, 0x14, 0x0a, 0x1e, 0xfc, 0xf8, 0x16, 0x07, 0x09, 0x03,
  0xe2, 0x11, 0x1b, 0xbb, 0x03, 0x10, 0x0d, 0xe9, 0x13, 0x23, 0x34, 0xb4,
  0xe1, 0x09, 0x0d, 0x0a, 0x00, 0x21, 0x30, 0xbc, 0xdc, 0x07, 0x0c, 0xeb,
  0xf8, 0x21, 0x0c, 0xb9, 0xc8, 0x02, 0x0e, 0x01, 0x1b, 0xdf, 0xcc, 0x1d,
  0x1b, 0xf4, 0xdf, 0xda, 0xf4, 0x03, 0x0f, 0x09, 0x23, 0x14, 0xfe, 0xe1,
  0xf7, 0x20, 0x13, 0x03, 0x22, 0xfb, 0x19, 0xf4, 0xf3, 0x33, 0xf2, 0x0d,
  0x1e, 0x0a, 0x14, 0x09, 0x20, 0x30, 0x29, 0xbb, 0xf6, 0x27, 0x11, 0xd5,
  0xf6, 0x21, 0x27, 0x95, 0xcd, 0x07, 0x11, 0xfb, 0x0d, 0x22, 0x31, 0xa9,
  0xa6, 0xf7, 0xf2, 0xee, 0x1d, 0x16, 0x24, 0xe5, 0xa7, 0xef, 0xf7, 0xfe,
  0xeb, 0xe4, 0xec, 0xff, 0x07, 0xea, 0xda, 0x0b, 0x02, 0x26, 0x0c, 0xfb,
  0x2d, 0x1a, 0x0d, 0x23, 0x15, 0x3a, 0x4b, 0x08, 0x29, 0x0e, 0x00, 0x0f,
  0xf3, 0x23, 0x02, 0x09, 0x1b, 0x08, 0x11, 0x16, 0xeb, 0x2d, 0x33, 0xb0,
  0xce, 0x08, 0x1a, 0xe5, 0x1e, 0x2c, 0x43, 0xc3, 0xc0, 0x05, 0x02, 0x12,
  0xe8, 0x24, 0x24, 0xd0, 0x93, 0xdf, 0xf9, 0x08, 0x2e, 0x0b, 0x2f, 0xd7,
  0x8e, 0xd8, 0xdc, 0x19, 0xf3, 0xdd, 0xf7, 0x11, 0xfc, 0xeb, 0xe5, 0xd9,
  0x04, 0xfe, 0x14, 0x19, 0x26, 0x03, 0xea, 0x18, 0xff, 0x4a, 0x0b, 0xff,
  0x2a, 0x22, 0xf6, 0xfb, 0xe5, 0x13, 0x29, 0xee, 0xef, 0x16, 0xe5, 0xfd,
  0xe8, 0x33, 0x3a, 0xd4, 0xd1, 0xec, 0xe6, 0x01, 0xee, 0x22, 0x20, 0xbc,
  0xaf, 0xda, 0xff, 0x06, 0x19, 0x05, 0x0c, 0xdf, 0x96, 0xbb, 0xd9, 0xfe,
  0xdd, 0xe5, 0xf8, 0xd5, 0x81, 0xc9, 0xd5, 0x00, 0xe5, 0xf0, 0xc7, 0x21,
  0xf5, 0xf4, 0xe4, 0xf1, 0xf5, 0x0d, 0xf0, 0x12, 0x0f, 0xf1, 0xf2, 0x04,
  0xdd, 0x02, 0x1f, 0x12, 0xfe, 0xee, 0xc8, 0xfe, 0x30, 0x11, 0x20, 0x00,
  0xfe, 0xe6, 0xdb, 0x04, 0x14, 0x1e, 0x1a, 0xcc, 0xbe, 0xd1, 0xbc, 0x06,
  0x19, 0xe0, 0x1d, 0xca, 0x95, 0xc8, 0xcb, 0x28, 0xdb, 0xdd, 0x04, 0xcf,
  0xa9, 0xab, 0xc4, 0xf8, 0x05, 0xc4, 0x10, 0x0b, 0x9c, 0xab, 0xb8, 0xec,
  0xfc, 0xe9, 0xe5, 0x2f, 0x14, 0x0c, 0x17, 0x0d, 0xea, 0xf9, 0xe7, 0x18,
  0x18, 0x18, 0x11, 0xee, 0x13, 0xf2, 0x03, 0x01, 0xeb, 0x14, 0x10, 0xf9,
  0xf5, 0xef, 0x01, 0x04, 0xe7, 0x09, 0x0f, 0x20, 0x0c, 0xfc, 0xf9, 0x07,
  0xed, 0x0b, 0x0c, 0xfa, 0xd8, 0x03, 0x0b, 0x07, 0xda, 0x0e, 0x09, 0x18,
  0xe2, 0xde, 0x00, 0xdc, 0xd5, 0x00, 0x06, 0x0d, 0xfd, 0xf1, 0x11, 0xde,
  0xd6, 0xf4, 0x0c, 0xf9, 0xfd, 0xee, 0xe2, 0xfd, 0x13, 0x14, 0x19, 0x25,
  0x10, 0xf0, 0xd3, 0x24, 0x1d, 0x14, 0x0c, 0xe1, 0x22, 0xf7, 0xf8, 0xfa,
  0xf4, 0x10, 0x1c, 0x2d, 0x07, 0xea, 0xf2, 0xf9, 0xe5, 0x04, 0x18, 0xe8,
  0x0e, 0xf6, 0xe5, 0xfb, 0xed, 0x01, 0x0a, 0xf4, 0xee, 0x0a, 0x0a, 0xec,
  0xdf, 0x08, 0x0f, 0xfa, 0xe7, 0xe7, 0xf6, 0xe9, 0xd8, 0x01, 0x0a, 0x16,
  0x1b, 0xd6, 0xee, 0xed, 0xd5, 0x00, 0x0c, 0xf4, 0x07, 0xf4, 0xe3, 0x25,
  0x0f, 0x12, 0x0e, 0xe8, 0xda, 0xe9, 0xd9, 0x2b, 0x16, 0x12, 0x0f, 0x2e,
  0xf6, 0xf0, 0xe1, 0xfe, 0xf6, 0x1c, 0x10, 0xf8, 0xdc, 0xf3, 0x12, 0x1b,
  0xe6, 0x0f, 0x11, 0x06, 0x2b, 0xf6, 0x00, 0x20, 0xf5, 0x0a, 0x08, 0x17,
  0x10, 0x09, 0xfd, 0x1a, 0xdd, 0x14, 0x12, 0x01, 0xe5, 0xf0, 0x02, 0x03,
  0xe9, 0xf8, 0x0b, 0x1e, 0x16, 0xe3, 0xeb, 0xf6, 0xc6, 0x08, 0x07, 0xff,
  0xd4, 0xe7, 0xdd, 0x28, 0x08, 0x1b, 0x0d, 0xed, 0x09, 0xe9, 0xd4, 0x1b,
  0x11, 0x05, 0x0e, 0xe8, 0x0b, 0xe8, 0xf5, 0x0b, 0xfe, 0x1c, 0x0d, 0xe4,
  0xf9, 0xff, 0x06, 0x30, 0xf5, 0x15, 0x0f, 0xf1, 0x15, 0xf5, 0xde, 0x1c,
  0xec, 0x00, 0x09, 0x13, 0x15, 0x0f, 0x1f, 0x0e, 0xec, 0x0f, 0x04, 0xfa,
  0x01, 0xee, 0x05, 0x28, 0xd3, 0xf9, 0x10, 0x1a, 0x0a, 0xe3, 0xf9, 0xf8,
  0xc0, 0xef, 0x09, 0xe7, 0xff, 0xeb, 0xce, 0xe5, 0x17, 0x0e, 0x1a, 0x18,
  0x05, 0xf1, 0xd9, 0x2d, 0x1b, 0x04, 0x13, 0xd4, 0xed, 0xf7, 0xe1, 0x1f,
  0x12, 0x15, 0x15, 0xf7, 0x0f, 0xdf, 0x1a, 0x3a, 0x0d, 0x14, 0x1c, 0x02,
  0xea, 0xfe, 0xee, 0x1b, 0xf3, 0x0a, 0x0c, 0xf6, 0x04, 0x0f, 0x0c, 0x1c,
  0xf3, 0x0c, 0x1c, 0x10, 0x1b, 0xdc, 0xf8, 0x20, 0xcf, 0x04, 0x11, 0xe7,
  0xf6, 0xea, 0xfc, 0x09, 0xe2, 0xfd, 0x0c, 0x02, 0x1d, 0xd5, 0xe8, 0x01,
  0x12, 0x0e, 0x10, 0x0c, 0x03, 0xd9, 0xd1, 0xec, 0x18, 0x01, 0xff, 0x0e,
  0xe7, 0xfd, 0xda, 0xf4, 0x1d, 0x0f, 0xf2, 0x15, 0x13, 0x08, 0xc8, 0x29,
  0x2c, 0x01, 0xf2, 0xfe, 0xfc, 0x1d, 0xdd, 0xf5, 0x1c, 0x0a, 0x00, 0xf8,
  0x17, 0x25, 0x11, 0xe1, 0x10, 0x18, 0xf8, 0xe4, 0x02, 0x0e, 0xfa, 0xee,
  0x12, 0xfd, 0xfc, 0xf3, 0x07, 0x0d, 0xea, 0xd1, 0x0d, 0x06, 0xf8, 0xf9,
  0xe4, 0xb7, 0xe1, 0x06, 0xfc, 0xf7, 0xdb, 0x05, 0xe3, 0xb9, 0xe9, 0x14,
  0xf1, 0xe9, 0xec, 0x01, 0x0d, 0xb8, 0xcd, 0x18, 0x1f, 0x00, 0xf6, 0xee,
  0x02, 0x07, 0xe6, 0x0c, 0x0e, 0x0e, 0xec, 0x10, 0xf4, 0x07, 0x05, 0x15,
  0x2c, 0x19, 0xf4, 0xfe, 0xe6, 0x2c, 0x11, 0xf2, 0x2f, 0x14, 0x12, 0xec,
  0xf9, 0x05, 0xf8, 0xf7, 0x0b, 0x22, 0x05, 0x16, 0x0e, 0x1c, 0xd7, 0xf3,
  0x03, 0x0c, 0xf7, 0x0d, 0xfa, 0xa7, 0xd6, 0xf3, 0xdb, 0xbf, 0xc7, 0x01,
  0x0e, 0xbf, 0xd1, 0x0a, 0xe7, 0xcb, 0xe7, 0xff, 0x16, 0xd3, 0xb6, 0xfb,
  0x17, 0xd0, 0xce, 0x17, 0x20, 0xef, 0xcc, 0x33, 0x49, 0xe0, 0xd1, 0xec,
  0xfd, 0xf3, 0xef, 0x15, 0x4f, 0xf4, 0xf5, 0xec, 0xeb, 0x24, 0x03, 0x04,
  0x46, 0x0f, 0x0e, 0xe5, 0xfc, 0x11, 0xc9, 0x11, 0x26, 0x16, 0x00, 0xf8,
  0xdf, 0x11, 0xd9, 0xee, 0x15, 0x07, 0x10, 0xf9, 0x05, 0x90, 0xeb, 0xf5,
  0xd7, 0xab, 0x96, 0x19, 0xf4, 0x81, 0xf2, 0x0c, 0xca, 0xce, 0xa6, 0xf3,
  0xf9, 0xb2, 0xb8, 0xff, 0x21, 0xda, 0xc4, 0xe7, 0xf2, 0xcc, 0xc4, 0x1a,
  0x2e, 0xca, 0xad, 0x19, 0x03, 0x00, 0xdd, 0xf1, 0x4f, 0xe4, 0xe4, 0x13,
  0x0e, 0xf2, 0xf3, 0xf6, 0x3b, 0xf0, 0xf2, 0xf1, 0xe7, 0x19, 0xef, 0xe9,
  0x33, 0xea, 0x10, 0x08, 0xf3, 0x28, 0xf7, 0xe7, 0x34, 0x1e, 0xfb, 0x18,
  0x06, 0x91, 0xbd, 0xfb, 0xc7, 0xba, 0xa5, 0x13, 0x16, 0xa2, 0xef, 0xe9,
  0xd5, 0xcc, 0xcc, 0x1e, 0x17, 0xb4, 0xa4, 0xf8, 0x14, 0xd6, 0xa9, 0xf9,
  0xde, 0xc8, 0xc7, 0x2f, 0x02, 0xbb, 0xa3, 0xff, 0xf3, 0xda, 0xd9, 0x0f,
  0x01, 0xc5, 0xae, 0xef, 0x1a, 0xf9, 0xe3, 0x17, 0x4f, 0xd8, 0xd2, 0xdf,
  0xf6, 0xf2, 0xdc, 0xf6, 0x36, 0xe8, 0xe5, 0x06, 0xe5, 0x15, 0xfb, 0x18,
  0x42, 0xef, 0xf2, 0xff, 0xed, 0x5e, 0x38, 0xf0, 0x09, 0x22, 0x09, 0x0a,
  0xfe, 0x3f, 0x1d, 0xcb, 0x17, 0x12, 0xed, 0xf8, 0xfb, 0x31, 0x1b, 0x11,
  0x0d, 0x09, 0xf6, 0x03, 0x2e, 0x0d, 0x28, 0x17, 0x0a, 0x04, 0x03, 0x10,
  0xfb, 0xfe, 0xf9, 0x4c, 0x10, 0x0b, 0x09, 0xf9, 0x1a, 0x0e, 0xf5, 0x59,
  0x17, 0x10, 0x07, 0x08, 0x13, 0xef, 0xda, 0x2a, 0x05, 0x05, 0x0f, 0xd8,
  0x1d, 0x07, 0x01, 0x01, 0x03, 0x0c, 0x19, 0xed, 0xf0, 0x63, 0x40, 0xe9,
  0xff, 0x0e, 0x10, 0xef, 0xfd, 0x31, 0x1f, 0xe0, 0xfc, 0x07, 0xee, 0xe9,
  0xe0, 0x20, 0x00, 0x11, 0xfd, 0xf4, 0xfa, 0xf5, 0x10, 0x01, 0x18, 0x16,
  0xf9, 0x0a, 0x0b, 0xfb, 0xfd, 0xf0, 0xec, 0x30, 0x04, 0x08, 0x06, 0xe6,
  0xff, 0x04, 0xde, 0x57, 0x19, 0x05, 0x0b, 0x05, 0x06, 0xdb, 0xde, 0x34,
  0x19, 0x09, 0x11, 0xd5, 0xed, 0x0c, 0x13, 0x02, 0x03, 0x15, 0x0d, 0x15,
  0xff, 0x6e, 0x44, 0xab, 0xf8, 0x14, 0x09, 0x13, 0xfd, 0x20, 0x21, 0xd8,
  0x07, 0x0f, 0x05, 0xf1, 0x2b, 0x26, 0xf4, 0x0c, 0x03, 0xff, 0xf9, 0xfe,
  0xf1, 0xf7, 0x1d, 0x0d, 0xfb, 0x0c, 0x08, 0x1e, 0x03, 0xe7, 0xca, 0x3d,
  0x14, 0x04, 0xfe, 0xd1, 0xe4, 0xdc, 0xd7, 0x3c, 0x26, 0xff, 0xfe, 0xfa,
  0x0b, 0xeb, 0xd3, 0x4c, 0x12, 0x06, 0x0f, 0x07, 0x03, 0x03, 0xf4, 0x2e,
  0x11, 0x1e, 0x17, 0xea, 0x14, 0x7f, 0x38, 0xcc, 0x14, 0x21, 0x21, 0x0b,
  0x0b, 0x4a, 0x10, 0xb7, 0xd6, 0x0c, 0xf0, 0xef, 0x29, 0x26, 0xee, 0x07,
  0x0a, 0xfc, 0xee, 0xf1, 0xff, 0x0a, 0xf6, 0x0c, 0xec, 0x03, 0x0e, 0x02,
  0x1a, 0xd2, 0xd1, 0x22, 0x14, 0xfd, 0x03, 0x0d, 0x03, 0xdb, 0xbf, 0x4d,
  0x17, 0xfc, 0xf9, 0xfe, 0xf1, 0xe9, 0xd5, 0x32, 0x1d, 0x19, 0x16, 0x17,
  0xf0, 0x15, 0xf7, 0x2b, 0x13, 0x2d, 0x1f, 0x0f, 0xdb, 0x6f, 0x20, 0xc4,
  0x0d, 0x2b, 0x27, 0xef, 0x29, 0x39, 0x02, 0xa2, 0xf8, 0xff, 0x00, 0x0a,
  0x05, 0x19, 0xe5, 0xfb, 0xf0, 0xf1, 0xec, 0xf9, 0xfc, 0xfd, 0x07, 0xe8,
  0xf9, 0xfe, 0xf8, 0x05, 0xe3, 0xe6, 0xd3, 0x2a, 0x21, 0xe8, 0xea, 0x03,
  0x01, 0xbc, 0xb4, 0x3e, 0x38, 0x01, 0xef, 0xe3, 0x05, 0xee, 0xc1, 0x35,
  0x42, 0x10, 0x03, 0x09, 0x07, 0x19, 0xf2, 0x15, 0x38, 0x1f, 0x22, 0xea,
  0x08, 0x54, 0x3c, 0xa0, 0xf5, 0x26, 0x2a, 0xfb, 0x2f, 0x36, 0xfd, 0xe4,
  0x06, 0x08, 0x01, 0xfd, 0x16, 0x1e, 0xe0, 0xfb, 0xf3, 0xe7, 0xc1, 0x0a,
  0x02, 0xd3, 0xea, 0xf4, 0x03, 0xf8, 0xd8, 0xfe, 0xee, 0xdd, 0xcc, 0xf3,
  0xfd, 0xd6, 0xcd, 0x11, 0xff, 0xaa, 0xb2, 0x30, 0x3d, 0xeb, 0xdc, 0xea,
  0x00, 0xd8, 0xa6, 0x1f, 0x40, 0x04, 0x05, 0xff, 0xf2, 0x03, 0xe3, 0x23,
  0x41, 0x37, 0x0d, 0xe1, 0x18, 0x7d, 0x1e, 0xa5, 0xfc, 0x1f, 0x0f, 0x24,
  0xea, 0x4c, 0x13, 0xbf, 0xe5, 0x08, 0xfc, 0xeb, 0x03, 0xea, 0xdd, 0xe4,
  0xe6, 0xf5, 0xc7, 0x08, 0x06, 0xd1, 0xdf, 0xe4, 0xf7, 0xda, 0xd3, 0x18,
  0x1e, 0xc5, 0xea, 0xfc, 0xed, 0xc3, 0xd5, 0x19, 0xe8, 0xa2, 0xb0, 0x2b,
  0x1d, 0xea, 0xbf, 0x1f, 0xfb, 0xc7, 0xb2, 0x1a, 0x30, 0xfa, 0xcf, 0x11,
  0xfd, 0x16, 0xd5, 0x29, 0x37, 0xed, 0x06, 0x09, 0x01, 0x70, 0x4c, 0xbc,
  0x00, 0x24, 0x21, 0x0a, 0x06, 0x19, 0x0e, 0xbf, 0xc0, 0xe3, 0x03, 0xfc,
  0x02, 0xe5, 0xf6, 0x06, 0xd0, 0xb1, 0xbd, 0xd6, 0x02, 0xdb, 0xe7, 0xd0,
  0xdd, 0xf9, 0xd4, 0xe3, 0xfa, 0xc4, 0xd7, 0xdd, 0xe2, 0xe1, 0xb5, 0xf6,
  0xe8, 0xa7, 0xc0, 0x10, 0xf7, 0xca, 0xb2, 0xf6, 0x08, 0xdc, 0xa6, 0x11,
  0x30, 0xed, 0xdc, 0xe3, 0xed, 0xdf, 0xee, 0x0a, 0x20, 0xeb, 0xd5, 0xdf,
  0xe6, 0x22, 0x39, 0xa0, 0xd1, 0xec, 0xda, 0xf4, 0xea, 0xf4, 0x0b, 0xe1,
  0xcf, 0xfd, 0xdc, 0x0b, 0xd5, 0xf3, 0xff, 0xfb, 0xd1, 0xb4, 0xc2, 0x0a,
  0x0b, 0xdc, 0xdf, 0xfa, 0xd4, 0xc9, 0xb4, 0x0c, 0xf5, 0xcd, 0xda, 0xee,
  0xc7, 0xd2, 0xcd, 0xfb, 0x25, 0xbe, 0xca, 0xe1, 0xde, 0xcf, 0xb3, 0x23,
  0xfb, 0xd0, 0xce, 0xf2, 0xcd, 0xd3, 0xbc, 0x12, 0xff, 0x00, 0xfa, 0xed,
  0x06, 0xdb, 0xe4, 0xfd, 0xea, 0x18, 0x2e, 0xca, 0xc9, 0xd8, 0xf5, 0x2c,
  0x0c, 0xf1, 0xeb, 0x09, 0xe2, 0xc2, 0xdf, 0x0e, 0x19, 0xb3, 0xcb, 0xf0,
  0xcd, 0xc9, 0xb1, 0xe6, 0xf7, 0xc0, 0xef, 0xc4, 0xb6, 0xdb, 0xc1, 0xf7,
  0x07, 0xa3, 0xc5, 0xdc, 0xca, 0xbd, 0xe3, 0xff, 0xd6, 0xd5, 0xcf, 0xdd,
  0xdd, 0xb6, 0xbb, 0x06, 0xfe, 0xb3, 0xe6, 0xef, 0xf5, 0xb6, 0xd6, 0x04,
  0x13, 0xe8, 0x10, 0xdb, 0xcc, 0xcb, 0xc1, 0x1e, 0x11, 0xfb, 0xdf, 0xeb,
  0x24, 0x09, 0xe0, 0x07, 0xff, 0x16, 0x1c, 0x32, 0x00, 0xef, 0xd3, 0x24,
  0x11, 0x13, 0x29, 0x1b, 0xd7, 0x06, 0x1d, 0xcd, 0x3c, 0xd5, 0x1e, 0x0b,
  0x9f, 0xfc, 0x15, 0x0c, 0x22, 0xe4, 0x50, 0x34, 0xa6, 0x0b, 0x17, 0xf5,
  0xfc, 0x05, 0x4d, 0x02, 0x9e, 0x0f, 0x41, 0xd9, 0x0a, 0xd9, 0x54, 0xd6,
  0xa6, 0x19, 0x27, 0xee, 0x08, 0xd9, 0x14, 0xd5, 0x87, 0xfa, 0x13, 0xe7,
  0x3c, 0xf4, 0xd8, 0x0b, 0x0d, 0xfe, 0xd1, 0xf6, 0xe0, 0xfa, 0xe4, 0x0c,
  0xff, 0xfc, 0xb8, 0xd0, 0x15, 0x02, 0xfa, 0x19, 0x9f, 0x16, 0x12, 0xd7,
  0xec, 0xe2, 0x34, 0x34, 0x9a, 0xfc, 0x13, 0xe7, 0xf9, 0xc4, 0x02, 0x21,
  0xad, 0xfa, 0x19, 0xf1, 0x2e, 0xe3, 0x51, 0x16, 0xab, 0x2d, 0x2f, 0xff,
  0x36, 0xce, 0x1f, 0xe1, 0xb6, 0xfe, 0x24, 0x1b, 0x22, 0xae, 0x3d, 0x99,
  0x97, 0xf2, 0x22, 0xe4, 0xf7, 0xb7, 0xdb, 0x26, 0xe8, 0xea, 0xe3, 0xd8,
  0xf9, 0xd3, 0xc6, 0x2c, 0x0d, 0xdc, 0xcc, 0x0a, 0xf6, 0xe3, 0x21, 0x16,
  0xbc, 0xf9, 0x28, 0xdb, 0xf5, 0xbc, 0x28, 0x22, 0x81, 0x0e, 0x2c, 0x0f,
  0xe8, 0xc2, 0x17, 0x46, 0xae, 0x11, 0x35, 0xec, 0x00, 0xb1, 0x51, 0xef,
  0x98, 0x0d, 0x3c, 0x31, 0x04, 0xda, 0x61, 0xe3, 0xa0, 0xd0, 0x32, 0x04,
  0x00, 0xd6, 0x2d, 0xd1, 0xb7, 0xfa, 0x35, 0xdf, 0xe5, 0xa6, 0xfc, 0xba,
  0xd5, 0xd6, 0xe1, 0xd3, 0x1d, 0xda, 0xe4, 0xeb, 0xec, 0x19, 0xdd, 0x25,
  0x23, 0xea, 0xe8, 0x2c, 0xae, 0xf6, 0x06, 0x15, 0x21, 0xd8, 0x08, 0x2d,
  0x9a, 0xf6, 0x22, 0x14, 0xf5, 0xaa, 0x1d, 0x7e, 0x84, 0x07, 0x26, 0x03,
  0xde, 0xc1, 0x1b, 0x44, 0xc0, 0x24, 0x27, 0x16, 0xe5, 0xb1, 0x4a, 0x0c,
  0xa1, 0xf0, 0x0d, 0x1f, 0xd9, 0xd2, 0xe9, 0xb8, 0x8f, 0xf5, 0x18, 0x0e,
  0xea, 0xbf, 0xe3, 0x06, 0x2c, 0x1c, 0x1b, 0xef, 0xcb, 0xf9, 0xdc, 0x54,
  0x2d, 0x07, 0x04, 0x0c, 0x31, 0xfc, 0xf3, 0x17, 0xcd, 0x1e, 0x4d, 0x2d,
  0x1c, 0xf1, 0xf5, 0x3f, 0xd7, 0x12, 0x27, 0x38, 0x2f, 0xde, 0x09, 0x31,
  0xee, 0x26, 0x3a, 0x12, 0xea, 0xed, 0x64, 0x5b, 0xcb, 0x43, 0x52, 0x10,
  0x18, 0xe6, 0x25, 0x1a, 0x01, 0x07, 0x3c, 0xf9, 0xd1, 0xc2, 0x2b, 0x0c,
  0xfa, 0x14, 0x2c, 0x02, 0xe3, 0xc9, 0xcd, 0xd3, 0x14, 0x02, 0x01, 0x31,
  0xe4, 0x0d, 0xe2, 0x01, 0x1b, 0xff, 0x03, 0xf6, 0x08, 0xc3, 0x09, 0x3a,
  0xff, 0xf8, 0x19, 0x07, 0xe9, 0xe3, 0x0a, 0xf0, 0xfc, 0x13, 0x27, 0xf6,
  0x07, 0xec, 0xff, 0x20, 0xdb, 0x0f, 0x0a, 0xe2, 0x0a, 0xca, 0x27, 0x29,
  0xee, 0x13, 0x28, 0x3a, 0x12, 0x9c, 0x3b, 0x23, 0xf6, 0xda, 0x0e, 0xdf,
  0xe9, 0xc2, 0x0a, 0xc3, 0x22, 0x0e, 0x06, 0xde, 0xf3, 0xb5, 0xd1, 0x17,
  0xcd, 0x02, 0xf3, 0x34, 0x19, 0xfa, 0x11, 0x32, 0x07, 0x05, 0x21, 0x05,
  0x0b, 0xf3, 0xfe, 0xe9, 0xd2, 0x00, 0x28, 0xd0, 0x38, 0x03, 0x2a, 0x41,
  0xc2, 0xe7, 0xfd, 0xc7, 0x23, 0xcd, 0x46, 0x2b, 0xe7, 0x1c, 0x24, 0x27,
  0x28, 0xe1, 0x07, 0x36, 0xfd, 0x15, 0x2a, 0x2a, 0x40, 0xb1, 0xe8, 0xd7,
  0xdc, 0xfb, 0xe8, 0xe7, 0xf6, 0x97, 0xfa, 0x1a, 0x15, 0xf2, 0xfd, 0xba,
  0xca, 0xa8, 0xc6, 0x09, 0x05, 0x28, 0x08, 0x39, 0x18, 0x14, 0x0e, 0x21,
  0x18, 0x1e, 0x11, 0xed, 0x33, 0x0c, 0xf8, 0x1b, 0xed, 0x05, 0x1f, 0x06,
  0xfc, 0x06, 0xf5, 0x10, 0xa1, 0x0e, 0x1d, 0xf0, 0xf2, 0xf8, 0x0d, 0x1f,
  0xe0, 0xfe, 0x11, 0xe5, 0x29, 0xf8, 0x20, 0x2a, 0xe5, 0x1d, 0x31, 0xdf,
  0xe2, 0x9e, 0xf4, 0x09, 0xc1, 0x0a, 0x1d, 0xff, 0x43, 0xc2, 0xc8, 0xd1,
  0xcc, 0x06, 0x33, 0x32, 0x09, 0xc3, 0xf8, 0x1a, 0xfe, 0x19, 0x15, 0x08,
  0x1d, 0x13, 0xc7, 0x10, 0xfe, 0x0e, 0x00, 0xf5, 0x35, 0xce, 0xeb, 0xe3,
  0xd6, 0x04, 0x2c, 0xff, 0xff, 0xd8, 0x15, 0xf2, 0x9b, 0xfe, 0x08, 0xbc,
  0xf6, 0xb4, 0x01, 0x1e, 0xdc, 0x0f, 0x07, 0xf3, 0x08, 0xb9, 0xf4, 0xdf,
  0xe4, 0xec, 0x07, 0x4a, 0x1e, 0xcd, 0xfc, 0x05, 0x01, 0xe8, 0x0e, 0x11,
  0xda, 0x90, 0x2c, 0xe3, 0xf5, 0xf8, 0x17, 0x0d, 0xe1, 0xb9, 0xeb, 0x07,
  0x06, 0x39, 0x32, 0x06, 0xd7, 0xa8, 0xef, 0x24, 0x36, 0x0d, 0x21, 0x00,
  0x1e, 0xfc, 0xfe, 0x24, 0xdd, 0x30, 0x1a, 0x17, 0x18, 0xb9, 0x06, 0x0a,
  0xc0, 0xe7, 0x17, 0xd2, 0x0a, 0xcc, 0xe4, 0x10, 0xa0, 0xfa, 0x1f, 0x27,
  0x41, 0xe4, 0xcb, 0x17, 0xb2, 0x29, 0x1b, 0x36, 0xf1, 0x91, 0x1a, 0x02,
  0xe9, 0x11, 0x00, 0xe9, 0xf3, 0xc1, 0x02, 0xea, 0x2d, 0xe7, 0xd8, 0x0d,
  0x04, 0xf9, 0xd9, 0x11, 0x2f, 0x26, 0x19, 0x07, 0x26, 0x08, 0xe7, 0xf2,
  0x23, 0x20, 0x19, 0xd0, 0x05, 0x0f, 0x05, 0xfc, 0x08, 0x12, 0x0e, 0xe9,
  0x09, 0xfc, 0xf3, 0xfb, 0x0a, 0x02, 0x00, 0x0c, 0x13, 0x31, 0x0a, 0xfc,
  0xfb, 0x07, 0x06, 0x03, 0xff, 0x1d, 0x29, 0xe0, 0x07, 0x08, 0x02, 0xe1,
  0x25, 0x44, 0x2c, 0xe7, 0xfd, 0x01, 0x03, 0xd6, 0xce, 0x5e, 0x3b, 0xce,
  0xff, 0x08, 0x0d, 0xd9, 0xf8, 0xef, 0xe4, 0x12, 0x29, 0x13, 0x18, 0xfd,
  0x1f, 0x0f, 0xed, 0xf2, 0x1a, 0x22, 0x15, 0xf6, 0x05, 0xf7, 0x08, 0x00,
  0x06, 0x15, 0xfc, 0x0f, 0x0c, 0x10, 0xd4, 0xfe, 0x2b, 0x07, 0x06, 0xe5,
  0x13, 0x20, 0x07, 0xdb, 0x02, 0x0a, 0x08, 0x10, 0xe3, 0x2a, 0x18, 0xd1,
  0x05, 0x05, 0x02, 0x00, 0x16, 0x3c, 0x11, 0xf8, 0x0a, 0x07, 0xfe, 0x15,
  0xd4, 0x71, 0x2e, 0xc8, 0x09, 0x09, 0x07, 0x32, 0x29, 0xd2, 0xe8, 0xfe,
  0x15, 0x12, 0x0b, 0x1e, 0x14, 0x00, 0xf5, 0x19, 0x1d, 0x17, 0x0c, 0x13,
  0x02, 0x1b, 0x0c, 0xfa, 0x20, 0x13, 0xf5, 0x1d, 0x03, 0x02, 0xd1, 0xf2,
  0x35, 0x0d, 0xfe, 0x08, 0xe8, 0x4d, 0x16, 0xc5, 0x1e, 0x0f, 0x0a, 0xdc,
  0x17, 0x38, 0x32, 0xbc, 0x04, 0x0c, 0x09, 0x03, 0x2d, 0x3e, 0x1c, 0xc7,
  0xf9, 0x00, 0x04, 0x17, 0xff, 0x5e, 0x3a, 0xd2, 0x05, 0x06, 0x06, 0x02,
  0x01, 0xdd, 0xd5, 0x27, 0x2f, 0xf5, 0xfe, 0x14, 0x2a, 0xfc, 0xfd, 0xe1,
  0x22, 0x05, 0x0e, 0xe1, 0xf6, 0x1c, 0x00, 0xf7, 0x2f, 0x1b, 0xf1, 0x22,
  0xe3, 0x27, 0xfe, 0xf1, 0x3d, 0x1f, 0xf5, 0x1f, 0xee, 0x34, 0x02, 0xd9,
  0x28, 0x13, 0xfe, 0xf8, 0x17, 0x40, 0x05, 0xb7, 0x00, 0x0f, 0x08, 0x18,
  0x0e, 0x5c, 0x06, 0xdb, 0x06, 0x1a, 0xfe, 0xf8, 0x1f, 0x74, 0x1e, 0x98,
  0xfb, 0x13, 0x09, 0x0f, 0xe2, 0xdf, 0xcc, 0x15, 0x0a, 0xf7, 0xe8, 0xf4,
  0xe5, 0xfe, 0xe5, 0xf5, 0x35, 0x00, 0xe5, 0x33, 0x0b, 0x23, 0xd0, 0xf6,
  0x06, 0x05, 0xe6, 0xfc, 0xf5, 0x07, 0xe3, 0xe6, 0x1d, 0x0d, 0xef, 0xd4,
  0x33, 0x22, 0x00, 0xb7, 0x10, 0x03, 0xfd, 0x16, 0x06, 0x2f, 0x13, 0xa9,
  0xfc, 0xfb, 0x03, 0x10, 0x13, 0x53, 0x02, 0x9e, 0x07, 0x01, 0xff, 0x17,
  0x1a, 0x7f, 0x2c, 0xa8, 0xe7, 0x0d, 0xfc, 0xd8, 0x22, 0xb9, 0xc5, 0x2b,
  0x1d, 0x00, 0xd7, 0x12, 0x2e, 0x05, 0xed, 0x21, 0x15, 0xf2, 0xff, 0x13,
  0xf2, 0x18, 0x05, 0xf1, 0x13, 0x17, 0xfc, 0x1a, 0xf9, 0x0a, 0xcd, 0xe9,
  0x22, 0xfb, 0xed, 0x10, 0xef, 0x1e, 0xeb, 0xb2, 0xfe, 0xf8, 0xf9, 0x07,
  0x26, 0x1d, 0x19, 0x94, 0x09, 0x05, 0x01, 0x1c, 0x16, 0x4a, 0x15, 0xaf,
  0x00, 0x04, 0x00, 0xfe, 0x20, 0x46, 0x2e, 0x8c, 0xec, 0x13, 0xfe, 0xf6,
  0xe4, 0xd2, 0xcb, 0x29, 0x2d, 0xe7, 0xbe, 0xef, 0x2a, 0xe3, 0xef, 0xf7,
  0x1f, 0xf6, 0xe7, 0x1c, 0xea, 0xf5, 0xf4, 0xf3, 0x04, 0x0c, 0xf1, 0x00,
  0x0e, 0x08, 0xd5, 0xec, 0x30, 0xf5, 0xe8, 0x00, 0x25, 0x15, 0xe9, 0xb8,
  0x10, 0x14, 0xff, 0x03, 0x29, 0x31, 0xec, 0x99, 0xf6, 0x02, 0xfa, 0xe6,
  0x15, 0x46, 0x0d, 0xca, 0x00, 0xfa, 0x04, 0x2c, 0x0f, 0x50, 0x28, 0xab,
  0xd3, 0xee, 0xf1, 0x10, 0x15, 0xb3, 0xc0, 0x08, 0x3c, 0xe5, 0xf4, 0x05,
  0x09, 0xfd, 0x09, 0xd9, 0x2b, 0xfe, 0xf6, 0x16, 0xf5, 0x01, 0xe1, 0xff,
  0x30, 0x13, 0xfa, 0x13, 0x0a, 0x33, 0xde, 0xe2, 0x54, 0x00, 0xf8, 0xf3,
  0x2c, 0x3a, 0xfb, 0xde, 0x25, 0x0d, 0x00, 0xde, 0xf6, 0x36, 0x06, 0x90,
  0xf5, 0x04, 0xf7, 0x1e, 0xce, 0x33, 0x19, 0xb7, 0xe3, 0xfa, 0xf3, 0xf8,
  0x12, 0x73, 0x32, 0x9b, 0xd9, 0x00, 0xf1, 0xe9, 0xf6, 0xd9, 0xa4, 0xd3,
  0xfd, 0xd8, 0xdc, 0x24, 0xe5, 0xf5, 0xd5, 0x10, 0x28, 0x07, 0xe7, 0x33,
  0xcd, 0x1b, 0xe0, 0xfa, 0x20, 0x13, 0xc5, 0xd5, 0x22, 0x23, 0xdc, 0xfc,
  0x3e, 0xfe, 0xf5, 0x2c, 0xfa, 0x32, 0xfd, 0xc8, 0x14, 0x05, 0xf8, 0x03,
  0xf4, 0x52, 0xf6, 0xa1, 0xf4, 0x01, 0x02, 0xfe, 0x02, 0x4d, 0xf9, 0xdb,
  0xeb, 0xfd, 0xf0, 0xd4, 0xcc, 0x51, 0x06, 0xaf, 0xb5, 0xde, 0xf4, 0x29,
  0xdb, 0xdb, 0xb8, 0xf5, 0x1a, 0xdd, 0x9f, 0x07, 0x01, 0x00, 0xd7, 0xdc,
  0x40, 0xe5, 0xd9, 0xfe, 0x17, 0x25, 0x0e, 0xfb, 0x31, 0xd6, 0xd6, 0xf2,
  0x17, 0x0c, 0xe6, 0xf6, 0x3b, 0x15, 0xf4, 0x11, 0xfa, 0x47, 0xe3, 0xaa,
  0x36, 0x19, 0x03, 0xfe, 0xd4, 0x61, 0x0e, 0xcd, 0x1e, 0x25, 0x10, 0xec,
  0xed, 0x4b, 0x0f, 0xa0, 0xc8, 0xf5, 0xfd, 0x1d, 0xe5, 0x35, 0x15, 0xc1,
  0xc7, 0xd3, 0xe3, 0x04, 0x0f, 0xf8, 0xf5, 0x10, 0x29, 0x0e, 0xfa, 0x16,
  0x32, 0x23, 0x17, 0x10, 0x2c, 0x1d, 0xf8, 0x09, 0x3f, 0x20, 0x0e, 0x00,
  0xed, 0x1b, 0x17, 0x03, 0x18, 0xde, 0x09, 0x0a, 0xe6, 0x10, 0x0f, 0x2b,
  0x35, 0xfe, 0x06, 0x0d, 0xfc, 0x0a, 0x0a, 0xe2, 0x0f, 0x21, 0x37, 0xf9,
  0xea, 0x1c, 0x1c, 0xee, 0xe1, 0x0a, 0x6f, 0xd6, 0xe2, 0x16, 0x1c, 0xef,
  0x1c, 0x0f, 0x54, 0xd5, 0xda, 0x16, 0x17, 0xfd, 0xea, 0x0b, 0xdd, 0x02,
  0x32, 0x0e, 0xfa, 0x12, 0x1c, 0x34, 0xff, 0x1c, 0xfa, 0x09, 0xe6, 0x0b,
  0x1f, 0x1f, 0x12, 0xfe, 0xdc, 0x17, 0x10, 0x12, 0xd3, 0xca, 0x2d, 0x01,
  0xc9, 0x04, 0x11, 0xf9, 0x04, 0xf7, 0x0a, 0x08, 0xdd, 0x12, 0x08, 0x2d,
  0x1c, 0x1d, 0x42, 0xee, 0xd2, 0x1b, 0x17, 0x09, 0x11, 0xfc, 0x58, 0xd8,
  0xc1, 0x16, 0x15, 0x0e, 0x01, 0x10, 0x3b, 0xdb, 0xbc, 0x0d, 0x1a, 0x15,
  0x15, 0xfb, 0x07, 0x14, 0x03, 0xe7, 0xd9, 0x0f, 0xdf, 0x2a, 0x27, 0x2d,
  0x0e, 0xed, 0xd8, 0x11, 0xf8, 0x18, 0x23, 0x12, 0xdf, 0x0f, 0xfe, 0xd6,
  0x30, 0xd3, 0x10, 0x07, 0xaa, 0x07, 0x1d, 0x1f, 0x31, 0xf0, 0x09, 0x1b,
  0xc7, 0x14, 0x17, 0xe1, 0x24, 0x24, 0x3f, 0x16, 0xbb, 0x1f, 0x20, 0xef,
  0xdb, 0xe8, 0x4d, 0xf1, 0xac, 0x05, 0x14, 0xf4, 0xfb, 0xde, 0x36, 0xd2,
  0xa1, 0x05, 0x16, 0xce, 0x15, 0xde, 0x0d, 0x06, 0xfe, 0xe7, 0xcd, 0xe1,
  0x17, 0x0d, 0x1f, 0x28, 0x0b, 0xea, 0xd5, 0x20, 0xf5, 0x29, 0x2e, 0x11,
  0xc8, 0x07, 0x1d, 0xf0, 0x06, 0xd5, 0x0a, 0x1a, 0xaa, 0x01, 0x18, 0x04,
  0xf3, 0xf5, 0x1b, 0x1e, 0xc8, 0x0c, 0x16, 0x2c, 0x14, 0xfc, 0x43, 0x0d,
  0xa4, 0x10, 0x1f, 0xe0, 0x17, 0xff, 0x2c, 0xf6, 0xad, 0x1b, 0x28, 0x15,
  0x03, 0xec, 0x31, 0xf6, 0x9f, 0xf6, 0x13, 0xef, 0xf6, 0xbf, 0xfc, 0xf7,
  0xf2, 0xe1, 0xb4, 0xd7, 0xd7, 0x0c, 0xde, 0x24, 0xd5, 0x00, 0xb7, 0x2c,
  0x06, 0x01, 0x2c, 0x15, 0xcc, 0xfd, 0xf0, 0x0e, 0x13, 0xd2, 0x44, 0x38,
  0xb5, 0x05, 0x2b, 0xfc, 0x01, 0xf5, 0x19, 0x1d, 0xb0, 0xed, 0x13, 0xe8,
  0x08, 0xef, 0x2d, 0x18, 0xb5, 0x1b, 0x21, 0x10, 0xe4, 0xdd, 0x43, 0xd6,
  0x92, 0xfe, 0x24, 0xde, 0x1c, 0xd5, 0x37, 0xf1, 0xa4, 0xe1, 0x12, 0x03,
  0xf9, 0xcf, 0xd9, 0xf9, 0xd2, 0xce, 0x9e, 0x01, 0x0a, 0xf3, 0xfc, 0x16,
  0x04, 0xcb, 0xc7, 0xf7, 0xe4, 0x2b, 0xe6, 0x0f, 0xba, 0xe3, 0xf4, 0x0c,
  0xed, 0xef, 0x03, 0x2e, 0xd6, 0xff, 0x1e, 0x06, 0xfd, 0x0a, 0x2d, 0xf0,
  0xd7, 0xf8, 0x1f, 0xe7, 0xea, 0x2b, 0x42, 0xeb, 0xb1, 0x1d, 0x14, 0xcd,
  0xed, 0xea, 0x11, 0xca, 0xad, 0xf1, 0x0f, 0xdd, 0xf6, 0xd3, 0x03, 0xdd,
  0x95, 0xdb, 0x01, 0x31, 0xff, 0xba, 0xc2, 0xf0, 0xc8, 0xcf, 0xb7, 0x0e,
  0x21, 0xd5, 0xe4, 0x13, 0x12, 0xc8, 0xd5, 0x04, 0xdb, 0xe4, 0x09, 0x3a,
  0xe8, 0xf8, 0xeb, 0xf9, 0xf0, 0xfd, 0x12, 0x1b, 0xde, 0x04, 0x09, 0xe6,
  0xdc, 0xf0, 0x3d, 0xfb, 0xd1, 0x0e, 0x10, 0x2e, 0x00, 0xf2, 0x1e, 0x0e,
  0xc2, 0x0c, 0x1f, 0xf9, 0xe3, 0xec, 0x17, 0xc4, 0xa7, 0x01, 0x1a, 0x01,
  0xeb, 0xcd, 0xf9, 0xb4, 0x81, 0xe7, 0x00, 0x06, 0x13, 0xe1, 0xa4, 0xfe,
  0xd5, 0xc4, 0x99, 0xf1, 0xf3, 0xd9, 0xb6, 0x34, 0x1f, 0xad, 0x9a, 0xf9,
  0x0e, 0xf2, 0xe5, 0x3b, 0xbf, 0xf3, 0x14, 0x13, 0x1c, 0xcc, 0x22, 0x20,
  0xcf, 0xdc, 0xfa, 0x12, 0xf1, 0xfa, 0xf9, 0xe7, 0xe1, 0xfd, 0xfb, 0xf3,
  0xe5, 0xfa, 0x3a, 0xe4, 0xb6, 0xf9, 0x0d, 0x2c, 0x06, 0xc8, 0x0f, 0xd9,
  0xbb, 0xf8, 0xfd, 0x0b, 0x0f, 0xc0, 0x14, 0xd8, 0xc5, 0xcb, 0x0d, 0xcf,
  0xd5, 0xd3, 0xe3, 0x09, 0xd6, 0x97, 0xa6, 0x12, 0x20, 0xf9, 0xbe, 0x23,
  0xd8, 0xe4, 0xcd, 0xe7, 0x2a, 0x06, 0xe2, 0x28, 0xcf, 0xe3, 0xb5, 0x03,
  0x15, 0xf7, 0x1a, 0x03, 0xf0, 0xe8, 0xf7, 0x0a, 0xfd, 0xdb, 0xf7, 0xee,
  0xca, 0xd1, 0x0b, 0xda, 0x19, 0xbf, 0xfa, 0xf5, 0xdf, 0x09, 0xf2, 0x0e,
  0xfd, 0xba, 0x16, 0xf0, 0xb6, 0xe4, 0x14, 0x04, 0x0f, 0xe6, 0xf7, 0xdc,
  0xcc, 0xd7, 0xff, 0xfd, 0xfc, 0xc7, 0xb2, 0xfd, 0xf4, 0xd0, 0xa8, 0x1c,
  0xff, 0xe0, 0xdc, 0x36, 0xea, 0xae, 0xaa, 0xf1, 0x02, 0x00, 0xd6, 0x07,
  0xca, 0xf9, 0xe5, 0xde, 0x0e, 0x1a, 0xe1, 0x1b, 0xdf, 0xdb, 0x10, 0xea,
  0xf6, 0xec, 0x23, 0x20, 0xdc, 0xff, 0xef, 0xfe, 0xf0, 0xd7, 0xe1, 0x1b,
  0xd2, 0xe7, 0xe8, 0x1f, 0xf9, 0xba, 0xfe, 0xe5, 0xdf, 0xdc, 0x09, 0x05,
  0xf4, 0xc9, 0xfd, 0xfa, 0xb0, 0x08, 0x13, 0x0d, 0xe9, 0x07, 0xf3, 0x3f,
  0x40, 0x0b, 0x00, 0xf3, 0xfb, 0x0d, 0xfe, 0x30, 0x3d, 0x1a, 0x08, 0x08,
  0xd5, 0x20, 0x13, 0x1d, 0x31, 0x16, 0x07, 0x1a, 0xfb, 0x29, 0x08, 0x2f,
  0x3e, 0x1f, 0x00, 0x11, 0xe0, 0x29, 0x16, 0xfa, 0x28, 0x19, 0x0b, 0x1e,
  0xf1, 0x1e, 0x08, 0xf9, 0x27, 0x0d, 0x03, 0xe2, 0xfb, 0x45, 0x28, 0xee,
  0x24, 0x22, 0x06, 0x03, 0x03, 0x66, 0x21, 0xf0, 0x15, 0x15, 0x0a, 0x05,
  0x2a, 0xfc, 0xd2, 0x25, 0x1f, 0xeb, 0xe1, 0xfc, 0xed, 0xf5, 0xf6, 0x10,
  0x25, 0xf4, 0xf9, 0x03, 0x2f, 0x1c, 0xeb, 0x1d, 0x34, 0x03, 0xf3, 0x08,
  0x02, 0x2a, 0xfe, 0x31, 0x3b, 0x0c, 0x01, 0x18, 0xde, 0x26, 0x25, 0x00,
  0x27, 0x0b, 0x0a, 0xed, 0x1b, 0x17, 0x28, 0xfe, 0x23, 0x08, 0xf8, 0x14,
  0x29, 0x49, 0x0b, 0xf6, 0x21, 0x03, 0x00, 0xf8, 0xe1, 0x57, 0x22, 0xf0,
  0x14, 0x05, 0x09, 0x09, 0xff, 0xe8, 0xc0, 0x2b, 0x17, 0xd1, 0xbe, 0xd0,
  0xfd, 0xf1, 0xdd, 0x17, 0x19, 0xf8, 0xcc, 0xf2, 0x0d, 0x04, 0xd6, 0x10,
  0x1d, 0xf5, 0xe1, 0x0b, 0x11, 0x24, 0xe7, 0x1b, 0x55, 0x03, 0xf0, 0x1a,
  0xf1, 0x2a, 0xe4, 0xe8, 0x40, 0x0f, 0xf8, 0x02, 0x15, 0x21, 0xf3, 0xee,
  0x35, 0x06, 0xf9, 0x0c, 0xf4, 0x46, 0xef, 0xea, 0x25, 0x0d, 0xf4, 0x17,
  0x23, 0x47, 0x02, 0xd3, 0x0d, 0x0c, 0xf7, 0x10, 0x07, 0xc5, 0xc2, 0x08,
  0xf1, 0xcc, 0xa9, 0xdd, 0x22, 0xd8, 0xe0, 0x28, 0x1a, 0xd2, 0xc5, 0xe4,
  0x0b, 0xf1, 0xe7, 0xfd, 0x1e, 0xe6, 0xd2, 0x0c, 0x31, 0x20, 0xc9, 0x05,
  0x41, 0xf0, 0xdf, 0xf3, 0x08, 0x2e, 0xe4, 0xf5, 0x45, 0x03, 0xf4, 0x0e,
  0x0f, 0x28, 0x08, 0xd4, 0x40, 0x02, 0xfe, 0xd9, 0x02, 0x2c, 0xd0, 0xcf,
  0x1d, 0x06, 0xfb, 0xf8, 0xfe, 0x33, 0xe8, 0xd7, 0x2b, 0x05, 0xef, 0xef,
  0x15, 0xbe, 0xb2, 0x20, 0xf4, 0xb8, 0xbf, 0xdd, 0x03, 0xcd, 0xe4, 0x05,
  0x12, 0xcc, 0xdf, 0x05, 0xf9, 0xfe, 0xcc, 0xfd, 0x35, 0xd3, 0xbe, 0xfc,
  0x24, 0x1b, 0xb8, 0xf1, 0x53, 0xe3, 0xdb, 0xfc, 0x02, 0x22, 0xc7, 0xe9,
  0x58, 0x0d, 0xee, 0xe4, 0xfc, 0x16, 0xee, 0xdb, 0x51, 0x18, 0xf5, 0xf9,
  0xf5, 0x29, 0xe5, 0xd7, 0x37, 0xfe, 0xed, 0x1f, 0x08, 0x24, 0xfd, 0xde,
  0x24, 0x0a, 0x01, 0xec, 0xf0, 0xaf, 0xdc, 0x1c, 0xe8, 0xab, 0xc1, 0xd8,
  0xe1, 0xbc, 0xcd, 0x17, 0x04, 0xef, 0xf1, 0x12, 0x06, 0xcb, 0xc9, 0x0f,
  0x2b, 0xf7, 0xcb, 0x0f, 0x1c, 0x12, 0xd7, 0x11, 0x55, 0x05, 0xf0, 0xe5,
  0xef, 0x0c, 0xdd, 0x18, 0x69, 0x11, 0xfd, 0x09, 0xef, 0x40, 0xf1, 0xef,
  0x3d, 0x28, 0x01, 0x0d, 0xf7, 0x38, 0xfb, 0xe8, 0x1d, 0x0a, 0x0c, 0x1f,
  0xf3, 0x2f, 0xf3, 0x07, 0x20, 0x0a, 0xf8, 0xff, 0xe0, 0xbe, 0xb5, 0xf5,
  0xe0, 0xb2, 0xb6, 0x02, 0x20, 0xcb, 0xc4, 0xfc, 0x14, 0xb2, 0xba, 0x08,
  0x0f, 0xe4, 0xd8, 0x09, 0x2b, 0xf3, 0xe2, 0xfe, 0x0b, 0x03, 0xc3, 0x1b,
  0x5e, 0xfa, 0xe1, 0x12, 0x07, 0x3b, 0xdb, 0xfc, 0x48, 0x10, 0xf3, 0x1e,
  0x19, 0x31, 0xee, 0xfc, 0x54, 0x1a, 0x0a, 0x19, 0xe9, 0x2b, 0xf0, 0x01,
  0x5b, 0x02, 0x03, 0xda, 0xe6, 0x29, 0xdf, 0x17, 0x33, 0x14, 0x0f, 0x03,
  0xe0, 0x87, 0xbf, 0x1a, 0xed, 0xae, 0xa2, 0x01, 0x20, 0xcc, 0xcd, 0xda,
  0xf0, 0xfa, 0xde, 0x09, 0xf0, 0xd3, 0xcd, 0x00, 0x33, 0xf3, 0xdb, 0xf9,
  0xd9, 0x01, 0xb8, 0x0a, 0x71, 0xde, 0xeb, 0xf9, 0x0f, 0x45, 0xfa, 0xee,
  0x7f, 0x04, 0xf1, 0x26, 0x0a, 0x2d, 0xec, 0xf6, 0x4e, 0x0a, 0xf0, 0x05,
  0xf1, 0x2e, 0x04, 0xeb, 0x4a, 0xf0, 0xe0, 0xef, 0xf1, 0x1d, 0xfb, 0xf4,
  0x18, 0x07, 0xeb, 0xe3, 0xfa, 0x9b, 0xd5, 0xef, 0xec, 0xd4, 0xe4, 0x08,
  0xe0, 0xd4, 0xbe, 0xe8, 0xdd, 0xef, 0xe9, 0x1c, 0x13, 0xfb, 0xd8, 0xed,
  0x0d, 0xe5, 0xcf, 0xe4, 0x27, 0x02, 0xd3, 0xe7, 0x35, 0x0a, 0xe3, 0x0b,
  0x09, 0x24, 0xe0, 0x0a, 0x64, 0xe5, 0xdd, 0x0e, 0xff, 0x15, 0xfc, 0xd9,
  0x3f, 0xe9, 0xf0, 0xfc, 0xe7, 0xf9, 0xe4, 0x04, 0x31, 0xd3, 0xca, 0x0c,
  0x2d, 0x04, 0xcb, 0x1e, 0x21, 0xda, 0xc9, 0x11, 0xdc, 0xad, 0xfb, 0xf7,
  0xd7, 0xbb, 0xdc, 0xf6, 0x00, 0xf5, 0x13, 0xf6, 0x06, 0xd0, 0xe4, 0xf5,
  0x0d, 0xdb, 0xcc, 0xe2, 0xf3, 0x03, 0xbb, 0xfc, 0x1a, 0x09, 0xce, 0x0a,
  0x2d, 0xca, 0xbd, 0x14, 0x05, 0x0d, 0xc9, 0xda, 0x33, 0xc3, 0xba, 0xee,
  0x08, 0x1d, 0xdf, 0xf8, 0x3d, 0xff, 0xab, 0xfb, 0xf5, 0xf6, 0xce, 0x13,
  0x0c, 0xd5, 0xc2, 0xea, 0x15, 0x1d, 0xd3, 0xfd, 0x1f, 0xd5, 0xcb, 0x18,
  0x3e, 0xfc, 0x0a, 0x00, 0xe3, 0xe5, 0xd3, 0xd4, 0x55, 0xc8, 0xf5, 0x2d,
  0xe6, 0xe5, 0x36, 0xed, 0x1d, 0xc2, 0x24, 0x7f, 0xd6, 0xfa, 0x0a, 0xfa,
  0x21, 0xe1, 0xb7, 0x52, 0x49, 0x3e, 0xdf, 0x0a, 0x63, 0x1a, 0x02, 0xe2,
  0xa3, 0x24, 0xe0, 0xf8, 0x10, 0xe6, 0xd1, 0x45, 0x34, 0xfd, 0x41, 0x24,
  0xd4, 0x50, 0xda, 0x1f, 0x03, 0xe5, 0x26, 0x22, 0x22, 0xd4, 0xb9, 0xc9,
  0xd1, 0x06, 0xf2, 0x0f, 0xba, 0x06, 0x02, 0xc6, 0xf4, 0x0c, 0xbf, 0x63,
  0x49, 0x12, 0x22, 0xd7, 0x56, 0xf1, 0xfa, 0x4e, 0xe4, 0x38, 0x00, 0x10,
  0xae, 0xe2, 0x0c, 0xd1, 0x55, 0xcd, 0xa3, 0xf7, 0xec, 0x55, 0xeb, 0xe1,
  0x00, 0x3f, 0x19, 0xd4, 0xf7, 0xff, 0xfb, 0xd9, 0x1f, 0x20, 0xfb, 0xee,
  0xc5, 0x03, 0x22, 0xfe, 0x35, 0xfa, 0x30, 0xcb, 0xeb, 0xfc, 0x45, 0x58,
  0x33, 0xe4, 0x26, 0xf1, 0xbb, 0x29, 0xbb, 0x06, 0x44, 0xef, 0x1c, 0xc0,
  0x48, 0x48, 0xf9, 0xfa, 0xe2, 0xd6, 0x04, 0xba, 0xf0, 0xc9, 0xfc, 0x01,
  0x00, 0x01, 0xde, 0x37, 0x16, 0xe0, 0x0d, 0xcc, 0xf2, 0xf5, 0xc8, 0xe7,
  0xbb, 0x17, 0xf6, 0xe8, 0x3b, 0xf8, 0x13, 0xd7, 0x2a, 0x9c, 0xc1, 0x2c,
  0xff, 0x48, 0xcb, 0x1f, 0xc3, 0x27, 0xf5, 0xb0, 0x1c, 0x2b, 0xf2, 0x26,
  0x17, 0xf1, 0x04, 0x0f, 0xde, 0x0a, 0x2d, 0xdc, 0xc1, 0xd7, 0x10, 0x3e,
  0xf8, 0xd9, 0x43, 0xd6, 0xea, 0xc4, 0xf3, 0x59, 0x0b, 0xe3, 0xdd, 0x3e,
  0x13, 0xe4, 0xcb, 0xc8, 0xf8, 0xea, 0x40, 0xf9, 0xe4, 0x1b, 0x99, 0x60,
  0x2e, 0xe1, 0x33, 0x13, 0x21, 0xee, 0xea, 0xed, 0xad, 0x24, 0xf5, 0xdf,
  0xea, 0x49, 0x38, 0xda, 0x24, 0xf7, 0xf7, 0x34, 0x1a, 0xd6, 0xf4, 0x03,
  0xdf, 0x15, 0xf0, 0xd5, 0xf4, 0xf2, 0xc7, 0x23, 0x45, 0x00, 0x09, 0x23,
  0x12, 0xf1, 0x0a, 0x67, 0x59, 0x13, 0xf1, 0x0f, 0xff, 0xe9, 0xea, 0x05,
  0x04, 0x3c, 0xe6, 0x19, 0x53, 0x45, 0xcd, 0xd0, 0x32, 0xa5, 0xdb, 0x55,
  0xf5, 0xdc, 0x3d, 0x51, 0x17, 0xf1, 0xad, 0x3a, 0xdd, 0xa7, 0x0f, 0x17,
  0xd6, 0x2c, 0xe5, 0xea, 0x2d, 0xcb, 0xd9, 0xd4, 0x18, 0x2d, 0x34, 0xf1,
  0x29, 0x0f, 0x3a, 0xd6, 0x0e, 0x58, 0x07, 0x37, 0xca, 0xf9, 0x01, 0x37,
  0xed, 0x0b, 0xad, 0x19, 0xf0, 0xc9, 0xf7, 0x08, 0x13, 0xa2, 0xe6, 0x12,
  0xb1, 0xbb, 0xc5, 0xdd, 0x40, 0xee, 0x1c, 0xdd, 0xa0, 0x00, 0xd6, 0x0c,
  0xe3, 0xf6, 0xa7, 0xc3, 0x00, 0xfd, 0xe6, 0xa3, 0xb6, 0xff, 0xfd, 0x25,
  0x1c, 0x2d, 0xe1, 0x02, 0x18, 0xe4, 0x26, 0xed, 0x4b, 0xc3, 0x1c, 0xe6,
  0xb8, 0xe3, 0xf6, 0xe9, 0xa9, 0xd9, 0xe6, 0xfe, 0x22, 0x61, 0xa0, 0x0e,
  0xf2, 0x24, 0x3e, 0xe8, 0xe3, 0x30, 0x1d, 0xee, 0x02, 0xa3, 0x25, 0xd2,
  0x17, 0xe3, 0xdb, 0x54, 0xee, 0xed, 0x54, 0x13, 0x04, 0xae, 0x0f, 0xcd,
  0x3b, 0x06, 0x0c, 0x53, 0x2a, 0xc6, 0x18, 0xf2, 0x10, 0xfe, 0xdc, 0xfc,
  0x00, 0xf7, 0x38, 0xe9, 0xc5, 0x27, 0xe0, 0x0d, 0x30, 0xd1, 0x3e, 0x52,
  0xc9, 0xe0, 0xce, 0xce, 0x9f, 0x54, 0xee, 0xff, 0xfe, 0xbf, 0xc7, 0x2a,
  0x1e, 0x0b, 0x49, 0x12, 0x3d, 0xd7, 0xe3, 0xb0, 0x0d, 0x43, 0xda, 0x1a,
  0x2a, 0x4c, 0x9b, 0xe9, 0x10, 0x32, 0x3c, 0x0f, 0x30, 0xac, 0x43, 0xe6,
  0x2a, 0xcf, 0x05, 0xb5, 0x0a, 0x53, 0xd2, 0xd2, 0xda, 0x07, 0xce, 0x23,
  0x44, 0x21, 0xd4, 0xaf, 0xad, 0xbb, 0xfe, 0xf5, 0xfa, 0x19, 0x38, 0xe1,
  0xf1, 0xcf, 0xa8, 0xf3, 0xdc, 0x33, 0x06, 0x0b, 0x51, 0xd2, 0xc4, 0x22,
  0x26, 0xe0, 0x03, 0x2f, 0x0d, 0xc9, 0xf7, 0x5c, 0x26, 0x26, 0x1d, 0x17,
  0xd8, 0xff, 0xe4, 0x52, 0xec, 0x1f, 0x07, 0x40, 0xb2, 0xb1, 0x0e, 0xaf,
  0xe0, 0xed, 0x32, 0x1c, 0xfc, 0xb7, 0x57, 0xdb, 0x07, 0x38, 0x2f, 0xee,
  0x35, 0xde, 0x0f, 0xc9, 0x28, 0x13, 0x05, 0x0d, 0xad, 0xf7, 0x15, 0x02,
  0xe1, 0xd6, 0xee, 0x26, 0x2d, 0x21, 0xe5, 0x2c, 0x2b, 0xe5, 0xc4, 0xe2,
  0x01, 0xe3, 0x1f, 0x9e, 0x2f, 0xd6, 0x0d, 0x32, 0xf1, 0x08, 0xa6, 0x52,
  0xd3, 0x1a, 0xce, 0x03, 0xce, 0x58, 0xa2, 0x0f, 0xb8, 0x14, 0xaf, 0x59,
  0xdd, 0x32, 0xcf, 0xcb, 0xa7, 0x62, 0xc3, 0xa8, 0x11, 0x00, 0xed, 0xe4,
  0x1c, 0xf4, 0x04, 0xee, 0x28, 0xf4, 0x3b, 0xd0, 0xe8, 0xf2, 0x28, 0x1b,
  0x2f, 0x14, 0xbc, 0x12, 0x09, 0x4a, 0x19, 0xfa, 0xfd, 0x1b, 0xe2, 0xe6,
  0x22, 0xbb, 0xf2, 0x0c, 0x29, 0x1e, 0xe2, 0xd9, 0xad, 0x28, 0x3c, 0x2b,
  0xaa, 0xfb, 0xb4, 0xf0, 0xea, 0x00, 0x13, 0x15, 0xfb, 0xe6, 0xa4, 0x27,
  0x2a, 0xd8, 0x00, 0xd9, 0x0a, 0x3d, 0x27, 0xe2, 0x1b, 0x15, 0x0e, 0xea,
  0x03, 0x3b, 0x35, 0xcf, 0x16, 0x18, 0x0e, 0xf8, 0x18, 0x43, 0x34, 0xfb,
  0x0b, 0x1a, 0x05, 0x14, 0x1c, 0x28, 0x3d, 0xeb, 0x05, 0x15, 0xfe, 0xe7,
  0xff, 0x12, 0x0c, 0xf9, 0x18, 0x03, 0xf7, 0x06, 0x10, 0x0a, 0x07, 0x1d,
  0x1b, 0x0a, 0xfe, 0x11, 0x04, 0xf1, 0x06, 0x17, 0x10, 0xf9, 0xf4, 0x20,
  0x0c, 0x0f, 0x29, 0xeb, 0x11, 0xfe, 0xf9, 0x0e, 0x1c, 0x40, 0x31, 0xf0,
  0x10, 0x11, 0x0a, 0x02, 0xfe, 0x3e, 0x22, 0xcf, 0x13, 0x0e, 0x03, 0xf3,
  0xe8, 0x2d, 0x2a, 0xdb, 0x14, 0x0d, 0x01, 0xd9, 0xfa, 0x16, 0x25, 0xe6,
  0xff, 0x09, 0xfe, 0xee, 0x11, 0x13, 0xfe, 0xed, 0x0a, 0x02, 0xf1, 0xf4,
  0x18, 0x08, 0x02, 0x07, 0x03, 0x00, 0xf1, 0xff, 0xfc, 0xdf, 0x06, 0xfd,
  0xf8, 0xf5, 0xf3, 0xe8, 0xf0, 0x02, 0x11, 0xeb, 0xf4, 0xf8, 0xec, 0x16,
  0xff, 0x51, 0x3e, 0xc3, 0x10, 0x0e, 0x09, 0x07, 0x10, 0x3a, 0x1b, 0xbf,
  0x0f, 0x10, 0xf5, 0xe9, 0xed, 0x2f, 0x27, 0xc3, 0x00, 0x02, 0xfa, 0xf4,
  0x13, 0x07, 0x1d, 0xcd, 0xec, 0xfd, 0xf6, 0x1c, 0x02, 0xfe, 0x08, 0xe7,
  0xf5, 0xf4, 0xeb, 0x08, 0xf7, 0x01, 0xf8, 0x0b, 0xf3, 0xf6, 0xf5, 0xea,
  0xef, 0xe2, 0xec, 0xec, 0xea, 0xf2, 0xf3, 0x0d, 0xed, 0xfa, 0xe1, 0xe7,
  0xf8, 0xf3, 0xf1, 0x02, 0x02, 0x38, 0x2f, 0xcb, 0x01, 0x0f, 0x03, 0xee,
  0x1a, 0x2f, 0x1c, 0xcf, 0x07, 0xfa, 0xf5, 0x22, 0xf5, 0x1b, 0x17, 0xb3,
  0xf6, 0xff, 0xf8, 0x1e, 0x12, 0x0c, 0x0e, 0xd3, 0xeb, 0xe9, 0xf5, 0xee,
  0x1b, 0xf7, 0xed, 0xf4, 0xe4, 0xe6, 0xe9, 0x16, 0x08, 0xee, 0xf8, 0x0b,
  0xf6, 0xee, 0xec, 0xea, 0xff, 0xe8, 0xeb, 0xf8, 0xf1, 0xf9, 0xf5, 0x1f,
  0x1c, 0xfa, 0xd5, 0xe9, 0xf4, 0xfc, 0xec, 0x06, 0x08, 0x4a, 0x43, 0xd3,
  0x2c, 0x20, 0x11, 0xf4, 0x01, 0x18, 0x1b, 0xd2, 0x0a, 0x0d, 0x07, 0x0a,
  0xea, 0x12, 0x09, 0xcf, 0x01, 0x1a, 0x0d, 0xfe, 0xe0, 0x09, 0x08, 0xca,
  0xe6, 0x11, 0x09, 0xff, 0x14, 0xf5, 0x15, 0xe6, 0xed, 0xf2, 0x04, 0x07,
  0xfa, 0xe9, 0xe8, 0xfc, 0x03, 0xf5, 0xf5, 0x10, 0x0d, 0xea, 0xf0, 0xfa,
  0x07, 0x06, 0x07, 0xfa, 0x0d, 0x09, 0xf2, 0xd4, 0xf6, 0x01, 0x01, 0x07,
  0x11, 0x5f, 0x3e, 0xc4, 0x29, 0x2a, 0x25, 0x0d, 0xf0, 0x30, 0xfc, 0xd1,
  0x18, 0x20, 0x0a, 0xe9, 0x0f, 0x2f, 0x1c, 0xc5, 0xf4, 0xff, 0x12, 0x05,
  0xf5, 0x06, 0x12, 0xc3, 0xd6, 0xee, 0xfe, 0x10, 0xff, 0xd9, 0x03, 0xfd,
  0xef, 0xf7, 0xfa, 0xfc, 0xf6, 0xc5, 0xe7, 0x02, 0x03, 0xec, 0xf5, 0x05,
  0xe4, 0xed, 0xfa, 0xe8, 0x17, 0x05, 0x0c, 0xef, 0x07, 0xfb, 0xf9, 0xf1,
  0x20, 0x17, 0xff, 0xe2, 0xf1, 0x72, 0x4c, 0xd5, 0x33, 0x34, 0x3c, 0xe5,
  0x08, 0x40, 0x23, 0xce, 0xf9, 0x1b, 0x0b, 0x1b, 0x09, 0x27, 0x08, 0xba,
  0xda, 0xfe, 0x02, 0xee, 0x05, 0x1a, 0x1f, 0xd3, 0xce, 0xf3, 0xf8, 0x05,
  0xeb, 0xe4, 0x0a, 0xf0, 0xdc, 0xe5, 0xe4, 0xff, 0x04, 0xc3, 0xed, 0x00,
  0xe7, 0xda, 0xf9, 0x02, 0x06, 0xdd, 0x02, 0xe5, 0x1c, 0x0b, 0xff, 0xf3,
  0xfd, 0x08, 0x03, 0xe7, 0xee, 0x09, 0xf5, 0xfb, 0x07, 0x6e, 0x4b, 0xb7,
  0x21, 0x38, 0x27, 0xf2, 0xe9, 0x45, 0x0d, 0xba, 0xf1, 0x16, 0x0a, 0x1c,
  0x05, 0x27, 0x29, 0xd7, 0xbb, 0xed, 0x02, 0xf7, 0x0c, 0xfb, 0x18, 0xe8,
  0xb6, 0xdf, 0xf8, 0xe4, 0x07, 0xaa, 0x18, 0x0e, 0xc6, 0xcf, 0xeb, 0xe3,
  0x0b, 0x9b, 0xd8, 0x0e, 0xdc, 0xc2, 0xdb, 0x02, 0xe7, 0xdb, 0xf7, 0xfd,
  0xf5, 0x03, 0xec, 0xfe, 0x05, 0xfd, 0xfa, 0xe2, 0xee, 0xea, 0xef, 0x21,
  0x04, 0x7f, 0x42, 0xe3, 0x05, 0x28, 0x0b, 0xfb, 0x09, 0x33, 0x15, 0xe7,
  0xcd, 0x0e, 0xea, 0xf1, 0x20, 0x26, 0x26, 0xda, 0xd5, 0xf1, 0xf5, 0xf0,
  0x12, 0x0b, 0x05, 0xfa, 0xb7, 0xda, 0xea, 0xe3, 0xed, 0xc3, 0x0b, 0x0e,
  0xcd, 0xd6, 0xe3, 0x04, 0x05, 0xa8, 0xf3, 0xfc, 0xd0, 0xe5, 0xe7, 0xf9,
  0xea, 0xd9, 0xe6, 0x0b, 0xe6, 0x0d, 0x05, 0x13, 0xf4, 0xcd, 0x27, 0xe5,
  0xcd, 0xe6, 0xef, 0xef, 0x02, 0x63, 0x27, 0xd4, 0xe3, 0x14, 0xf1, 0xeb,
  0xee, 0x2c, 0x22, 0xe8, 0xe1, 0xec, 0xd3, 0xee, 0xf9, 0xff, 0x30, 0xf8,
  0xc6, 0xc4, 0xdb, 0xf9, 0x12, 0xd7, 0x10, 0xf4, 0xaf, 0xdf, 0xd5, 0xf8,
  0xee, 0xb8, 0x05, 0x18, 0xad, 0xc8, 0xe5, 0x0d, 0xff, 0xaa, 0xe5, 0xf1,
  0xbe, 0xda, 0xde, 0xeb, 0x10, 0xd1, 0xf3, 0x16, 0xd7, 0xe8, 0xff, 0x07,
  0xff, 0xe6, 0x24, 0xf5, 0xcc, 0xe1, 0xf1, 0xf1, 0x12, 0xf6, 0xdb, 0x35,
  0x27, 0xfc, 0xf7, 0xfd, 0x2a, 0x1f, 0x1b, 0x40, 0x0f, 0x01, 0x0e, 0x2a,
  0xfc, 0x12, 0x55, 0x0c, 0xfb, 0x0c, 0x0f, 0xd5, 0x07, 0xee, 0x24, 0x05,
  0xfc, 0xf8, 0x04, 0xe6, 0xe4, 0xfe, 0x4c, 0xed, 0xff, 0xff, 0x08, 0x20,
  0xe8, 0x11, 0x51, 0xd2, 0x01, 0x0c, 0x09, 0xfc, 0xfb, 0x14, 0x34, 0xd7,
  0x0c, 0x0c, 0x0d, 0x10, 0x11, 0x18, 0x47, 0xcd, 0x12, 0x07, 0x0a, 0xfc,
  0x10, 0xed, 0x0c, 0x05, 0x0b, 0xf3, 0xef, 0xf4, 0x15, 0x21, 0x3a, 0x4b,
  0xfe, 0x0c, 0xf4, 0x06, 0x14, 0x1b, 0x43, 0x09, 0xf0, 0xfc, 0x0a, 0x05,
  0x2e, 0xf2, 0x29, 0xff, 0xf5, 0x08, 0x03, 0xd5, 0x10, 0xf0, 0x4f, 0xf3,
  0xf9, 0xff, 0x0d, 0x05, 0x20, 0x01, 0x46, 0xc8, 0xf4, 0x0a, 0x10, 0xfb,
  0xfa, 0x04, 0x37, 0xcf, 0x02, 0x0c, 0x09, 0xef, 0x19, 0x10, 0x31, 0xdc,
  0x04, 0x0e, 0x0e, 0x05, 0xfa, 0xf7, 0xea, 0x0c, 0xf8, 0xed, 0xf5, 0x03,
  0x05, 0x3d, 0x2a, 0x17, 0x0b, 0x16, 0x05, 0xff, 0xf2, 0x30, 0x26, 0x06,
  0xec, 0x09, 0x1f, 0x0d, 0x19, 0xf9, 0x1c, 0xfd, 0xf1, 0x00, 0x08, 0xe7,
  0xea, 0xf4, 0x3d, 0xe2, 0xf2, 0x09, 0x10, 0xdd, 0x0b, 0x02, 0x30, 0xd4,
  0xee, 0xfe, 0x0f, 0xf2, 0x08, 0x0f, 0x3f, 0xdf, 0xf2, 0x10, 0x14, 0xeb,
  0xf7, 0x1e, 0x23, 0xd4, 0xf5, 0x11, 0x0f, 0x03, 0x01, 0x03, 0x03, 0x06,
  0xfb, 0x0a, 0xfe, 0x01, 0xed, 0x4a, 0x1f, 0x25, 0x0b, 0x13, 0xfd, 0x25,
  0xed, 0x10, 0x2d, 0x09, 0x02, 0x0f, 0x09, 0xd4, 0x24, 0x14, 0x1d, 0xfb,
  0xea, 0x08, 0x13, 0xfa, 0x33, 0xfa, 0x57, 0xe1, 0xe3, 0x0f, 0x1c, 0xf4,
  0x1b, 0x05, 0x44, 0xe7, 0xd7, 0x19, 0x23, 0xf4, 0x14, 0x07, 0x12, 0xcf,
  0xd8, 0x03, 0x19, 0xdf, 0x1b, 0x26, 0x3e, 0xdf, 0xd8, 0x11, 0x19, 0xfd,
  0x24, 0xf0, 0x05, 0x16, 0x0a, 0x02, 0x04, 0x1f, 0xe0, 0x39, 0x2f, 0x02,
  0x14, 0x12, 0x0e, 0xe1, 0x2f, 0x5f, 0x1f, 0x0d, 0x07, 0x0b, 0x0d, 0x06,
  0x07, 0x09, 0x29, 0xf3, 0x06, 0x0a, 0x22, 0x07, 0x0e, 0x12, 0x3a, 0xfa,
  0xeb, 0x31, 0x20, 0xef, 0xfd, 0x21, 0x46, 0xde, 0xcc, 0x0d, 0x20, 0x24,
  0xfd, 0x20, 0x37, 0xd9, 0xca, 0x06, 0x0c, 0xe7, 0x1f, 0x22, 0x42, 0xca,
  0xb5, 0x09, 0x17, 0xe6, 0x0d, 0x0d, 0xf3, 0xf8, 0x28, 0x28, 0xf1, 0xd6,
  0xf6, 0x5a, 0x38, 0xd4, 0x13, 0x25, 0x2f, 0x07, 0xf3, 0x2c, 0x34, 0x15,
  0xfc, 0x06, 0x06, 0xf2, 0xec, 0x1c, 0xff, 0xff, 0x09, 0x14, 0xf6, 0xf9,
  0x07, 0x29, 0x1b, 0xd5, 0xe6, 0x0e, 0x2a, 0xcc, 0x11, 0x31, 0x49, 0xc4,
  0xc1, 0xf6, 0x1e, 0xe6, 0xd9, 0x1f, 0x3b, 0xc8, 0xab, 0xd4, 0xfa, 0x12,
  0x0a, 0x31, 0x5a, 0xd9, 0xa6, 0xe5, 0xe8, 0xe6, 0xfb, 0x14, 0x1b, 0x12,
  0x4d, 0xef, 0xef, 0x0a, 0xd4, 0x76, 0x36, 0xc4, 0x15, 0x3a, 0x2c, 0xf9,
  0xf0, 0x7f, 0x1c, 0x06, 0x04, 0x03, 0x05, 0x04, 0xf8, 0x11, 0x30, 0xe7,
  0xf5, 0x1e, 0xfb, 0x0a, 0x0f, 0x26, 0x2b, 0xe0, 0xf0, 0xf6, 0x03, 0x0e,
  0x16, 0x1b, 0x52, 0xbc, 0xbc, 0xe8, 0xdb, 0xf3, 0x0d, 0x16, 0x44, 0xc3,
  0xa1, 0xdb, 0xe7, 0xff, 0x03, 0x1d, 0x0a, 0xcb, 0xa6, 0xd7, 0xe3, 0x15,
  0x22, 0x08, 0xd9, 0x06, 0x48, 0x23, 0xe4, 0xde, 0xf4, 0x31, 0x33, 0xc3,
  0x11, 0xf9, 0xed, 0x0f, 0x28, 0x3a, 0x32, 0xf8, 0x00, 0x04, 0xfe, 0x20,
  0x01, 0x3f, 0x39, 0x1e, 0xd1, 0xf7, 0xee, 0xe5, 0x2a, 0x37, 0x41, 0xf1,
  0xd8, 0x0e, 0xdf, 0x0d, 0x0b, 0xed, 0x2b, 0xcf, 0xb8, 0xe9, 0xd0, 0xfd,
  0xfb, 0xff, 0x34, 0xaf, 0x99, 0xca, 0xda, 0x02, 0xf3, 0xf4, 0x0e, 0xcf,
  0x9b, 0xbf, 0xd9, 0xf1, 0xf5, 0x1d, 0x09, 0xdf, 0x17, 0xd4, 0xba, 0x04,
  0x00, 0x26, 0x24, 0xe7, 0x1b, 0xe0, 0xe0, 0x1a, 0x24, 0x19, 0x0f, 0xef,
  0xde, 0xe7, 0xc7, 0x2c, 0x0b, 0x07, 0x0d, 0x05, 0xbf, 0xdd, 0xe6, 0xed,
  0x18, 0x13, 0x25, 0xd8, 0xae, 0xd0, 0xd8, 0xf1, 0x28, 0x01, 0x1b, 0xde,
  0xba, 0xcf, 0xbb, 0xd6, 0xe3, 0xce, 0xeb, 0xe5, 0xa2, 0xac, 0xcc, 0xf2,
  0x0c, 0xe0, 0xec, 0xdb, 0x96, 0xb4, 0xc5, 0xfb, 0xf8, 0x23, 0x05, 0xd3,
  0xff, 0xce, 0xb0, 0x10, 0xf0, 0x07, 0x1e, 0xc8, 0xf8, 0xde, 0xb4, 0x0a,
  0xe8, 0x04, 0xe7, 0xd3, 0xee, 0xb8, 0xb6, 0x1a, 0xff, 0xd1, 0x2b, 0xc8,
  0xca, 0xc5, 0xba, 0xfb, 0x13, 0xf6, 0xe8, 0xc3, 0xb6, 0xbe, 0xb4, 0x0a,
  0xea, 0xbc, 0x0e, 0xc1, 0xd0, 0x9f, 0xbd, 0xfa, 0xe2, 0xeb, 0xbe, 0xe6,
  0xb7, 0xd2, 0xbf, 0xef, 0x03, 0xbc, 0x0a, 0x02, 0xc1, 0x99, 0xb1, 0xe2,
  0x13, 0xf9, 0xea, 0x2e, 0x13, 0x0a, 0x06, 0x07, 0xfa, 0xf3, 0xe6, 0x28,
  0x26, 0x08, 0x00, 0xe8, 0x18, 0xf8, 0xe7, 0x07, 0xff, 0x09, 0x08, 0xfa,
  0xf8, 0xfc, 0xf8, 0x1e, 0x00, 0x0d, 0x17, 0xfa, 0xfd, 0x0e, 0xea, 0x19,
  0x0c, 0x0a, 0x05, 0xf6, 0x00, 0x21, 0x17, 0x09, 0x08, 0x13, 0x0c, 0x17,
  0x0a, 0xd9, 0xec, 0xea, 0xf8, 0xfa, 0xfb, 0xdf, 0xe2, 0xdc, 0xdc, 0xf0,
  0xf4, 0xfb, 0x05, 0xed, 0x18, 0xf1, 0xec, 0x2b, 0x14, 0x08, 0x09, 0x08,
  0xf8, 0xeb, 0xf5, 0x2c, 0x21, 0x04, 0x0c, 0xf7, 0x02, 0xed, 0xe2, 0x0a,
  0x00, 0x13, 0x0d, 0x03, 0xf6, 0xf6, 0xf7, 0x23, 0xfa, 0x0d, 0x06, 0x0f,
  0x1e, 0xfe, 0xf1, 0x0c, 0xfc, 0x06, 0x06, 0xef, 0x16, 0x08, 0x06, 0x18,
  0x00, 0x0f, 0x0b, 0x03, 0x0c, 0xe4, 0xfb, 0xf2, 0xf4, 0xf8, 0x02, 0x12,
  0xf4, 0xe8, 0xf7, 0xe3, 0xf2, 0x03, 0xfe, 0xed, 0xfb, 0xee, 0xf4, 0x17,
  0x0c, 0x07, 0x08, 0xf6, 0x07, 0xe2, 0xe6, 0x38, 0x0e, 0x0a, 0x0d, 0x1b,
  0xf4, 0xee, 0xf1, 0x11, 0xff, 0x10, 0x0e, 0xe5, 0xe3, 0xf3, 0xe3, 0x29,
  0xfe, 0x00, 0x0f, 0x06, 0x19, 0x00, 0xff, 0x1b, 0x03, 0x09, 0x0b, 0x16,
  0xf5, 0x06, 0x1e, 0x21, 0xfa, 0x04, 0x0d, 0x22, 0xfc, 0xe3, 0xe9, 0x07,
  0xed, 0x02, 0x0a, 0x1c, 0x1c, 0xe9, 0xe5, 0x08, 0xf7, 0x01, 0x05, 0xdf,
  0x27, 0xe8, 0xea, 0x1c, 0x02, 0x00, 0x10, 0x22, 0xf6, 0xd4, 0xe7, 0x2f,
  0xff, 0xf9, 0x02, 0x0d, 0xf9, 0xde, 0xe2, 0x18, 0x07, 0x09, 0x18, 0x19,
  0x0f, 0xe9, 0xed, 0x27, 0x07, 0x1b, 0x11, 0x1f, 0xea, 0xfc, 0xf5, 0x3f,
  0x0a, 0x08, 0x0b, 0xf5, 0x03, 0x01, 0xfe, 0x26, 0x04, 0x0f, 0x13, 0xeb,
  0x1a, 0xec, 0xeb, 0x10, 0x0d, 0x0d, 0x0f, 0xff, 0x06, 0xe0, 0xfa, 0xf5,
  0x02, 0x08, 0x0a, 0xf0, 0xeb, 0xc4, 0xf3, 0x23, 0xfa, 0xf5, 0xfa, 0xeb,
  0xe6, 0xb5, 0xd6, 0x2a, 0xfd, 0xee, 0x04, 0x27, 0xee, 0xca, 0xdb, 0x12,
  0x14, 0x1f, 0x0c, 0xe0, 0xe2, 0xe5, 0xd8, 0x2c, 0x19, 0x21, 0x13, 0x24,
  0xdb, 0xef, 0xde, 0x20, 0x13, 0x19, 0x0d, 0xf6, 0xe7, 0x04, 0x06, 0x24,
  0x16, 0x0e, 0x1f, 0xdc, 0x0a, 0x03, 0xe3, 0x33, 0xff, 0x19, 0x15, 0x14,
  0xeb, 0xfd, 0xe1, 0x27, 0x03, 0x0e, 0x12, 0x1b, 0xe0, 0xb1, 0xd4, 0xf2,
  0xe6, 0xe3, 0xba, 0xfb, 0x01, 0xa5, 0xe1, 0x16, 0xfd, 0xcd, 0xd3, 0xf0,
  0x14, 0xba, 0xc4, 0x0d, 0xfc, 0xdb, 0xe5, 0x11, 0x19, 0xd2, 0xd1, 0x17,
  0x1f, 0xfe, 0xf2, 0xed, 0x00, 0x00, 0xc6, 0x01, 0x1b, 0x07, 0x01, 0x00,
  0x04, 0x1f, 0xe5, 0x1d, 0x1d, 0x19, 0x10, 0x02, 0x11, 0x10, 0xe4, 0xfc,
  0x29, 0x0a, 0x0c, 0xf8, 0x00, 0x16, 0xf8, 0x35, 0x2d, 0x10, 0x19, 0xff,
  0x0a, 0xa3, 0xd8, 0x01, 0xd3, 0xd7, 0xba, 0x29, 0x29, 0xa1, 0xdd, 0x1f,
  0xfd, 0xe7, 0xdd, 0x0f, 0xef, 0xaf, 0xb3, 0x0c, 0xff, 0xe9, 0xde, 0x19,
  0x0f, 0xcc, 0xd5, 0x20, 0x35, 0xd9, 0xd6, 0xf5, 0x12, 0xfe, 0xcc, 0x18,
  0x3d, 0xf0, 0xf4, 0xf5, 0x04, 0xf2, 0xfe, 0x1a, 0x33, 0x0c, 0xfd, 0x01,
  0xff, 0x0d, 0xc6, 0x1e, 0x46, 0x02, 0x04, 0xf5, 0x0f, 0x0c, 0xd2, 0x11,
  0x39, 0x10, 0x0e, 0x0e, 0x15, 0xb2, 0xdf, 0x00, 0xd7, 0xcb, 0xb6, 0xff,
  0xf2, 0x96, 0xc4, 0x1c, 0xd6, 0xda, 0xb5, 0x08, 0x04, 0xb1, 0xca, 0x08,
  0xdf, 0xeb, 0xd3, 0x09, 0x18, 0xd1, 0xbf, 0x08, 0x18, 0xd8, 0xaf, 0x03,
  0x05, 0xe0, 0xce, 0x21, 0x11, 0xec, 0xc8, 0xf6, 0x07, 0xde, 0xbb, 0x2d,
  0x55, 0xe7, 0xc6, 0xea, 0x0e, 0x03, 0xba, 0xff, 0x42, 0xea, 0xec, 0xe0,
  0x0a, 0x17, 0xf6, 0x1d, 0x4a, 0x04, 0xfa, 0xf5, 0x07, 0xbf, 0xd1, 0x1d,
  0xab, 0xcd, 0xca, 0xf5, 0x17, 0xbd, 0x0b, 0x06, 0xf7, 0xc9, 0x06, 0x02,
  0x17, 0xba, 0xc4, 0xe1, 0xf7, 0xed, 0xb5, 0x23, 0xe0, 0xb4, 0xdb, 0x06,
  0xe4, 0xa7, 0xa5, 0x22, 0xda, 0xf8, 0xd8, 0x11, 0x2e, 0xba, 0xac, 0x09,
  0x02, 0xd7, 0xd7, 0x14, 0x3c, 0xb8, 0xb1, 0x0f, 0xdc, 0xf1, 0xd5, 0x10,
  0x2c, 0xbf, 0xad, 0xf9, 0x2c, 0xf3, 0xec, 0x16, 0x2b, 0xf1, 0xcb, 0xe9,
  0x0a, 0xb2, 0xdc, 0xd5, 0xdb, 0xee, 0xcc, 0xfe, 0xde, 0xba, 0x06, 0x0b,
  0xc9, 0xe3, 0xef, 0xf1, 0x01, 0xb7, 0xc1, 0xde, 0xb2, 0xe1, 0xcd, 0x03,
  0x26, 0xd1, 0xcf, 0xdd, 0xe0, 0xab, 0xb6, 0x19, 0x0b, 0xd2, 0xdf, 0x1c,
  0xfc, 0xa7, 0x81, 0xfc, 0xd9, 0xc0, 0xbc, 0x04, 0x12, 0xb2, 0x9e, 0xf5,
  0x13, 0xc3, 0xaf, 0x47, 0x02, 0xbc, 0xb2, 0xfd, 0x03, 0xe5, 0xd3, 0x36,
  0x20, 0xb6, 0xcd, 0xd7, 0x13, 0xfe, 0xe8, 0x2d, 0x22, 0x12, 0x07, 0x32,
  0xec, 0xf5, 0xeb, 0x2b, 0x22, 0x0d, 0x0d, 0x2a, 0x30, 0x01, 0xef, 0xf8,
  0x0f, 0x16, 0x14, 0x0c, 0xf7, 0xf1, 0xf4, 0x08, 0x08, 0x03, 0x0a, 0xfc,
  0xed, 0x0d, 0xf0, 0x16, 0x03, 0x12, 0x04, 0xf2, 0x26, 0x0e, 0x15, 0x01,
  0xf6, 0x15, 0x0c, 0xf2, 0x23, 0xef, 0x1a, 0xf9, 0xed, 0x11, 0x08, 0x21,
  0x01, 0xf5, 0xee, 0xeb, 0xe5, 0xfe, 0x06, 0xf5, 0x1a, 0xf5, 0xd7, 0x3a,
  0x14, 0x02, 0x06, 0xe7, 0x06, 0xeb, 0xd4, 0x41, 0x10, 0x05, 0xff, 0xfb,
  0xde, 0xe8, 0xfb, 0x09, 0x0a, 0x0d, 0x0e, 0xfc, 0x1a, 0x05, 0xea, 0x16,
  0x02, 0x0f, 0x0e, 0xf6, 0x01, 0x0e, 0xe5, 0x12, 0xff, 0x0b, 0x0f, 0x29,
  0xfb, 0x12, 0x05, 0x1a, 0xf3, 0x0f, 0x12, 0xe8, 0xd6, 0xdf, 0x0a, 0xf1,
  0xe7, 0x04, 0x0f, 0x07, 0x1e, 0xf3, 0x06, 0xe8, 0xf3, 0xfa, 0x04, 0xf8,
  0xf2, 0xee, 0xe1, 0x15, 0x05, 0x04, 0x01, 0x0f, 0x27, 0xe4, 0xde, 0x21,
  0x16, 0x07, 0x0f, 0x04, 0xe4, 0xf1, 0xe9, 0x0b, 0x0a, 0x0a, 0x08, 0xf6,
  0x30, 0xfb, 0xdc, 0x1f, 0x04, 0x0a, 0x08, 0x13, 0xe8, 0xf5, 0xe5, 0x2a,
  0xfc, 0x0b, 0x11, 0xef, 0x00, 0x0e, 0x0a, 0x21, 0xfc, 0x13, 0x13, 0x19,
  0xfc, 0xd7, 0xf8, 0x02, 0xeb, 0x05, 0x0b, 0xdb, 0x06, 0xdc, 0x0a, 0xff,
  0xeb, 0x0c, 0x0f, 0x08, 0xdd, 0xe1, 0xdd, 0x14, 0x06, 0xfe, 0x05, 0x1b,
  0xf0, 0xd1, 0xce, 0x38, 0x20, 0x0b, 0x09, 0xe7, 0x18, 0xdd, 0xbd, 0x15,
  0x16, 0x07, 0x0c, 0xe5, 0xf3, 0x0e, 0xd9, 0x35, 0x12, 0x0e, 0x07, 0xda,
  0xf3, 0x01, 0xee, 0x16, 0x00, 0x1d, 0x0c, 0xf5, 0x12, 0x0d, 0x0c, 0x32,
  0xf2, 0x11, 0x0e, 0x09, 0x0d, 0xd4, 0xf7, 0x14, 0xe3, 0x12, 0x03, 0x14,
  0x2d, 0xef, 0xf9, 0x3a, 0xfa, 0x07, 0xf9, 0x01, 0x09, 0xd4, 0xc9, 0x15,
  0x17, 0xfc, 0x06, 0x28, 0xfc, 0xd1, 0xd5, 0x1d, 0x07, 0x03, 0x05, 0xec,
  0x07, 0xf5, 0xe8, 0x12, 0x20, 0x08, 0x07, 0xe8, 0x04, 0xf9, 0xde, 0x31,
  0x20, 0x00, 0x0a, 0xd9, 0x0b, 0x0e, 0xe3, 0x3f, 0x18, 0x0d, 0x10, 0xf3,
  0x11, 0x07, 0xee, 0x23, 0xfb, 0x0b, 0x09, 0x33, 0xe2, 0xdd, 0xf0, 0x2f,
  0xf1, 0x02, 0x07, 0xff, 0x1c, 0xf5, 0xf8, 0x17, 0x04, 0xf6, 0x05, 0xe1,
  0x19, 0xd7, 0xe6, 0xf9, 0x01, 0xf3, 0xde, 0xef, 0x2e, 0xce, 0xaa, 0x15,
  0x15, 0xf0, 0xff, 0x1a, 0xe8, 0xd1, 0xd0, 0xfd, 0x2e, 0xee, 0xf6, 0x06,
  0xf9, 0xf6, 0xca, 0x26, 0x26, 0xf8, 0xf0, 0x09, 0xfd, 0x03, 0xdb, 0x1e,
  0x1f, 0x0a, 0x04, 0xe8, 0x0d, 0x0c, 0x09, 0xf8, 0x24, 0x00, 0x00, 0x04,
  0x12, 0x03, 0xdb, 0x06, 0x1f, 0x07, 0xf2, 0xd6, 0xf5, 0x02, 0xde, 0xfb,
  0x20, 0x01, 0xec, 0xeb, 0xf6, 0xc8, 0xd5, 0xe9, 0xf2, 0xc9, 0xe3, 0x13,
  0xd5, 0xa1, 0xcf, 0x07, 0xf2, 0xe7, 0xde, 0x13, 0xff, 0xe2, 0xcf, 0xfc,
  0x32, 0xd2, 0xcb, 0xe6, 0xfb, 0xed, 0xce, 0x16, 0x50, 0xf7, 0xd7, 0xed,
  0xfd, 0x12, 0xde, 0x05, 0x49, 0x0a, 0xf8, 0xf9, 0x06, 0x1a, 0xf4, 0xf2,
  0x47, 0x20, 0x0b, 0xd4, 0x05, 0x1e, 0xe0, 0x0b, 0x13, 0x07, 0xfd, 0xde,
  0xe3, 0x05, 0xe8, 0x10, 0x38, 0x1e, 0x02, 0x04, 0xd6, 0x98, 0xbe, 0x30,
  0xda, 0xc8, 0xab, 0x0e, 0xfd, 0xa3, 0xd1, 0xfc, 0x02, 0xcd, 0xc4, 0xee,
  0xfe, 0x94, 0xb4, 0x05, 0x27, 0xcc, 0xa0, 0x1b, 0x09, 0xe2, 0xd3, 0x2c,
  0x66, 0xff, 0xc5, 0x06, 0x0a, 0x2e, 0xea, 0x07, 0x5c, 0x0b, 0xf2, 0x0b,
  0xff, 0x24, 0xf4, 0xf1, 0x6b, 0x33, 0x07, 0x15, 0xf5, 0x2b, 0xce, 0x1f,
  0x58, 0x2b, 0xf7, 0x0b, 0xfb, 0x19, 0xe1, 0x2f, 0x54, 0x0b, 0x06, 0xf6,
  0x27, 0x92, 0xd5, 0x0e, 0xcb, 0x90, 0x9b, 0x00, 0xfd, 0xa3, 0xea, 0xe7,
  0xc2, 0xa4, 0xae, 0x0c, 0xe1, 0xa5, 0xe0, 0xfa, 0x14, 0xa9, 0x96, 0xf3,
  0xfc, 0xe2, 0xc5, 0x25, 0x3a, 0xc5, 0x9b, 0x00, 0xfb, 0xdb, 0xe5, 0x22,
  0x2e, 0xe6, 0xa7, 0xde, 0xe8, 0x08, 0xf5, 0xf4, 0x46, 0xef, 0xdf, 0x07,
  0x10, 0xed, 0xd0, 0x16, 0x57, 0x22, 0xf9, 0xdd, 0x01, 0x19, 0xc6, 0x0f,
  0x6e, 0x2f, 0x09, 0xf4, 0xe7, 0xb9, 0xc4, 0xe5, 0xd6, 0xac, 0x86, 0xfb,
  0xe7, 0x85, 0xb9, 0xf3, 0xfd, 0xc3, 0x9a, 0x02, 0xfd, 0xbd, 0xc6, 0xe4,
  0xdb, 0xbd, 0x81, 0xf7, 0xef, 0xb6, 0xa5, 0x0b, 0x17, 0xb2, 0x8f, 0xe7,
  0x2d, 0xee, 0xc6, 0x0d, 0x59, 0xe6, 0xbb, 0x0b, 0x25, 0xe9, 0xdd, 0x13,
  0x61, 0xc2, 0xb0, 0x17, 0xf6, 0xd0, 0xca, 0xf2, 0x40, 0xd7, 0xa8, 0xd5,
  0x1d, 0xe9, 0xd7, 0x0e, 0x64, 0xee, 0xd0, 0xed, 0x07, 0xfc, 0x02, 0x2e,
  0x24, 0x0b, 0xfa, 0xe7, 0x1a, 0x2b, 0x1e, 0x08, 0x28, 0x0d, 0xee, 0xe3,
  0xf3, 0x33, 0x33, 0x15, 0x0a, 0x02, 0xf2, 0xd0, 0xef, 0xfe, 0x17, 0x14,
  0x12, 0x09, 0xfe, 0xf6, 0x03, 0x20, 0x4a, 0xfa, 0x0f, 0x0c, 0x07, 0xdf,
  0xfc, 0x19, 0x4c, 0xc8, 0x11, 0x10, 0xff, 0xe8, 0x16, 0x22, 0x4f, 0xc8,
  0x13, 0x10, 0x06, 0xe5, 0x17, 0x26, 0x3d, 0xb6, 0x15, 0x11, 0x0c, 0x02,
  0xe1, 0x02, 0xf9, 0x21, 0x2a, 0x04, 0xf8, 0xe2, 0x0c, 0x22, 0x1d, 0xfe,
  0x29, 0x0a, 0xfa, 0xf5, 0x21, 0x2b, 0x50, 0x10, 0x06, 0xfd, 0xf2, 0xd4,
  0xe5, 0x1b, 0x0b, 0x07, 0x08, 0xf5, 0xf7, 0xe1, 0x0e, 0x1a, 0x5e, 0xe4,
  0xff, 0x04, 0xff, 0xe1, 0xf5, 0x18, 0x2f, 0xcd, 0x06, 0x01, 0xf9, 0xdf,
  0x04, 0x0f, 0x31, 0xcc, 0x0c, 0x11, 0xfa, 0xf1, 0xef, 0x1f, 0x34, 0xb7,
  0x0c, 0x0b, 0x03, 0x02, 0xea, 0x11, 0x12, 0x16, 0x26, 0x04, 0xf5, 0xf9,
  0x04, 0x5f, 0x3c, 0xf2, 0x04, 0xfa, 0xf9, 0x07, 0xd7, 0x48, 0x3a, 0x15,
  0x08, 0x09, 0xed, 0x19, 0x04, 0x16, 0x30, 0x00, 0x08, 0x06, 0xfb, 0x00,
  0x16, 0x22, 0x2c, 0xc8, 0xfc, 0x04, 0x01, 0xfb, 0x09, 0x1a, 0x2c, 0xb8,
  0xef, 0x05, 0x03, 0x05, 0x07, 0x15, 0x0c, 0xcb, 0x02, 0x05, 0xfd, 0x1b,
  0xe7, 0x20, 0x2e, 0xc2, 0xea, 0x0c, 0xff, 0xfc, 0x1a, 0x19, 0xf3, 0xf1,
  0x23, 0xf3, 0xf5, 0xd6, 0xf5, 0x58, 0x46, 0xf2, 0x20, 0x02, 0x03, 0x04,
  0x1d, 0x64, 0x53, 0x08, 0x03, 0x0b, 0x07, 0x1b, 0x33, 0x22, 0x1f, 0xf6,
  0x0c, 0x05, 0x06, 0x02, 0xff, 0x21, 0x3e, 0xcb, 0xe5, 0x13, 0x0f, 0x20,
  0x08, 0x21, 0x21, 0xa3, 0xd6, 0x05, 0x11, 0x09, 0x0c, 0x19, 0x2e, 0xa8,
  0xd7, 0x08, 0x03, 0x07, 0x04, 0x2d, 0x32, 0xae, 0xcb, 0xf7, 0xfe, 0x00,
  0xd3, 0x26, 0xe4, 0xf8, 0x1d, 0x29, 0xff, 0xdf, 0x1b, 0x62, 0x2c, 0xe3,
  0x12, 0x23, 0x15, 0xcf, 0xd0, 0x53, 0x54, 0x03, 0x14, 0x1d, 0x08, 0x03,
  0x10, 0x32, 0x21, 0xea, 0x02, 0x29, 0x22, 0x09, 0xe1, 0x2a, 0x26, 0xce,
  0xef, 0x25, 0x26, 0xf4, 0x22, 0x25, 0x34, 0xb2, 0xba, 0x08, 0x0e, 0xcc,
  0x23, 0xfb, 0x0c, 0xc0, 0xba, 0xf3, 0xfd, 0xe0, 0x08, 0x26, 0x2b, 0xbc,
  0x9f, 0xe8, 0xf2, 0xf0, 0x33, 0x3b, 0x28, 0x0e, 0x2d, 0x0a, 0x0c, 0x1e,
  0x0e, 0x71, 0x44, 0xbe, 0xfc, 0x2f, 0x0f, 0xe2, 0x08, 0x71, 0x22, 0x1f,
  0x0a, 0x16, 0x09, 0x20, 0xe7, 0x2d, 0x13, 0x0d, 0xf6, 0x11, 0x0e, 0xec,
  0xfc, 0x26, 0x26, 0xbf, 0xd3, 0x24, 0x17, 0xcd, 0x06, 0x26, 0x3e, 0xbd,
  0xac, 0xe8, 0xf0, 0xd3, 0xe4, 0x10, 0x2b, 0xed, 0xab, 0xe3, 0xe2, 0xfd,
  0xde, 0x10, 0x14, 0xe1, 0x9b, 0xdc, 0x08, 0xd7, 0x1a, 0x40, 0x1e, 0xef,
  0x2c, 0x33, 0x2c, 0x16, 0xf9, 0x6a, 0x2d, 0xbb, 0x03, 0x1b, 0x02, 0x09,
  0xf8, 0x60, 0x39, 0x37, 0x0b, 0x24, 0xfc, 0x05, 0x10, 0x26, 0x43, 0xfb,
  0xf4, 0x04, 0xf3, 0x03, 0x09, 0x21, 0x5c, 0xc9, 0xb5, 0xe6, 0x0c, 0x0c,
  0x2a, 0x0e, 0x30, 0xed, 0xa3, 0xe7, 0xdf, 0xe0, 0x2f, 0xef, 0x1d, 0xed,
  0x8d, 0xc9, 0xd2, 0x32, 0x0b, 0xe8, 0x51, 0xc5, 0x8e, 0xda, 0xf2, 0xfc,
  0xfe, 0x4f, 0x1b, 0x16, 0x13, 0xfb, 0xf6, 0xf7, 0x03, 0x59, 0x44, 0xea,
  0x19, 0x19, 0x16, 0x0f, 0xf8, 0x64, 0x3f, 0x0d, 0xe8, 0x02, 0xd1, 0x1d,
  0x06, 0x0b, 0x28, 0x0f, 0xc7, 0xff, 0xe7, 0xd5, 0x08, 0x01, 0x47, 0xca,
  0xb7, 0xc4, 0xd9, 0xfb, 0xf6, 0xe3, 0x02, 0x02, 0xa0, 0xd7, 0xba, 0x19,
  0x1f, 0xee, 0xfc, 0x15, 0xaf, 0xbe, 0xd8, 0xeb, 0x0e, 0xe4, 0x0b, 0xf1,
  0x81, 0xcf, 0xde, 0x12, 0xf2, 0x19, 0x2a, 0xef, 0x23, 0x0f, 0xdc, 0xfe,
  0x29, 0x46, 0x26, 0xe1, 0x15, 0xda, 0xe4, 0xf5, 0xfa, 0xf4, 0x15, 0xef,
  0xca, 0xe1, 0xd2, 0xf8, 0xea, 0xf0, 0x21, 0xfb, 0xc7, 0xd7, 0xb0, 0xca,
  0xea, 0xed, 0x10, 0xd5, 0xb2, 0xd7, 0xc3, 0xdf, 0x00, 0xd7, 0xc3, 0xef,
  0xb3, 0xcd, 0x9a, 0xf7, 0xff, 0xda, 0x24, 0xea, 0xa0, 0xa5, 0xd3, 0x00,
  0x17, 0xba, 0xf1, 0xea, 0xaa, 0xaa, 0xe0, 0xef, 0xdd, 0xe6, 0xdd, 0xda,
  0x00, 0xd9, 0xc3, 0xd7, 0xfe, 0x02, 0x0a, 0xef, 0x07, 0xf8, 0xc6, 0xe7,
  0xe7, 0x1b, 0x10, 0xb1, 0xbb, 0xcb, 0xc6, 0x04, 0x05, 0xe0, 0xe4, 0xd0,
  0xb7, 0xda, 0xa9, 0xf3, 0xdd, 0x95, 0xf5, 0xcd, 0xcb, 0xc9, 0xb6, 0x05,
  0x04, 0xa7, 0xc4, 0xef, 0xae, 0xa0, 0x88, 0x04, 0x07, 0xc5, 0xcc, 0xec,
  0xce, 0xf4, 0xdb, 0xf3, 0xf6, 0xe6, 0xdf, 0xef, 0xba, 0xe5, 0xcc, 0xe7,
  0xf3, 0xf3, 0xe1, 0x17, 0x2b, 0x19, 0x10, 0xf6, 0x27, 0x03, 0xfc, 0xfc,
  0x1c, 0x0e, 0x11, 0x11, 0x00, 0x08, 0x06, 0xf8, 0x15, 0x18, 0x0d, 0x08,
  0xe1, 0x03, 0xed, 0xfc, 0x08, 0x16, 0x07, 0xf8, 0x23, 0x18, 0x09, 0xf4,
  0x00, 0x0e, 0x01, 0xf7, 0xfc, 0x0f, 0x1b, 0xf1, 0x07, 0x06, 0x01, 0x29,
  0x1a, 0x3d, 0x25, 0xf0, 0x08, 0x05, 0x05, 0xd9, 0x21, 0x4b, 0x47, 0xe7,
  0xff, 0x0c, 0x05, 0xf8, 0x0f, 0xec, 0xe4, 0x2d, 0x18, 0x09, 0x0a, 0x0a,
  0x2c, 0xff, 0xf9, 0x10, 0x19, 0x18, 0x12, 0x02, 0x01, 0x03, 0x0c, 0x09,
  0x1a, 0x0e, 0x03, 0x0f, 0x09, 0x05, 0xf4, 0x02, 0x16, 0x0e, 0x0c, 0xff,
  0x02, 0x0f, 0x02, 0x04, 0x08, 0x0c, 0x0b, 0x1a, 0x26, 0x17, 0x26, 0xf3,
  0xf9, 0x01, 0x02, 0x0f, 0x14, 0x2f, 0x2a, 0xe0, 0x02, 0x01, 0x05, 0xfa,
  0x2c, 0x52, 0x2d, 0xf4, 0xfc, 0x07, 0xff, 0x0f, 0x12, 0xe6, 0xc6, 0x32,
  0x24, 0x09, 0xff, 0xe7, 0x10, 0xf6, 0xe9, 0x1b, 0x10, 0x0e, 0x07, 0x1e,
  0x1a, 0x02, 0xea, 0xfc, 0x20, 0x07, 0xf9, 0xec, 0x0f, 0x08, 0xe2, 0x13,
  0x19, 0x0a, 0xfb, 0xf0, 0x27, 0x17, 0x13, 0xe3, 0x06, 0x0c, 0xfe, 0xf2,
  0x21, 0x13, 0x13, 0xdb, 0xf6, 0x00, 0xfe, 0xe3, 0xf1, 0x1d, 0x0b, 0xf8,
  0xed, 0xff, 0xfa, 0xd5, 0xfd, 0x4e, 0x28, 0xdf, 0xf0, 0x00, 0xf9, 0x1c,
  0x0d, 0xe1, 0xcf, 0x0d, 0x21, 0x05, 0xf7, 0x0e, 0x0f, 0xf7, 0xf5, 0xfe,
  0x0b, 0x17, 0x18, 0xec, 0x1b, 0x09, 0xee, 0x01, 0x12, 0xfc, 0xfc, 0x0a,
  0x19, 0xf1, 0xea, 0x0c, 0x2c, 0x02, 0xfe, 0xd7, 0x2f, 0x19, 0x07, 0xe5,
  0x14, 0x08, 0xfa, 0xdb, 0x1e, 0x0c, 0xf8, 0xd6, 0x00, 0x05, 0xf9, 0x0c,
  0xf5, 0x13, 0x16, 0xcd, 0xf3, 0x03, 0x01, 0xe9, 0x16, 0x46, 0x19, 0xce,
  0xe0, 0x0a, 0xfc, 0x22, 0xe0, 0xd2, 0xb7, 0x20, 0x1a, 0x05, 0x08, 0x22,
  0x06, 0xe2, 0xed, 0x07, 0x21, 0x21, 0x11, 0xe9, 0xfe, 0xfb, 0xfc, 0xf9,
  0x17, 0x16, 0x0c, 0x0b, 0xf1, 0x18, 0xe9, 0x0c, 0x2c, 0x02, 0xf8, 0x06,
  0x19, 0x15, 0x13, 0xe6, 0x1c, 0xff, 0x03, 0x03, 0x31, 0x19, 0x11, 0xcd,
  0x0e, 0x12, 0xfd, 0xee, 0x11, 0x3e, 0x09, 0xcf, 0x03, 0x09, 0x00, 0x06,
  0x20, 0x33, 0xf7, 0xc1, 0xd9, 0x10, 0x00, 0x06, 0x0f, 0xbe, 0xc3, 0x1e,
  0x26, 0xe9, 0x16, 0xf3, 0x07, 0xd1, 0xda, 0xff, 0x10, 0x21, 0x10, 0xea,
  0xcf, 0xef, 0xd6, 0xfa, 0x09, 0xf7, 0x0a, 0x1d, 0xee, 0x0e, 0xd0, 0x0a,
  0x1d, 0x02, 0xf5, 0x1e, 0xe2, 0x24, 0x0e, 0x10, 0x39, 0x1b, 0xf0, 0x00,
  0x08, 0x0e, 0x11, 0xdd, 0xfe, 0x0e, 0xfe, 0x1f, 0x0e, 0x33, 0x03, 0xef,
  0xe7, 0xfe, 0x03, 0x27, 0xde, 0x3c, 0x20, 0xe1, 0xe4, 0xf8, 0x04, 0xef,
  0xf6, 0xb1, 0xc4, 0x02, 0x19, 0xf1, 0xf8, 0xdb, 0x00, 0xe2, 0xbf, 0x00,
  0x0d, 0x0f, 0x0a, 0xe9, 0xf5, 0x0d, 0xd6, 0xf3, 0x28, 0x10, 0xed, 0x0e,
  0x08, 0x13, 0xdb, 0x1f, 0x44, 0xff, 0xfa, 0x01, 0xef, 0x32, 0xec, 0x10,
  0x3f, 0x02, 0x00, 0x00, 0x33, 0x2c, 0x12, 0xed, 0x1f, 0x00, 0xf9, 0x06,
  0x02, 0x1e, 0xfa, 0xd5, 0xfb, 0x00, 0xed, 0xe9, 0xfb, 0x42, 0x04, 0x03,
  0xfa, 0x0f, 0x03, 0xda, 0xe8, 0x9e, 0xd0, 0x19, 0xe8, 0xb1, 0xb7, 0x09,
  0x19, 0xb3, 0xc6, 0xff, 0xef, 0xfe, 0xea, 0xfe, 0x0d, 0xd2, 0xcb, 0xf4,
  0x32, 0xfd, 0xd4, 0x0a, 0xfe, 0x09, 0xbf, 0x13, 0x48, 0xf1, 0xde, 0xfb,
  0xe0, 0x0e, 0xe7, 0xfd, 0x3a, 0x1a, 0x01, 0xf6, 0x24, 0x53, 0x0e, 0xfa,
  0x33, 0x19, 0x11, 0x1c, 0x0f, 0x26, 0x08, 0xf7, 0xf6, 0x01, 0x0f, 0x15,
  0x0a, 0x12, 0xfc, 0xe5, 0xff, 0x21, 0x03, 0x25, 0xec, 0x81, 0xda, 0x03,
  0xdc, 0x99, 0x96, 0xe8, 0x04, 0x8d, 0xcd, 0xd7, 0xe1, 0xbb, 0xb0, 0x32,
  0xfc, 0xad, 0xe9, 0xf7, 0x18, 0xc7, 0xb1, 0x11, 0x04, 0xec, 0xa2, 0x0c,
  0x3f, 0xc9, 0xb1, 0x07, 0xfc, 0x11, 0xcc, 0xe1, 0x4a, 0xea, 0xf4, 0xf7,
  0xfb, 0x36, 0xe5, 0xd8, 0x52, 0x24, 0x05, 0x1a, 0xed, 0x1b, 0x0c, 0xf1,
  0x2b, 0x0e, 0xf7, 0x18, 0x1c, 0x1b, 0xe5, 0x09, 0x1f, 0x13, 0x05, 0xe9,
  0x30, 0x8e, 0xc5, 0xfd, 0xcd, 0x9e, 0xac, 0x09, 0x10, 0xc0, 0xd8, 0xe2,
  0xf7, 0xa9, 0xdd, 0x14, 0xf7, 0xd1, 0xc4, 0xea, 0x03, 0xc0, 0xa6, 0x07,
  0x2e, 0xd8, 0xb5, 0xfb, 0x3b, 0xba, 0xbe, 0xf0, 0x2b, 0x2e, 0xcf, 0x02,
  0x4b, 0xea, 0xc9, 0x14, 0x1c, 0x3e, 0xf6, 0xf9, 0x2a, 0x0d, 0xfb, 0xfc,
  0x06, 0x24, 0xce, 0x04, 0x2d, 0xed, 0xff, 0x03, 0xf8, 0x06, 0x0d, 0x18,
  0x23, 0x13, 0x02, 0x1e, 0x1c, 0xf3, 0xff, 0xff, 0xda, 0xf6, 0xff, 0xff,
  0x04, 0x00, 0x00, 0x00, 0x80, 0x02, 0x00, 0x00, 0x6b, 0x56, 0x27, 0xc6,
  0x2b, 0x13, 0x01, 0xf1, 0x7f, 0x20, 0x75, 0xfa, 0xe7, 0x0c, 0x29, 0xb3,
  0x20, 0x3f, 0x24, 0xff, 0x2a, 0x20, 0xe2, 0x04, 0x71, 0x1b, 0x4c, 0x1c,
  0xd0, 0x1e, 0x2d, 0xf2, 0x08, 0x2e, 0xec, 0xfe, 0x12, 0xf4, 0xdc, 0xc2,
  0x5c, 0xf8, 0x13, 0x3f, 0xc2, 0x12, 0x0b, 0xcb, 0xd7, 0xe8, 0x9d, 0x2c,
  0xf3, 0xd7, 0xc0, 0xfd, 0xf4, 0xce, 0xb8, 0x79, 0xd8, 0xff, 0xe4, 0xa8,
  0x23, 0x43, 0x49, 0xc8, 0x2d, 0x1f, 0xe9, 0xcd, 0x69, 0x0f, 0x58, 0xef,
  0xf4, 0x05, 0x30, 0x0e, 0xe4, 0x3e, 0x0d, 0xe0, 0x4a, 0x16, 0xe3, 0xd9,
  0x3a, 0x13, 0x3b, 0x0a, 0xf0, 0x13, 0x34, 0xe5, 0xca, 0x2c, 0xec, 0x0e,
  0x2f, 0xfe, 0xe7, 0x07, 0x0b, 0xe9, 0x0a, 0x2e, 0xed, 0x12, 0x1c, 0xc5,
  0xdb, 0xd7, 0x9d, 0x2e, 0x23, 0xeb, 0xb9, 0x36, 0x1c, 0xc2, 0xbe, 0x6c,
  0x00, 0xed, 0xf3, 0x96, 0xf5, 0x5d, 0x3f, 0xba, 0x21, 0x13, 0xfa, 0x81,
  0xea, 0xff, 0x4f, 0xd3, 0xf9, 0xf5, 0x21, 0xd0, 0x10, 0x46, 0x10, 0xea,
  0x49, 0x1b, 0xe2, 0x60, 0x10, 0x05, 0x2d, 0xf9, 0xf8, 0x06, 0x34, 0xf4,
  0xcf, 0x20, 0xdd, 0x11, 0x53, 0x07, 0xd4, 0x4a, 0xb6, 0xe7, 0xfb, 0x2c,
  0xff, 0xf7, 0x19, 0x5e, 0x8e, 0xda, 0xa0, 0x3b, 0x31, 0xf2, 0xb7, 0x18,
  0xd9, 0xa6, 0xa8, 0x5d, 0x10, 0xdb, 0xfd, 0x0c, 0xb3, 0x5b, 0x43, 0xaa,
  0x11, 0x11, 0xee, 0xef, 0x52, 0x0d, 0x56, 0xd8, 0xc9, 0x0b, 0x3e, 0xfa,
  0xe0, 0x56, 0x23, 0xf6, 0x47, 0x13, 0xef, 0x1c, 0xb3, 0x0c, 0x2e, 0x10,
  0xe6, 0x0e, 0x3d, 0xfc, 0xd0, 0x18, 0xdd, 0x02, 0x4c, 0x0b, 0xd0, 0xe3,
  0xa4, 0xe8, 0xfe, 0x27, 0xfe, 0xfa, 0x14, 0xc3, 0x1e, 0xca, 0x88, 0x31,
  0x47, 0xd5, 0xb9, 0xbf, 0x9d, 0xa4, 0xb2, 0x5a, 0xfe, 0xd4, 0x0c, 0x9e,
  0x09, 0x61, 0x36, 0x93, 0xfe, 0x37, 0x1e, 0x55, 0xa3, 0x0d, 0x4f, 0xc8,
  0xc1, 0x0b, 0x51, 0xf9, 0x1c, 0x58, 0x1c, 0xd9, 0x3b, 0x37, 0xf0, 0x5f,
  0x16, 0x01, 0x2c, 0x0c, 0xd3, 0x25, 0x42, 0x4d, 0x46, 0x2a, 0xe5, 0x15,
  0x47, 0x0d, 0xdf, 0xe2, 0xf6, 0xd7, 0xf2, 0x2b, 0xe5, 0xf2, 0x24, 0x96,
  0xfa, 0xd5, 0x95, 0x39, 0x48, 0xd1, 0xaf, 0x9e, 0xf5, 0x97, 0xbc, 0x5e,
  0xed, 0xca, 0xf2, 0x08, 0x2e, 0x69, 0x3f, 0xa8, 0xef, 0x31, 0x12, 0xdc,
  0xa4, 0x1a, 0x4b, 0xb1, 0xad, 0x01, 0x27, 0x6f, 0x48, 0x4e, 0x0f, 0xe3,
  0x3d, 0x37, 0x14, 0x51, 0xf9, 0xef, 0x1d, 0xf3, 0xc0, 0x14, 0x28, 0x43,
  0xb9, 0x27, 0xd1, 0x0c, 0x57, 0x06, 0xf1, 0x8e, 0x1c, 0xd9, 0xf7, 0x2c,
  0xe9, 0xfe, 0x00, 0x0d, 0xdc, 0xc9, 0x92, 0x43, 0x58, 0xd7, 0xb3, 0x30,
  0x4f, 0x95, 0xb3, 0x5d, 0xf6, 0xd4, 0xdf, 0xc7, 0x6a, 0x7f, 0x30, 0x97,
  0x0f, 0x3c, 0x2a, 0x13, 0xc9, 0x17, 0x58, 0xaa, 0x99, 0x0e, 0x3d, 0x71,
  0x04, 0x63, 0x0f, 0xdc, 0x51, 0x34, 0x20, 0x08, 0x59, 0xed, 0x12, 0xf1,
  0xbd, 0x17, 0x3e, 0xb7, 0x17, 0x14, 0xc1, 0x0f, 0x6d, 0x24, 0xef, 0x58,
  0xf7, 0xbb, 0xf7, 0x18, 0xe8, 0x09, 0x1f, 0xf7, 0x16, 0xd5, 0x81, 0x2e,
  0x5b, 0xee, 0xb9, 0xc9, 0xf6, 0x99, 0xc6, 0x37, 0x04, 0xca, 0xcc, 0xa3,
  0xa3, 0x78, 0x1f, 0x8d, 0xf2, 0x4b, 0x44, 0x29, 0xbb, 0x07, 0x35, 0x8f,
  0x91, 0x0b, 0x32, 0x0d, 0x01, 0x53, 0xff, 0xd0, 0x56, 0x4f, 0x4c, 0xee,
  0x08, 0xe1, 0x16, 0xc2, 0xd2, 0x09, 0x26, 0xfa, 0x2e, 0x17, 0xc8, 0xe3,
  0x6d, 0x2c, 0xfd, 0xc3, 0xc4, 0xc6, 0xe1, 0xed, 0xec, 0xeb, 0xec, 0x78,
  0x8f, 0xc5, 0xa4, 0x1a, 0x66, 0xec, 0xc4, 0xa8, 0x4f, 0x94, 0xc2, 0x1a,
  0xf7, 0xd4, 0xd4, 0xfe, 0xdf, 0x77, 0x0d, 0x91, 0xfe, 0x55, 0x54, 0xe4,
  0xd6, 0x0d, 0x2e, 0xa1, 0x95, 0x1e, 0x57, 0xe5, 0xe7, 0x65, 0xdc, 0xcd,
  0x58, 0x5a, 0x55, 0xed, 0xdc, 0xe4, 0xf7, 0xc6, 0xd2, 0x14, 0x5c, 0xbe,
  0xb0, 0x11, 0xae, 0xe9, 0x74, 0x47, 0x11, 0x83, 0x1a, 0xb1, 0xec, 0xee,
  0xe9, 0xfb, 0x2f, 0x10, 0xe6, 0xdc, 0x8f, 0x21, 0x7f, 0x18, 0xe1, 0xf4,
  0x21, 0xa0, 0xcb, 0x22, 0x15, 0xe2, 0xf4, 0xaf, 0x08, 0x6a, 0xf8, 0xa1,
  0xf7, 0x7f, 0x6b, 0xb8, 0xa1, 0x0d, 0x06, 0x81, 0x9d, 0x3a, 0x78, 0x03,
  0xf0, 0x60, 0xe9, 0xc8, 0x53, 0x78, 0x7f, 0x2a, 0xcd, 0xd5, 0xd8, 0x95,
  0xc7, 0x15, 0x57, 0xa7, 0xfe, 0x21, 0xa7, 0xd7, 0x7a, 0x42, 0x47, 0x98,
  0xff, 0xbd, 0xbd, 0xbe, 0xed, 0x03, 0x27, 0xf2, 0xfe, 0xd2, 0x92, 0x1a,
  0x79, 0x21, 0x12, 0xc0, 0x4d, 0x9e, 0xd5, 0x01, 0xf5, 0x05, 0x01, 0x1b,
  0x66, 0xf9, 0xff, 0xff, 0x04, 0x00, 0x00, 0x00, 0x10, 0x00, 0x00, 0x00,
  0xff, 0xff, 0xff, 0xff, 0x31, 0x00, 0x00, 0x00, 0x28, 0x00, 0x00, 0x00,
  0x01, 0x00, 0x00, 0x00, 0xc8, 0xf5, 0xff, 0xff, 0xcc, 0xf5, 0xff, 0xff,
  0xd0, 0xf5, 0xff, 0xff, 0x8e, 0xf9, 0xff, 0xff, 0x04, 0x00, 0x00, 0x00,
  0x20, 0x00, 0x00, 0x00, 0x0b, 0x00, 0x00, 0x00, 0x11, 0xff, 0xff, 0xff,
  0x98, 0xff, 0xff, 0xff, 0x00, 0x00, 0x00, 0x00, 0x94, 0xff, 0xff, 0xff,
  0xc7, 0xff, 0xff, 0xff, 0x0b, 0x00, 0x00, 0x00, 0x05, 0x00, 0x00, 0x00,
  0xba, 0xf9, 0xff, 0xff, 0x04, 0x00, 0x00, 0x00, 0x80, 0x04, 0x00, 0x00,
  0xfe, 0x0e, 0xee, 0x02, 0x02, 0x11, 0xee, 0x03, 0xfc, 0x01, 0xf5, 0xfa,
  0xe6, 0xf9, 0x02, 0xfd, 0xf6, 0xf7, 0x02, 0xf0, 0x05, 0x19, 0xf9, 0x03,
  0xfa, 0x01, 0xf8, 0xfa, 0xfc, 0xf1, 0xf9, 0xfa, 0xf4, 0x04, 0x0f, 0x05,
  0x05, 0x16, 0x05, 0x05, 0x09, 0xf8, 0xfd, 0x14, 0x04, 0xfc, 0x0f, 0x07,
  0xa5, 0xd2, 0xd3, 0xe9, 0x94, 0x1e, 0xbb, 0x33, 0xbe, 0x04, 0xea, 0xcf,
  0xc4, 0xd2, 0xc3, 0xca, 0xc7, 0x03, 0xff, 0xf4, 0xcd, 0x22, 0xe1, 0xfa,
  0xde, 0x04, 0xdb, 0xfd, 0xe3, 0xe0, 0xf0, 0xe6, 0xf0, 0x0c, 0x04, 0x11,
  0xf0, 0x15, 0x08, 0x0b, 0xf4, 0x00, 0xf7, 0x05, 0x03, 0x04, 0x04, 0x05,
  0x81, 0xd3, 0xcd, 0xee, 0x83, 0x35, 0x89, 0x56, 0x87, 0xf6, 0xd5, 0xd0,
  0xb4, 0xc6, 0xc0, 0xa1, 0xc3, 0xfe, 0xf5, 0xc9, 0xc3, 0x09, 0xc6, 0xe3,
  0xd8, 0xfb, 0xd4, 0xf0, 0xdc, 0xc7, 0xe6, 0xda, 0xe3, 0xf5, 0x00, 0x08,
  0xda, 0x08, 0x08, 0x01, 0xf0, 0x06, 0xe5, 0xfa, 0x00, 0xf4, 0x00, 0x0a,
  0xef, 0x32, 0xdb, 0x6e, 0x1a, 0x6a, 0xc0, 0x64, 0x92, 0x07, 0xd1, 0x39,
  0x51, 0x57, 0xd0, 0xe6, 0xc5, 0x09, 0xfe, 0x2b, 0xf2, 0x19, 0xda, 0x20,
  0xbe, 0xfc, 0xc0, 0x1b, 0x23, 0x14, 0xe1, 0xf4, 0x00, 0xfe, 0x0d, 0x0e,
  0xeb, 0x05, 0x0d, 0x0a, 0xf1, 0x02, 0xdb, 0x06, 0x0e, 0x0c, 0x05, 0x0f,
  0xfd, 0x00, 0xfa, 0xfe, 0x00, 0xea, 0x05, 0xfc, 0xf9, 0xfd, 0xff, 0xfb,
  0xff, 0xf8, 0x08, 0xfb, 0x01, 0x01, 0x06, 0xf5, 0xf9, 0xf1, 0x02, 0x06,
  0xf8, 0x01, 0xfe, 0xfc, 0xfd, 0xf7, 0x01, 0xf9, 0x05, 0xfa, 0x00, 0xf6,
  0x05, 0xed, 0xfc, 0xfc, 0xfe, 0xf9, 0xfd, 0xfa, 0xf8, 0xf6, 0xf5, 0xf7,
  0x09, 0xfc, 0x39, 0xfa, 0xf8, 0xe7, 0x1e, 0xf6, 0x0f, 0x05, 0xfd, 0x28,
  0x06, 0x04, 0x2d, 0x0c, 0x1f, 0x1a, 0x24, 0x0b, 0xfa, 0xf4, 0x08, 0x01,
  0x1b, 0x00, 0x24, 0x15, 0x12, 0x17, 0x1d, 0x0d, 0x05, 0x0f, 0xfc, 0xfa,
  0x16, 0xf8, 0x01, 0xf8, 0xfd, 0xf9, 0x1a, 0xfa, 0x04, 0x04, 0xff, 0xf9,
  0x0d, 0x2a, 0x3e, 0x01, 0x1b, 0x05, 0x26, 0x1b, 0x14, 0xf6, 0xe6, 0x36,
  0x06, 0x02, 0x37, 0x0d, 0x2c, 0x2b, 0x2e, 0x16, 0xfb, 0xf0, 0x13, 0x09,
  0x0f, 0xff, 0x32, 0x1a, 0x22, 0x1f, 0x22, 0x10, 0x15, 0x0b, 0xfd, 0x04,
  0x0e, 0xff, 0xfa, 0x03, 0x0d, 0x03, 0x19, 0xf9, 0x07, 0x11, 0x03, 0x05,
  0x06, 0x0c, 0x1b, 0xf8, 0x12, 0x15, 0x0a, 0x0e, 0x0b, 0xfe, 0xff, 0x0a,
  0xf9, 0x04, 0x25, 0x0c, 0x0b, 0x0f, 0x28, 0x06, 0xf1, 0xf9, 0x05, 0x07,
  0x0e, 0x04, 0x19, 0x12, 0xfc, 0xf8, 0x1d, 0x0a, 0x10, 0xff, 0x08, 0x01,
  0xf6, 0x07, 0xf4, 0x04, 0x07, 0x02, 0x0a, 0x02, 0xfc, 0xf9, 0xfb, 0xfd,
  0x10, 0x01, 0xf4, 0x0b, 0x05, 0x01, 0x07, 0xff, 0x00, 0x06, 0xfc, 0x07,
  0x30, 0x00, 0x08, 0x01, 0x00, 0xf9, 0x08, 0x03, 0xfe, 0x02, 0x05, 0xff,
  0x07, 0xf8, 0xed, 0x04, 0xf5, 0x09, 0x00, 0x0a, 0xf7, 0xf6, 0x06, 0xff,
  0xff, 0xff, 0xff, 0x01, 0x04, 0xf7, 0xf8, 0xfd, 0x00, 0x04, 0xf6, 0x00,
  0x21, 0xdf, 0x9c, 0x0c, 0x57, 0xf1, 0xfe, 0xde, 0x12, 0x0c, 0x17, 0xa7,
  0x26, 0x13, 0x9f, 0x0e, 0x32, 0xd0, 0x05, 0x27, 0xf8, 0x08, 0x03, 0x00,
  0x27, 0xff, 0xd5, 0xf7, 0x27, 0x33, 0xfd, 0x1b, 0x04, 0xcf, 0x01, 0x16,
  0xcd, 0x08, 0x07, 0xfe, 0x18, 0x05, 0xde, 0xf8, 0x13, 0x23, 0xf6, 0x09,
  0x22, 0xa6, 0xa3, 0x05, 0x4d, 0xe2, 0xee, 0xb6, 0x17, 0xf7, 0x0a, 0xa8,
  0x21, 0x19, 0x97, 0xfe, 0x3e, 0xe1, 0xee, 0x1e, 0xf0, 0xfb, 0x05, 0xea,
  0x17, 0x00, 0xd3, 0xef, 0x2e, 0x31, 0xec, 0x15, 0x1f, 0xe9, 0x03, 0x15,
  0xdf, 0x0a, 0x07, 0x0e, 0x1f, 0x09, 0xde, 0xfb, 0x15, 0x21, 0x01, 0x15,
  0x09, 0xcc, 0xea, 0xd1, 0x05, 0xc5, 0xfe, 0xc9, 0x0b, 0x06, 0x00, 0xcd,
  0xe2, 0xe5, 0xde, 0xf4, 0x12, 0xf0, 0xf5, 0xea, 0xfe, 0xf2, 0x08, 0xf0,
  0x19, 0xfe, 0xec, 0xe7, 0xf1, 0xf4, 0xfa, 0x00, 0x1d, 0x06, 0x13, 0x10,
  0x03, 0x07, 0x18, 0x0a, 0x25, 0x02, 0x06, 0x09, 0x0f, 0x16, 0x07, 0x1f,
  0xf3, 0xfc, 0x10, 0x04, 0xff, 0xf3, 0x06, 0xfc, 0xfe, 0x00, 0xf5, 0x09,
  0xf5, 0xf9, 0x10, 0xff, 0x03, 0xfe, 0x03, 0x23, 0xf5, 0xf9, 0x08, 0x04,
  0x15, 0xf7, 0xed, 0xfb, 0x19, 0x3c, 0xfe, 0x11, 0xfc, 0xf3, 0x02, 0xef,
  0xf5, 0xf5, 0xfd, 0xfb, 0xfc, 0x04, 0xf0, 0xfa, 0x09, 0xf6, 0xf3, 0xfa,
  0x0b, 0x26, 0x44, 0xf9, 0xd6, 0xec, 0x29, 0xfd, 0x11, 0x05, 0x07, 0x3c,
  0xfb, 0x03, 0x4a, 0x13, 0x52, 0x9f, 0xd2, 0x3c, 0x12, 0xfd, 0x02, 0xcd,
  0x31, 0x08, 0xc4, 0xb8, 0x49, 0x46, 0xb5, 0x23, 0xe6, 0xe6, 0xfd, 0xf2,
  0xda, 0x02, 0x02, 0xfa, 0xf9, 0xfb, 0xeb, 0xf9, 0xef, 0xfd, 0xfa, 0xf9,
  0x0b, 0x24, 0x3e, 0x03, 0xd7, 0xf4, 0x33, 0x03, 0x1e, 0x03, 0xf1, 0x37,
  0x01, 0x0f, 0x46, 0x22, 0x58, 0xae, 0xc7, 0x2e, 0x12, 0xf3, 0x08, 0xbf,
  0x23, 0x08, 0xc8, 0xc3, 0x44, 0x3f, 0xb3, 0x1d, 0x1f, 0xef, 0xfd, 0x06,
  0xd8, 0x0d, 0xfc, 0x02, 0x10, 0x0b, 0xf1, 0xf8, 0x0b, 0x14, 0xfe, 0x06,
  0x00, 0xfc, 0x12, 0xe7, 0xf2, 0xef, 0x1c, 0xfe, 0x19, 0x03, 0xf6, 0xfb,
  0xed, 0xef, 0x1a, 0x12, 0x25, 0xd7, 0xec, 0xed, 0x0c, 0xdf, 0x13, 0xe6,
  0x29, 0xfe, 0xd9, 0xc9, 0xee, 0xf6, 0xeb, 0xf3, 0x13, 0x09, 0x0e, 0x0e,
  0x00, 0x12, 0x0f, 0x0b, 0x16, 0x05, 0x11, 0x0a, 0x0c, 0x0b, 0x05, 0x14,
  0xf4, 0x05, 0xf5, 0x06, 0xfd, 0x0a, 0xea, 0xfc, 0xfe, 0x0c, 0xf8, 0x05,
  0xfa, 0xfd, 0xf9, 0xfd, 0xfe, 0xfd, 0x02, 0xed, 0x0b, 0x06, 0x00, 0x06,
  0xf9, 0x00, 0xfa, 0x03, 0xf5, 0xea, 0x06, 0xf8, 0xff, 0x1a, 0x0a, 0x00,
  0xf8, 0x06, 0x03, 0x06, 0x0b, 0x0e, 0x1d, 0x0c, 0x0c, 0x0a, 0x11, 0x02,
  0x13, 0xe9, 0xda, 0xfd, 0x26, 0x09, 0xe5, 0x00, 0x0d, 0xfa, 0xeb, 0xf5,
  0x18, 0x0c, 0xd8, 0xfe, 0xcb, 0x23, 0x1c, 0xf3, 0x02, 0xfd, 0x13, 0x25,
  0x00, 0x04, 0x23, 0x27, 0xd3, 0xea, 0x22, 0x18, 0xf2, 0x28, 0x01, 0xe9,
  0x4b, 0xf5, 0x07, 0xed, 0xf6, 0xf5, 0x32, 0x04, 0xd0, 0xe5, 0x0b, 0xf7,
  0x1b, 0xe6, 0xe9, 0x09, 0x2b, 0x09, 0xea, 0xe3, 0x17, 0xf3, 0x22, 0xf4,
  0x1c, 0x17, 0xe5, 0xf6, 0xdf, 0x2b, 0x1f, 0xfb, 0x06, 0x02, 0x1c, 0x48,
  0x11, 0xfe, 0x25, 0x24, 0xda, 0xef, 0x20, 0x16, 0xcf, 0x25, 0xfc, 0xcc,
  0x45, 0xec, 0xfa, 0xeb, 0xde, 0xf2, 0x33, 0xfe, 0xbb, 0xcb, 0x10, 0xe5,
  0x06, 0xeb, 0xf5, 0xe4, 0xfa, 0xe6, 0xff, 0xd8, 0x15, 0xfc, 0x17, 0xeb,
  0xfb, 0xec, 0x0a, 0xfc, 0x0a, 0x0c, 0x20, 0x12, 0xfb, 0x26, 0x11, 0x22,
  0x10, 0xfc, 0x1f, 0x1d, 0x0b, 0x09, 0x1e, 0x23, 0xc4, 0x07, 0xed, 0xd9,
  0x07, 0xe1, 0xde, 0xe8, 0xd0, 0xf8, 0x31, 0xf4, 0xdd, 0xce, 0xf3, 0xcd,
  0xf7, 0xf8, 0x02, 0x05, 0xfc, 0xf4, 0x15, 0x01, 0xfc, 0x08, 0xfb, 0xfd,
  0xfe, 0xfb, 0xfa, 0x01, 0xf7, 0x03, 0x04, 0xdf, 0x01, 0xfa, 0xf2, 0x00,
  0xeb, 0x02, 0x3c, 0x08, 0xef, 0xe6, 0x08, 0xdb, 0x03, 0xf9, 0x02, 0x08,
  0xfe, 0xf5, 0xfb, 0xfe, 0xfe, 0xf7, 0xf8, 0xfe, 0xfc, 0x07, 0xf9, 0xfa,
  0x1b, 0x15, 0x33, 0x02, 0x20, 0xef, 0x30, 0xee, 0x15, 0xff, 0xf8, 0x31,
  0x10, 0x0b, 0x38, 0x1a, 0xc3, 0x3d, 0xe8, 0xc6, 0x27, 0x06, 0xdd, 0x25,
  0xce, 0x01, 0x3f, 0x10, 0xb6, 0xc4, 0x20, 0xc4, 0x29, 0x00, 0xfb, 0x08,
  0xfd, 0x07, 0x00, 0x0d, 0xf2, 0x02, 0xf9, 0xfa, 0x1f, 0x0a, 0xfc, 0xf8,
  0x15, 0x4c, 0x33, 0x0d, 0x10, 0xf1, 0x37, 0xfc, 0x24, 0xfe, 0x14, 0x31,
  0x0d, 0x16, 0x39, 0x25, 0xb7, 0x39, 0xfb, 0xce, 0x27, 0xfc, 0xe7, 0x15,
  0xc5, 0xfc, 0x47, 0x1e, 0xb4, 0xbe, 0x25, 0xbc, 0x0d, 0x0b, 0xfd, 0x0a,
  0x00, 0x08, 0xfd, 0x0f, 0xf9, 0xff, 0x00, 0xfc, 0x0d, 0x08, 0x05, 0x00,
  0x07, 0x04, 0xfe, 0xdf, 0x02, 0xfa, 0x1d, 0xf5, 0x1f, 0x07, 0x15, 0x04,
  0xee, 0xf1, 0x1d, 0x1a, 0xf8, 0x10, 0xf7, 0xfd, 0x11, 0x07, 0xf3, 0x0b,
  0x01, 0x00, 0x37, 0x04, 0xfa, 0xf1, 0x01, 0xf2, 0xf9, 0x05, 0x03, 0xfe,
  0xee, 0x0f, 0xf8, 0x03, 0xf6, 0x0f, 0xe8, 0x02, 0x03, 0xf9, 0xfc, 0xfb,
  0x46, 0xfe, 0xff, 0xff, 0x04, 0x00, 0x00, 0x00, 0x18, 0x00, 0x00, 0x00,
  0x7a, 0x00, 0x00, 0x00, 0x8d, 0xfc, 0xff, 0xff, 0x8e, 0x00, 0x00, 0x00,
  0xab, 0xfe, 0xff, 0xff, 0xae, 0x02, 0x00, 0x00, 0x12, 0x01, 0x00, 0x00,
  0xb0, 0xfa, 0xff, 0xff, 0x0f, 0x00, 0x00, 0x00, 0x54, 0x4f, 0x43, 0x4f,
  0x20, 0x43, 0x6f, 0x6e, 0x76, 0x65, 0x72, 0x74, 0x65, 0x64, 0x2e, 0x00,
  0x01, 0x00, 0x00, 0x00, 0x04, 0x00, 0x00, 0x00, 0x38, 0xf9, 0xff, 0xff,
  0xb8, 0x01, 0x00, 0x00, 0xac, 0x01, 0x00, 0x00, 0xa0, 0x01, 0x00, 0x00,
  0x04, 0x00, 0x00, 0x00, 0x05, 0x00, 0x00, 0x00, 0x44, 0x01, 0x00, 0x00,
  0xdc, 0x00, 0x00, 0x00, 0x90, 0x00, 0x00, 0x00, 0x48, 0x00, 0x00, 0x00,
  0x04, 0x00, 0x00, 0x00, 0xce, 0xff, 0xff, 0xff, 0x00, 0x00, 0x00, 0x09,
  0x04, 0x00, 0x00, 0x00, 0x1c, 0x00, 0x00, 0x00, 0x10, 0x00, 0x00, 0x00,
  0x04, 0x00, 0x00, 0x00, 0xce, 0xfe, 0xff, 0xff, 0x00, 0x00, 0x80, 0x3f,
  0x01, 0x00, 0x00, 0x00, 0x0b, 0x00, 0x00, 0x00, 0x01, 0x00, 0x00, 0x00,
  0x08, 0x00, 0x00, 0x00, 0x00, 0x00, 0x0e, 0x00, 0x18, 0x00, 0x08, 0x00,
  0x0c, 0x00, 0x10, 0x00, 0x07, 0x00, 0x14, 0x00, 0x0e, 0x00, 0x00, 0x00,
  0x00, 0x00, 0x00, 0x08, 0x02, 0x00, 0x00, 0x00, 0x18, 0x00, 0x00, 0x00,
  0x0c, 0x00, 0x00, 0x00, 0x04, 0x00, 0x00, 0x00, 0x54, 0xfb, 0xff, 0xff,
  0x01, 0x00, 0x00, 0x00, 0x08, 0x00, 0x00, 0x00, 0x03, 0x00, 0x00, 0x00,
  0x04, 0x00, 0x00, 0x00, 0x09, 0x00, 0x00, 0x00, 0x02, 0x00, 0x00, 0x00,
  0x00, 0x00, 0x0e, 0x00, 0x14, 0x00, 0x00, 0x00, 0x08, 0x00, 0x0c, 0x00,
  0x07, 0x00, 0x10, 0x00, 0x0e, 0x00, 0x00, 0x00, 0x00, 0x00, 0x00, 0x01,
  0x30, 0x00, 0x00, 0x00, 0x24, 0x00, 0x00, 0x00, 0x10, 0x00, 0x00, 0x00,
  0x0c, 0x00, 0x10, 0x00, 0x00, 0x00, 0x08, 0x00, 0x0c, 0x00, 0x07, 0x00,
  0x0c, 0x00, 0x00, 0x00, 0x00, 0x00, 0x00, 0x01, 0x08, 0x00, 0x00, 0x00,
  0x08, 0x00, 0x00, 0x00, 0x01, 0x00, 0x00, 0x00, 0x04, 0x00, 0x00, 0x00,
  0x03, 0x00, 0x00, 0x00, 0x03, 0x00, 0x00, 0x00, 0x0c, 0x00, 0x00, 0x00,
  0x00, 0x00, 0x00, 0x00, 0xaa, 0xff, 0xff, 0xff, 0x00, 0x00, 0x00, 0x02,
  0x01, 0x00, 0x00, 0x00, 0x38, 0x00, 0x00, 0x00, 0x2c, 0x00, 0x00, 0x00,
  0x14, 0x00, 0x00, 0x00, 0x00, 0x00, 0x0e, 0x00, 0x14, 0x00, 0x00, 0x00,
  0x08, 0x00, 0x0c, 0x00, 0x10, 0x00, 0x07, 0x00, 0x0e, 0x00, 0x00, 0x00,
  0x00, 0x00, 0x00, 0x01, 0x02, 0x00, 0x00, 0x00, 0x02, 0x00, 0x00, 0x00,
  0x08, 0x00, 0x00, 0x00, 0x01, 0x00, 0x00, 0x00, 0x03, 0x00, 0x00, 0x00,
  0x03, 0x00, 0x00, 0x00, 0x06, 0x00, 0x00, 0x00, 0x0a, 0x00, 0x00, 0x00,
  0x01, 0x00, 0x00, 0x00, 0x00, 0x00, 0x0e, 0x00, 0x1a, 0x00, 0x08, 0x00,
  0x0c, 0x00, 0x10, 0x00, 0x07, 0x00, 0x14, 0x00, 0x0e, 0x00, 0x00, 0x00,
  0x00, 0x00, 0x00, 0x11, 0x03, 0x00, 0x00, 0x00, 0x38, 0x00, 0x00, 0x00,
  0x2c, 0x00, 0x00, 0x00, 0x0c, 0x00, 0x00, 0x00, 0x00, 0x00, 0x06, 0x00,
  0x08, 0x00, 0x04, 0x00, 0x06, 0x00, 0x00, 0x00, 0x04, 0x00, 0x00, 0x00,
  0x04, 0x00, 0x00, 0x00, 0xff, 0xff, 0xff, 0xff, 0x31, 0x00, 0x00, 0x00,
  0x28, 0x00, 0x00, 0x00, 0x01, 0x00, 0x00, 0x00, 0x01, 0x00, 0x00, 0x00,
  0x06, 0x00, 0x00, 0x00, 0x02, 0x00, 0x00, 0x00, 0x05, 0x00, 0x00, 0x00,
  0x07, 0x00, 0x00, 0x00, 0x01, 0x00, 0x00, 0x00, 0x0b, 0x00, 0x00, 0x00,
  0x01, 0x00, 0x00, 0x00, 0x05, 0x00, 0x00, 0x00, 0x0d, 0x00, 0x00, 0x00,
  0x70, 0x06, 0x00, 0x00, 0xb8, 0x05, 0x00, 0x00, 0x64, 0x05, 0x00, 0x00,
  0xe4, 0x04, 0x00, 0x00, 0x6c, 0x04, 0x00, 0x00, 0xf8, 0x03, 0x00, 0x00,
  0x7c, 0x03, 0x00, 0x00, 0x3c, 0x03, 0x00, 0x00, 0xcc, 0x02, 0x00, 0x00,
  0x60, 0x02, 0x00, 0x00, 0x8c, 0x01, 0x00, 0x00, 0x20, 0x01, 0x00, 0x00,
  0x04, 0x00, 0x00, 0x00, 0xd2, 0xf9, 0xff, 0xff, 0x00, 0x00, 0x00, 0x09,
  0xfc, 0x00, 0x00, 0x00, 0x0a, 0x00, 0x00, 0x00, 0xdc, 0x00, 0x00, 0x00,
  0x04, 0x00, 0x00, 0x00, 0xc4, 0xf9, 0xff, 0xff, 0x8c, 0x00, 0x00, 0x00,
  0x04, 0x00, 0x00, 0x00, 0x10, 0x00, 0x00, 0x00, 0x00, 0x00, 0x00, 0x00,
  0x00, 0x00, 0x00, 0x00, 0x00, 0x00, 0x00, 0x00, 0x00, 0x00, 0x00, 0x00,
  0x00, 0x00, 0x00, 0x00, 0x00, 0x00, 0x00, 0x00, 0x00, 0x00, 0x00, 0x00,
  0x00, 0x00, 0x00, 0x00, 0x00, 0x00, 0x00, 0x00, 0x00, 0x00, 0x00, 0x00,
  0x00, 0x00, 0x00, 0x00, 0x00, 0x00, 0x00, 0x00, 0x00, 0x00, 0x00, 0x00,
  0x00, 0x00, 0x00, 0x00, 0x00, 0x00, 0x00, 0x00, 0x00, 0x00, 0x00, 0x00,
  0x00, 0x00, 0x00, 0x00, 0x00, 0x00, 0x00, 0x00, 0x00, 0x00, 0x00, 0x00,
  0x00, 0x00, 0x00, 0x00, 0x00, 0x00, 0x00, 0x00, 0x00, 0x00, 0x00, 0x00,
  0x00, 0x00, 0x00, 0x00, 0x00, 0x00, 0x00, 0x00, 0x00, 0x00, 0x00, 0x00,
  0x00, 0x00, 0x00, 0x00, 0x00, 0x00, 0x00, 0x00, 0x00, 0x00, 0x00, 0x00,
  0x00, 0x00, 0x00, 0x00, 0x00, 0x00, 0x00, 0x00, 0x00, 0x00, 0x00, 0x00,
  0x00, 0x00, 0x00, 0x00, 0x10, 0x00, 0x00, 0x00, 0x48, 0x49, 0xda, 0x39,
  0x50, 0xb3, 0xd9, 0x39, 0x0b, 0x8c, 0xe5, 0x39, 0x97, 0xd3, 0xe0, 0x39,
  0x8a, 0x9c, 0xda, 0x39, 0x8d, 0x1a, 0x8c, 0x39, 0x41, 0x88, 0xbd, 0x39,
  0x20, 0x89, 0xc4, 0x39, 0xf2, 0x7a, 0xd4, 0x39, 0xe7, 0xd7, 0x4b, 0x39,
  0x4d, 0xd3, 0x02, 0x3a, 0xad, 0x70, 0xc8, 0x39, 0xd0, 0x85, 0xf1, 0x39,
  0x68, 0x0a, 0xce, 0x39, 0xbd, 0x37, 0xc8, 0x39, 0x4d, 0x74, 0xce, 0x39,
  0x13, 0x00, 0x00, 0x00, 0x73, 0x65, 0x63, 0x6f, 0x6e, 0x64, 0x5f, 0x77,
  0x65, 0x69, 0x67, 0x68, 0x74, 0x73, 0x2f, 0x72, 0x65, 0x61, 0x64, 0x00,
  0x04, 0x00, 0x00, 0x00, 0x10, 0x00, 0x00, 0x00, 0x0a, 0x00, 0x00, 0x00,
  0x08, 0x00, 0x00, 0x00, 0x08, 0x00, 0x00, 0x00, 0xea, 0xfa, 0xff, 0xff,
  0x00, 0x00, 0x00, 0x09, 0x44, 0x00, 0x00, 0x00, 0x0b, 0x00, 0x00, 0x00,
  0x28, 0x00, 0x00, 0x00, 0x04, 0x00, 0x00, 0x00, 0xdc, 0xfa, 0xff, 0xff,
  0x14, 0x00, 0x00, 0x00, 0x04, 0x00, 0x00, 0x00, 0x01, 0x00, 0x00, 0x00,
  0x80, 0xff, 0xff, 0xff, 0xff, 0xff, 0xff, 0xff, 0x01, 0x00, 0x00, 0x00,
  0x00, 0x00, 0x80, 0x3b, 0x0e, 0x00, 0x00, 0x00, 0x6c, 0x61, 0x62, 0x65,
  0x6c, 0x73, 0x5f, 0x73, 0x6f, 0x66, 0x74, 0x6d, 0x61, 0x78, 0x00, 0x00,
  0x02, 0x00, 0x00, 0x00, 0x01, 0x00, 0x00, 0x00, 0x06, 0x00, 0x00, 0x00,
  0x00, 0x00, 0x0e, 0x00, 0x1a, 0x00, 0x08, 0x00, 0x07, 0x00, 0x0c, 0x00,
  0x10, 0x00, 0x14, 0x00, 0x0e, 0x00, 0x00, 0x00, 0x00, 0x00, 0x00, 0x09,
  0xb4, 0x00, 0x00, 0x00, 0x08, 0x00, 0x00, 0x00, 0x94, 0x00, 0x00, 0x00,
  0x18, 0x00, 0x00, 0x00, 0x00, 0x00, 0x12, 0x00, 0x10, 0x00, 0x00, 0x00,
  0x00, 0x00, 0x04, 0x00, 0x08, 0x00, 0x00, 0x00, 0x00, 0x00, 0x0c, 0x00,
  0x12, 0x00, 0x00, 0x00, 0x50, 0x00, 0x00, 0x00, 0x08, 0x00, 0x00, 0x00,
  0x03, 0x00, 0x00, 0x00, 0x08, 0x00, 0x00, 0x00, 0x00, 0x00, 0x00, 0x00,
  0x00, 0x00, 0x00, 0x00, 0x00, 0x00, 0x00, 0x00, 0x00, 0x00, 0x00, 0x00,
  0x00, 0x00, 0x00, 0x00, 0x00, 0x00, 0x00, 0x00, 0x00, 0x00, 0x00, 0x00,
  0x00, 0x00, 0x00, 0x00, 0x00, 0x00, 0x00, 0x00, 0x00, 0x00, 0x00, 0x00,
  0x00, 0x00, 0x00, 0x00, 0x00, 0x00, 0x00, 0x00, 0x00, 0x00, 0x00, 0x00,
  0x00, 0x00, 0x00, 0x00, 0x00, 0x00, 0x00, 0x00, 0x00, 0x00, 0x00, 0x00,
  0x08, 0x00, 0x00, 0x00, 0xa8, 0xac, 0x47, 0x39, 0x81, 0x27, 0x83, 0x3a,
  0xbd, 0xf6, 0x5f, 0x3a, 0xe9, 0x3b, 0x43, 0x3a, 0xe6, 0xe8, 0x7b, 0x3a,
  0x0f, 0x41, 0x43, 0x3a, 0x2a, 0xe6, 0x37, 0x3a, 0xb7, 0x62, 0x24, 0x39,
  0x12, 0x00, 0x00, 0x00, 0x66, 0x69, 0x72, 0x73, 0x74, 0x5f, 0x77, 0x65,
  0x69, 0x67, 0x68, 0x74, 0x73, 0x2f, 0x72, 0x65, 0x61, 0x64, 0x00, 0x00,
  0x04, 0x00, 0x00, 0x00, 0x01, 0x00, 0x00, 0x00, 0x0a, 0x00, 0x00, 0x00,
  0x08, 0x00, 0x00, 0x00, 0x08, 0x00, 0x00, 0x00, 0x22, 0xfc, 0xff, 0xff,
  0x00, 0x00, 0x00, 0x09, 0x54, 0x00, 0x00, 0x00, 0x02, 0x00, 0x00, 0x00,
  0x28, 0x00, 0x00, 0x00, 0x04, 0x00, 0x00, 0x00, 0x14, 0xfc, 0xff, 0xff,
  0x14, 0x00, 0x00, 0x00, 0x04, 0x00, 0x00, 0x00, 0x01, 0x00, 0x00, 0x00,
  0x00, 0x00, 0x00, 0x00, 0x00, 0x00, 0x00, 0x00, 0x01, 0x00, 0x00, 0x00,
  0x8f, 0x5e, 0x9f, 0x3a, 0x1f, 0x00, 0x00, 0x00, 0x66, 0x69, 0x6e, 0x61,
  0x6c, 0x5f, 0x66, 0x63, 0x5f, 0x77, 0x65, 0x69, 0x67, 0x68, 0x74, 0x73,
  0x2f, 0x72, 0x65, 0x61, 0x64, 0x2f, 0x74, 0x72, 0x61, 0x6e, 0x73, 0x70,
  0x6f, 0x73, 0x65, 0x00, 0x02, 0x00, 0x00, 0x00, 0x06, 0x00, 0x00, 0x00,
  0xc0, 0x00, 0x00, 0x00, 0x8a, 0xfc, 0xff, 0xff, 0x00, 0x00, 0x00, 0x09,
  0x58, 0x00, 0x00, 0x00, 0x04, 0x00, 0x00, 0x00, 0x44, 0x00, 0x00, 0x00,
  0x04, 0x00, 0x00, 0x00, 0xfc, 0xfd, 0xff, 0xff, 0x30, 0x00, 0x00, 0x00,
  0x24, 0x00, 0x00, 0x00, 0x18, 0x00, 0x00, 0x00, 0x04, 0x00, 0x00, 0x00,
  0x01, 0x00, 0x00, 0x00, 0x05, 0x00, 0x00, 0x00, 0x00, 0x00, 0x00, 0x00,
  0x00, 0x00, 0x00, 0x00, 0x01, 0x00, 0x00, 0x00, 0xa9, 0x40, 0x8f, 0x3d,
  0x01, 0x00, 0x00, 0x00, 0x85, 0x7f, 0x08, 0x41, 0x01, 0x00, 0x00, 0x00,
  0x4a, 0xe3, 0x14, 0xc1, 0x05, 0x00, 0x00, 0x00, 0x61, 0x64, 0x64, 0x5f,
  0x32, 0x00, 0x00, 0x00, 0x02, 0x00, 0x00, 0x00, 0x01, 0x00, 0x00, 0x00,
  0x06, 0x00, 0x00, 0x00, 0xf6, 0xfc, 0xff, 0xff, 0x00, 0x00, 0x00, 0x02,
  0x2c, 0x00, 0x00, 0x00, 0x07, 0x00, 0x00, 0x00, 0x10, 0x00, 0x00, 0x00,
  0x08, 0x00, 0x00, 0x00, 0x04, 0x00, 0x04, 0x00, 0x04, 0x00, 0x00, 0x00,
  0x0f, 0x00, 0x00, 0x00, 0x52, 0x65, 0x73, 0x68, 0x61, 0x70, 0x65, 0x5f,
  0x32, 0x2f, 0x73, 0x68, 0x61, 0x70, 0x65, 0x00, 0x01, 0x00, 0x00, 0x00,
  0x04, 0x00, 0x00, 0x00, 0x32, 0xfd, 0xff, 0xff, 0x00, 0x00, 0x00, 0x09,
  0x5c, 0x00, 0x00, 0x00, 0x06, 0x00, 0x00, 0x00, 0x44, 0x00, 0x00, 0x00,
  0x04, 0x00, 0x00, 0x00, 0xa4, 0xfe, 0xff, 0xff, 0x30, 0x00, 0x00, 0x00,
  0x24, 0x00, 0x00, 0x00, 0x18, 0x00, 0x00, 0x00, 0x04, 0x00, 0x00, 0x00,
  0x01, 0x00, 0x00, 0x00, 0x80, 0xff, 0xff, 0xff, 0xff, 0xff, 0xff, 0xff,
  0x00, 0x00, 0x00, 0x00, 0x01, 0x00, 0x00, 0x00, 0x00, 0x00, 0xd0, 0x3d,
  0x01, 0x00, 0x00, 0x00, 0x00, 0x30, 0xcf, 0x41, 0x01, 0x00, 0x00, 0x00,
  0x00, 0x00, 0x00, 0x00, 0x09, 0x00, 0x00, 0x00, 0x52, 0x65, 0x73, 0x68,
  0x61, 0x70, 0x65, 0x5f, 0x32, 0x00, 0x00, 0x00, 0x04, 0x00, 0x00, 0x00,
  0x01, 0x00, 0x00, 0x00, 0x31, 0x00, 0x00, 0x00, 0x28, 0x00, 0x00, 0x00,
  0x01, 0x00, 0x00, 0x00, 0xaa, 0xfd, 0xff, 0xff, 0x00, 0x00, 0x00, 0x09,
  0x5c, 0x00, 0x00, 0x00, 0x0d, 0x00, 0x00, 0x00, 0x44, 0x00, 0x00, 0x00,
  0x04, 0x00, 0x00, 0x00, 0x1c, 0xff, 0xff, 0xff, 0x30, 0x00, 0x00, 0x00,
  0x24, 0x00, 0x00, 0x00, 0x18, 0x00, 0x00, 0x00, 0x04, 0x00, 0x00, 0x00,
  0x01, 0x00, 0x00, 0x00, 0x80, 0xff, 0xff, 0xff, 0xff, 0xff, 0xff, 0xff,
  0x00, 0x00, 0x00, 0x00, 0x01, 0x00, 0x00, 0x00, 0x00, 0x00, 0xd0, 0x3d,
  0x01, 0x00, 0x00, 0x00, 0x00, 0x30, 0xcf, 0x41, 0x01, 0x00, 0x00, 0x00,
  0x00, 0x00, 0x00, 0x00, 0x09, 0x00, 0x00, 0x00, 0x52, 0x65, 0x73, 0x68,
  0x61, 0x70, 0x65, 0x5f, 0x31, 0x00, 0x00, 0x00, 0x02, 0x00, 0x00, 0x00,
  0x01, 0x00, 0x00, 0x00, 0xa8, 0x07, 0x00, 0x00, 0x1a, 0xfe, 0xff, 0xff,
  0x00, 0x00, 0x00, 0x09, 0x58, 0x00, 0x00, 0x00, 0x05, 0x00, 0x00, 0x00,
  0x44, 0x00, 0x00, 0x00, 0x04, 0x00, 0x00, 0x00, 0x8c, 0xff, 0xff, 0xff,
  0x30, 0x00, 0x00, 0x00, 0x24, 0x00, 0x00, 0x00, 0x18, 0x00, 0x00, 0x00,
  0x04, 0x00, 0x00, 0x00, 0x01, 0x00, 0x00, 0x00, 0x80, 0xff, 0xff, 0xff,
  0xff, 0xff, 0xff, 0xff, 0x00, 0x00, 0x00, 0x00, 0x01, 0x00, 0x00, 0x00,
  0x74, 0xd3, 0xa2, 0x3d, 0x01, 0x00, 0x00, 0x00, 0xa1, 0x30, 0xa2, 0x41,
  0x01, 0x00, 0x00, 0x00, 0x00, 0x00, 0x00, 0x00, 0x06, 0x00, 0x00, 0x00,
  0x52, 0x65, 0x6c, 0x75, 0x5f, 0x31, 0x00, 0x00, 0x04, 0x00, 0x00, 0x00,
  0x01, 0x00, 0x00, 0x00, 0x04, 0x00, 0x00, 0x00, 0x03, 0x00, 0x00, 0x00,
  0x10, 0x00, 0x00, 0x00, 0x8e, 0xfe, 0xff, 0xff, 0x00, 0x00, 0x00, 0x09,
  0x60, 0x00, 0x00, 0x00, 0x09, 0x00, 0x00, 0x00, 0x4c, 0x00, 0x00, 0x00,
  0x10, 0x00, 0x00, 0x00, 0x0c, 0x00, 0x14, 0x00, 0x04, 0x00, 0x08, 0x00,
  0x0c, 0x00, 0x10, 0x00, 0x0c, 0x00, 0x00, 0x00, 0x2c, 0x00, 0x00, 0x00,
  0x20, 0x00, 0x00, 0x00, 0x14, 0x00, 0x00, 0x00, 0x04, 0x00, 0x00, 0x00,
  0x01, 0x00, 0x00, 0x00, 0x80, 0xff, 0xff, 0xff, 0xff, 0xff, 0xff, 0xff,
  0x01, 0x00, 0x00, 0x00, 0x8c, 0xac, 0x32, 0x3e, 0x01, 0x00, 0x00, 0x00,
  0xdf, 0xf9, 0x31, 0x42, 0x01, 0x00, 0x00, 0x00, 0x00, 0x00, 0x00, 0x00,
  0x04, 0x00, 0x00, 0x00, 0x52, 0x65, 0x6c, 0x75, 0x00, 0x00, 0x00, 0x00,
  0x04, 0x00, 0x00, 0x00, 0x01, 0x00, 0x00, 0x00, 0x19, 0x00, 0x00, 0x00,
  0x14, 0x00, 0x00, 0x00, 0x08, 0x00, 0x00, 0x00, 0x0a, 0xff, 0xff, 0xff,
  0x00, 0x00, 0x00, 0x02, 0x40, 0x00, 0x00, 0x00, 0x01, 0x00, 0x00, 0x00,
  0x28, 0x00, 0x00, 0x00, 0x04, 0x00, 0x00, 0x00, 0xfc, 0xfe, 0xff, 0xff,
  0x14, 0x00, 0x00, 0x00, 0x04, 0x00, 0x00, 0x00, 0x01, 0x00, 0x00, 0x00,
  0x00, 0x00, 0x00, 0x00, 0x00, 0x00, 0x00, 0x00, 0x01, 0x00, 0x00, 0x00,
  0xf3, 0xba, 0xca, 0x38, 0x0b, 0x00, 0x00, 0x00, 0x4d, 0x61, 0x74, 0x4d,
  0x75, 0x6c, 0x5f, 0x62, 0x69, 0x61, 0x73, 0x00, 0x01, 0x00, 0x00, 0x00,
  0x06, 0x00, 0x00, 0x00, 0x5a, 0xff, 0xff, 0xff, 0x00, 0x00, 0x00, 0x02,
  0x94, 0x00, 0x00, 0x00, 0x03, 0x00, 0x00, 0x00, 0x7c, 0x00, 0x00, 0x00,
  0x04, 0x00, 0x00, 0x00, 0x4c, 0xff, 0xff, 0xff, 0x4c, 0x00, 0x00, 0x00,
  0x04, 0x00, 0x00, 0x00, 0x08, 0x00, 0x00, 0x00, 0x00, 0x00, 0x00, 0x00,
  0x00, 0x00, 0x00, 0x00, 0x00, 0x00, 0x00, 0x00, 0x00, 0x00, 0x00, 0x00,
  0x00, 0x00, 0x00, 0x00, 0x00, 0x00, 0x00, 0x00, 0x00, 0x00, 0x00, 0x00,
  0x00, 0x00, 0x00, 0x00, 0x00, 0x00, 0x00, 0x00, 0x00, 0x00, 0x00, 0x00,
  0x00, 0x00, 0x00, 0x00, 0x00, 0x00, 0x00, 0x00, 0x00, 0x00, 0x00, 0x00,
  0x00, 0x00, 0x00, 0x00, 0x00, 0x00, 0x00, 0x00, 0x00, 0x00, 0x00, 0x00,
  0x08, 0x00, 0x00, 0x00, 0x48, 0x3c, 0xa2, 0x37, 0x32, 0x20, 0xd5, 0x38,
  0x7a, 0xf8, 0xb5, 0x38, 0xad, 0xa0, 0x9e, 0x38, 0x3b, 0xad, 0xcc, 0x38,
  0xdc, 0xa4, 0x9e, 0x38, 0x02, 0x6b, 0x95, 0x38, 0x35, 0x90, 0x85, 0x37,
  0x0b, 0x00, 0x00, 0x00, 0x43, 0x6f, 0x6e, 0x76, 0x32, 0x44, 0x5f, 0x62,
  0x69, 0x61, 0x73, 0x00, 0x01, 0x00, 0x00, 0x00, 0x08, 0x00, 0x00, 0x00,
  0x00, 0x00, 0x0e, 0x00, 0x18, 0x00, 0x08, 0x00, 0x07, 0x00, 0x0c, 0x00,
  0x10, 0x00, 0x14, 0x00, 0x0e, 0x00, 0x00, 0x00, 0x00, 0x00, 0x00, 0x02,
  0x04, 0x01, 0x00, 0x00, 0x0c, 0x00, 0x00, 0x00, 0xe8, 0x00, 0x00, 0x00,
  0x10, 0x00, 0x00, 0x00, 0x0c, 0x00, 0x0c, 0x00, 0x00, 0x00, 0x00, 0x00,
  0x04, 0x00, 0x08, 0x00, 0x0c, 0x00, 0x00, 0x00, 0x8c, 0x00, 0x00, 0x00,
  0x04, 0x00, 0x00, 0x00, 0x10, 0x00, 0x00, 0x00, 0x00, 0x00, 0x00, 0x00,
  0x00, 0x00, 0x00, 0x00, 0x00, 0x00, 0x00, 0x00, 0x00, 0x00, 0x00, 0x00,
  0x00, 0x00, 0x00, 0x00, 0x00, 0x00, 0x00, 0x00, 0x00, 0x00, 0x00, 0x00,
  0x00, 0x00, 0x00, 0x00, 0x00, 0x00, 0x00, 0x00, 0x00, 0x00, 0x00, 0x00,
  0x00, 0x00, 0x00, 0x00, 0x00, 0x00, 0x00, 0x00, 0x00, 0x00, 0x00, 0x00,
  0x00, 0x00, 0x00, 0x00, 0x00, 0x00, 0x00, 0x00, 0x00, 0x00, 0x00, 0x00,
  0x00, 0x00, 0x00, 0x00, 0x00, 0x00, 0x00, 0x00, 0x00, 0x00, 0x00, 0x00,
  0x00, 0x00, 0x00, 0x00, 0x00, 0x00, 0x00, 0x00, 0x00, 0x00, 0x00, 0x00,
  0x00, 0x00, 0x00, 0x00, 0x00, 0x00, 0x00, 0x00, 0x00, 0x00, 0x00, 0x00,
  0x00, 0x00, 0x00, 0x00, 0x00, 0x00, 0x00, 0x00, 0x00, 0x00, 0x00, 0x00,
  0x00, 0x00, 0x00, 0x00, 0x00, 0x00, 0x00, 0x00, 0x00, 0x00, 0x00, 0x00,
  0x00, 0x00, 0x00, 0x00, 0x10, 0x00, 0x00, 0x00, 0x15, 0x5a, 0x98, 0x38,
  0x69, 0xf1, 0x97, 0x38, 0x17, 0x36, 0xa0, 0x38, 0xa8, 0xea, 0x9c, 0x38,
  0x31, 0x94, 0x98, 0x38, 0xc9, 0x91, 0x43, 0x38, 0x7c, 0x48, 0x84, 0x38,
  0xd0, 0x2b, 0x89, 0x38, 0xb3, 0x4c, 0x94, 0x38, 0x83, 0x45, 0x0e, 0x38,
  0x32, 0x9e, 0xb6, 0x38, 0x72, 0xe5, 0x8b, 0x38, 0xd5, 0x91, 0xa8, 0x38,
  0x1c, 0xce, 0x8f, 0x38, 0xb4, 0xbd, 0x8b, 0x38, 0x05, 0x18, 0x90, 0x38,
  0x0d, 0x00, 0x00, 0x00, 0x43, 0x6f, 0x6e, 0x76, 0x32, 0x44, 0x5f, 0x31,
  0x5f, 0x62, 0x69, 0x61, 0x73, 0x00, 0x00, 0x00, 0x01, 0x00, 0x00, 0x00,
  0x10, 0x00, 0x00, 0x00, 0x05, 0x00, 0x00, 0x00, 0x60, 0x00, 0x00, 0x00,
  0x44, 0x00, 0x00, 0x00, 0x28, 0x00, 0x00, 0x00, 0x1c, 0x00, 0x00, 0x00,
  0x04, 0x00, 0x00, 0x00, 0xd6, 0xff, 0xff, 0xff, 0x00, 0x00, 0x00, 0x19,
  0x02, 0x00, 0x00, 0x00, 0x00, 0x00, 0x06, 0x00, 0x08, 0x00, 0x07, 0x00,
  0x06, 0x00, 0x00, 0x00, 0x00, 0x00, 0x00, 0x16, 0xf2, 0xff, 0xff, 0xff,
  0x00, 0x00, 0x00, 0x09, 0x04, 0x00, 0x00, 0x00, 0x00, 0x00, 0x0a, 0x00,
  0x0e, 0x00, 0x07, 0x00, 0x00, 0x00, 0x08, 0x00, 0x0a, 0x00, 0x00, 0x00,
  0x00, 0x00, 0x00, 0x04, 0x03, 0x00, 0x00, 0x00, 0x00, 0x00, 0x0a, 0x00,
  0x0c, 0x00, 0x07, 0x00, 0x00, 0x00, 0x08, 0x00, 0x0a, 0x00, 0x00, 0x00,
  0x00, 0x00, 0x00, 0x03, 0x03, 0x00, 0x00, 0x00
};
unsigned int g_model_len = 14984;
