unsigned char g_model[] = {
  0x20, 0x00, 0x00, 0x00, 0x54, 0x46, 0x4c, 0x33, 0x00, 0x00, 0x00, 0x00,
  0x00, 0x00, 0x12, 0x00, 0x1c, 0x00, 0x04, 0x00, 0x08, 0x00, 0x0c, 0x00,
  0x10, 0x00, 0x14, 0x00, 0x00, 0x00, 0x18, 0x00, 0x12, 0x00, 0x00, 0x00,
  0x03, 0x00, 0x00, 0x00, 0x30, 0x37, 0x00, 0x00, 0x7c, 0x2c, 0x00, 0x00,
  0x64, 0x2c, 0x00, 0x00, 0x3c, 0x00, 0x00, 0x00, 0x04, 0x00, 0x00, 0x00,
  0x01, 0x00, 0x00, 0x00, 0x0c, 0x00, 0x00, 0x00, 0x08, 0x00, 0x0c, 0x00,
  0x04, 0x00, 0x08, 0x00, 0x08, 0x00, 0x00, 0x00, 0x08, 0x00, 0x00, 0x00,
  0x11, 0x00, 0x00, 0x00, 0x13, 0x00, 0x00, 0x00, 0x6d, 0x69, 0x6e, 0x5f,
  0x72, 0x75, 0x6e, 0x74, 0x69, 0x6d, 0x65, 0x5f, 0x76, 0x65, 0x72, 0x73,
  0x69, 0x6f, 0x6e, 0x00, 0x12, 0x00, 0x00, 0x00, 0x1c, 0x2c, 0x00, 0x00,
  0xec, 0x2b, 0x00, 0x00, 0xdc, 0x17, 0x00, 0x00, 0xac, 0x17, 0x00, 0x00,
  0x9c, 0x03, 0x00, 0x00, 0x94, 0x03, 0x00, 0x00, 0x8c, 0x03, 0x00, 0x00,
  0x4c, 0x03, 0x00, 0x00, 0x1c, 0x03, 0x00, 0x00, 0x14, 0x03, 0x00, 0x00,
  0xf4, 0x02, 0x00, 0x00, 0xec, 0x02, 0x00, 0x00, 0xe4, 0x02, 0x00, 0x00,
  0xbc, 0x02, 0x00, 0x00, 0x2c, 0x00, 0x00, 0x00, 0x24, 0x00, 0x00, 0x00,
  0x1c, 0x00, 0x00, 0x00, 0x04, 0x00, 0x00, 0x00, 0x56, 0xd2, 0xff, 0xff,
  0x04, 0x00, 0x00, 0x00, 0x05, 0x00, 0x00, 0x00, 0x31, 0x2e, 0x35, 0x2e,
  0x30, 0x00, 0x00, 0x00, 0x4c, 0xce, 0xff, 0xff, 0x50, 0xce, 0xff, 0xff,
  0x72, 0xd2, 0xff, 0xff, 0x04, 0x00, 0x00, 0x00, 0x80, 0x02, 0x00, 0x00,
  0x45, 0x4e, 0x42, 0xe5, 0x60, 0xe3, 0x49, 0x22, 0x18, 0xe6, 0x0b, 0xd4,
  0x39, 0x31, 0x35, 0x21, 0x35, 0x90, 0x33, 0x2a, 0x1f, 0x00, 0xa2, 0x52,
  0x13, 0xe7, 0x2c, 0xce, 0x70, 0x0c, 0xf3, 0x4c, 0x0f, 0xfc, 0xe7, 0xbc,
  0x3d, 0x09, 0xc8, 0x11, 0x9b, 0x15, 0xe1, 0xd5, 0xe0, 0xc0, 0xb0, 0xc4,
  0x45, 0xf9, 0xdb, 0x07, 0x01, 0xd8, 0xec, 0xbb, 0xc7, 0x2e, 0x9a, 0x38,
  0x29, 0x09, 0x04, 0xd1, 0xe8, 0xfc, 0x0e, 0x1f, 0xba, 0xc1, 0x1d, 0xcd,
  0xba, 0x5d, 0x1d, 0x2c, 0x0c, 0xaa, 0xc6, 0xe1, 0x00, 0xab, 0xfc, 0x57,
  0x7f, 0xe4, 0x68, 0x3f, 0xc4, 0xf6, 0x8f, 0x3d, 0x45, 0x18, 0x6b, 0x4a,
  0x19, 0xfe, 0x12, 0xa2, 0xbd, 0xd6, 0xf4, 0xf4, 0xf6, 0x19, 0xdd, 0x47,
  0x14, 0xee, 0x4e, 0x65, 0x25, 0x24, 0xcc, 0xe4, 0x42, 0xfa, 0x58, 0x30,
  0x2b, 0x39, 0x13, 0xfb, 0xc8, 0xab, 0x1e, 0x7f, 0xb4, 0x09, 0xb0, 0x81,
  0x65, 0x29, 0xb7, 0x09, 0xbe, 0x97, 0x1f, 0x31, 0x33, 0x27, 0x7a, 0xfd,
  0xf6, 0x3e, 0xfe, 0x95, 0x17, 0xa5, 0xd0, 0x4b, 0x03, 0x66, 0xfe, 0x9d,
  0x6e, 0xfa, 0xcd, 0xdf, 0xf0, 0xd6, 0xee, 0x1b, 0xc7, 0xb3, 0x16, 0x2b,
  0x32, 0x7f, 0x18, 0xdd, 0xdb, 0x66, 0xf8, 0x2f, 0x86, 0x19, 0x14, 0xc7,
  0x0a, 0xe4, 0x2d, 0x00, 0x7f, 0xe4, 0x2c, 0xf8, 0x2d, 0xdd, 0x10, 0x60,
  0x96, 0xb4, 0x6c, 0xc5, 0xf6, 0x11, 0x18, 0xde, 0xf4, 0x93, 0xcf, 0x1c,
  0x22, 0xeb, 0x1f, 0x26, 0x52, 0x4d, 0xa2, 0x0b, 0x00, 0xd9, 0x55, 0x02,
  0xc1, 0x4d, 0xa9, 0xf2, 0xde, 0xea, 0xfe, 0xfc, 0xb2, 0xfd, 0xb8, 0xed,
  0x0f, 0xd1, 0xa3, 0x09, 0x1a, 0x48, 0xc1, 0x7d, 0x54, 0x19, 0x32, 0x05,
  0xeb, 0xc9, 0x14, 0x13, 0x8c, 0x81, 0x14, 0xda, 0x42, 0x6b, 0x16, 0x2f,
  0xf3, 0x85, 0x19, 0xd7, 0x36, 0xa2, 0x0a, 0xcd, 0x28, 0xf7, 0x50, 0x67,
  0x07, 0xd5, 0x16, 0x3b, 0x13, 0xc3, 0x09, 0xee, 0xd1, 0xbf, 0xf6, 0xe7,
  0xd0, 0xa1, 0x0d, 0x0a, 0x2e, 0x02, 0xb0, 0x2e, 0x0e, 0x62, 0xcb, 0x27,
  0x31, 0x3b, 0xb4, 0x06, 0x23, 0x01, 0xb6, 0x9c, 0xc8, 0xa5, 0xbc, 0xea,
  0x41, 0xd6, 0xe7, 0x4b, 0xf8, 0xfa, 0xcb, 0xb7, 0x67, 0xc5, 0xdd, 0xdb,
  0xe0, 0x88, 0x40, 0xc0, 0x33, 0xf3, 0x43, 0x16, 0xd4, 0x12, 0xaf, 0x48,
  0x88, 0xef, 0x11, 0xf6, 0xb4, 0xf0, 0x1b, 0x98, 0xf9, 0x97, 0x1b, 0x70,
  0x2e, 0xfd, 0x2d, 0x06, 0x2a, 0x1c, 0xb6, 0xc5, 0x00, 0xca, 0xe5, 0x1d,
  0xfc, 0xfe, 0xee, 0xca, 0xe2, 0x3b, 0x45, 0x8b, 0x4d, 0x38, 0x3c, 0x75,
  0xde, 0x5c, 0xd5, 0x08, 0xf8, 0xc8, 0xe8, 0x35, 0x1e, 0x46, 0x45, 0x84,
  0xb8, 0xf8, 0xd6, 0x8c, 0xe5, 0xba, 0xe3, 0xec, 0x03, 0xc7, 0xb7, 0xee,
  0x37, 0x02, 0xad, 0xc7, 0xd3, 0x81, 0x3e, 0x1e, 0xb7, 0x2a, 0x04, 0x37,
  0x9b, 0xfc, 0xa7, 0x4f, 0x6d, 0xdb, 0x7e, 0x00, 0xbd, 0x11, 0x23, 0x2c,
  0x3d, 0xc1, 0x08, 0xe5, 0x0b, 0x04, 0x1f, 0x13, 0x37, 0xc6, 0x30, 0x1c,
  0x4f, 0x94, 0xd9, 0xb8, 0xa8, 0x0b, 0x1b, 0xbc, 0x1c, 0xf7, 0x7d, 0x2f,
  0xe3, 0x56, 0x5e, 0x9a, 0x59, 0xee, 0xe1, 0xd9, 0x16, 0xeb, 0x01, 0x51,
  0x4b, 0xd8, 0x01, 0xbf, 0xa8, 0x26, 0xe3, 0x4a, 0xc5, 0xcb, 0xde, 0xa7,
  0xdf, 0x4b, 0x55, 0x6e, 0xd1, 0x0a, 0x40, 0xdf, 0xe2, 0x04, 0x2f, 0xfd,
  0xcc, 0xeb, 0xe3, 0x2d, 0x31, 0x06, 0xef, 0xdc, 0xf9, 0xe6, 0x20, 0x8c,
  0xc3, 0xc3, 0x1d, 0x45, 0xb6, 0x5e, 0xf2, 0x7c, 0x07, 0x66, 0x2f, 0x3d,
  0xe9, 0x5d, 0x10, 0x40, 0x3c, 0x12, 0x2c, 0x2c, 0x0a, 0x03, 0xd1, 0x48,
  0xef, 0x1a, 0xbc, 0xee, 0x09, 0x16, 0x10, 0x23, 0x59, 0xea, 0x7f, 0xa3,
  0x0c, 0xab, 0x36, 0x43, 0xf7, 0x6f, 0x64, 0x2c, 0x02, 0x26, 0xd8, 0xe8,
  0x2b, 0x55, 0xdf, 0x46, 0xcd, 0x35, 0xde, 0x3a, 0x09, 0x53, 0xfd, 0x57,
  0xf5, 0x08, 0x0c, 0x77, 0x18, 0xbb, 0x6e, 0x31, 0xf5, 0x14, 0x12, 0x7f,
  0x0e, 0x49, 0x0d, 0x0f, 0xc7, 0xed, 0xef, 0x56, 0xfb, 0x32, 0xfa, 0xf0,
  0x74, 0x0d, 0x89, 0x1a, 0x66, 0x4b, 0x2d, 0xe9, 0xf6, 0x25, 0x4a, 0x01,
  0xc8, 0x93, 0x76, 0xa5, 0xdf, 0x4f, 0x09, 0x6d, 0x40, 0xc3, 0x19, 0xd5,
  0xc3, 0x34, 0xc2, 0x53, 0x28, 0x03, 0xc8, 0x3c, 0x88, 0xcd, 0x7f, 0x0e,
  0x4c, 0xc2, 0x98, 0x18, 0x41, 0xdf, 0xbc, 0xf7, 0xd3, 0x07, 0xff, 0xb7,
  0x03, 0x04, 0xcc, 0x60, 0xd5, 0xe3, 0x34, 0xd0, 0x55, 0xdf, 0xc3, 0x2d,
  0x61, 0xbd, 0x01, 0x13, 0x49, 0x02, 0x1a, 0x72, 0x12, 0x5a, 0xdd, 0xda,
  0x50, 0x65, 0xc4, 0xa5, 0xfe, 0xd4, 0xff, 0xff, 0x04, 0x00, 0x00, 0x00,
  0x18, 0x00, 0x00, 0x00, 0x2f, 0xf9, 0xff, 0xff, 0x61, 0xf0, 0xff, 0xff,
  0x96, 0xfd, 0xff, 0xff, 0xdd, 0x0c, 0x00, 0x00, 0x58, 0x0c, 0x00, 0x00,
  0xa6, 0xff, 0xff, 0xff, 0x04, 0xd1, 0xff, 0xff, 0x08, 0xd1, 0xff, 0xff,
  0x2a, 0xd5, 0xff, 0xff, 0x04, 0x00, 0x00, 0x00, 0x10, 0x00, 0x00, 0x00,
  0xff, 0xff, 0xff, 0xff, 0x31, 0x00, 0x00, 0x00, 0x28, 0x00, 0x00, 0x00,
  0x01, 0x00, 0x00, 0x00, 0x28, 0xd1, 0xff, 0xff, 0x4a, 0xd5, 0xff, 0xff,
  0x04, 0x00, 0x00, 0x00, 0x20, 0x00, 0x00, 0x00, 0x00, 0x00, 0x00, 0x00,
  0x00, 0x00, 0x00, 0x00, 0x00, 0x00, 0x00, 0x00, 0x00, 0x00, 0x00, 0x00,
  0x00, 0x00, 0x00, 0x00, 0x00, 0x00, 0x00, 0x00, 0x00, 0x00, 0x00, 0x00,
  0x00, 0x00, 0x00, 0x00, 0x76, 0xd5, 0xff, 0xff, 0x04, 0x00, 0x00, 0x00,
  0x30, 0x00, 0x00, 0x00, 0xf4, 0xfb, 0x42, 0xef, 0xf0, 0xfe, 0xfe, 0x28,
  0x46, 0x5e, 0x7b, 0x26, 0xef, 0xe8, 0xf2, 0x8f, 0x1e, 0x29, 0xec, 0x20,
  0x0e, 0xf2, 0x94, 0xe1, 0xb8, 0x10, 0x21, 0xfb, 0xe5, 0x4c, 0x3a, 0x11,
  0x66, 0xcc, 0xd6, 0x10, 0xe3, 0x1b, 0x81, 0x4e, 0x65, 0xf7, 0x0f, 0x07,
  0x6f, 0x07, 0x38, 0xf4, 0x94, 0xd1, 0xff, 0xff, 0x98, 0xd1, 0xff, 0xff,
  0xba, 0xd5, 0xff, 0xff, 0x04, 0x00, 0x00, 0x00, 0x00, 0x14, 0x00, 0x00,
  0x54, 0xe1, 0x2f, 0xf3, 0x68, 0x54, 0x17, 0xe8, 0x34, 0x1b, 0xde, 0xcb,
  0x48, 0x31, 0x27, 0xd8, 0xfa, 0xda, 0xdb, 0x01, 0xdf, 0x3c, 0x55, 0x06,
  0xf5, 0xef, 0xb7, 0x3a, 0x38, 0xea, 0x3a, 0x05, 0x5f, 0x7a, 0xcd, 0x0b,
  0xd8, 0x1b, 0xd8, 0x39, 0xeb, 0xc8, 0xea, 0xc5, 0xfe, 0x19, 0xde, 0xb1,
  0xe0, 0x37, 0x3f, 0x5f, 0x8b, 0x07, 0x86, 0x07, 0x12, 0x72, 0x45, 0xc1,
  0xf6, 0x0a, 0xf3, 0x33, 0x35, 0x20, 0x20, 0x13, 0x0b, 0x01, 0x57, 0xcb,
  0xf2, 0xd4, 0x90, 0xc0, 0x1c, 0x24, 0x47, 0x1a, 0x51, 0x1b, 0x6e, 0xf4,
  0xc7, 0x48, 0x3f, 0xd2, 0x26, 0x10, 0x1b, 0x21, 0xe6, 0xb1, 0xe7, 0xf5,
  0xfb, 0x18, 0xc4, 0xe6, 0x66, 0xbf, 0x34, 0x34, 0x92, 0x17, 0x28, 0x11,
  0xce, 0xbe, 0xe3, 0x44, 0x55, 0x73, 0xa4, 0x42, 0x83, 0x1f, 0xd6, 0xed,
  0x3f, 0x4a, 0x5e, 0xa4, 0xd4, 0x23, 0x6f, 0x1a, 0xd5, 0xd7, 0x6a, 0x1b,
  0x14, 0x72, 0x03, 0x73, 0xf8, 0x15, 0x4d, 0xc1, 0xf4, 0xbd, 0x34, 0x38,
  0xf5, 0xbc, 0x72, 0x97, 0x68, 0xc1, 0x5c, 0xc6, 0x25, 0x74, 0x0f, 0x15,
  0x0e, 0x6e, 0x20, 0x27, 0xe4, 0x1f, 0xbc, 0x31, 0xfc, 0xaa, 0x3a, 0xff,
  0x34, 0xc1, 0xf8, 0x9b, 0x19, 0x39, 0x48, 0x42, 0xeb, 0xa8, 0x0d, 0xbe,
  0x16, 0x0a, 0x68, 0x55, 0x4a, 0xc4, 0x1d, 0xff, 0x89, 0x62, 0xf4, 0xdb,
  0x22, 0xd3, 0x81, 0xfb, 0x49, 0x2d, 0x1a, 0xfa, 0xdf, 0x0a, 0xb0, 0xcf,
  0x57, 0xdc, 0x37, 0xc1, 0x0d, 0xfe, 0x1b, 0xf0, 0x14, 0x5c, 0x40, 0x3c,
  0x2a, 0x11, 0x1a, 0x35, 0xcf, 0x68, 0x16, 0x42, 0x10, 0x08, 0x3b, 0xee,
  0xdc, 0x4f, 0x0b, 0x45, 0xc7, 0x4a, 0x54, 0xc6, 0x23, 0x44, 0x55, 0x7a,
  0x1d, 0xe9, 0xbd, 0xef, 0xb2, 0x47, 0x4d, 0xf6, 0x50, 0xa7, 0xcb, 0xe3,
  0x2d, 0x51, 0xda, 0xd8, 0xef, 0xf0, 0xb8, 0xbd, 0xc8, 0xe7, 0x2d, 0x21,
  0xc7, 0xcd, 0xf2, 0xb1, 0xce, 0x05, 0x0d, 0xd3, 0x3d, 0x46, 0xcc, 0xfc,
  0xd4, 0x0f, 0x0a, 0x17, 0xfc, 0xb4, 0x33, 0xe3, 0xcf, 0x64, 0x7f, 0x06,
  0x05, 0xc3, 0x43, 0x4c, 0xad, 0xfd, 0xf6, 0x97, 0x15, 0xff, 0x3f, 0xeb,
  0x82, 0xd6, 0x3b, 0xbc, 0x46, 0x9d, 0x52, 0xa8, 0x71, 0x0a, 0xcf, 0x0d,
  0xfa, 0x25, 0x3f, 0x4c, 0xf2, 0xf5, 0xd0, 0x65, 0xbb, 0x3b, 0x27, 0xe3,
  0x14, 0x48, 0xf3, 0xd0, 0x4e, 0x66, 0x05, 0xfb, 0xe2, 0xc2, 0x5a, 0xe8,
  0x65, 0x0a, 0x02, 0x29, 0xea, 0x50, 0xf7, 0x19, 0xef, 0x1e, 0xfa, 0xe6,
  0xc8, 0x84, 0x12, 0x33, 0x04, 0x08, 0x9a, 0xf6, 0x3e, 0xd0, 0xbb, 0x25,
  0xea, 0xc8, 0xcf, 0x96, 0xdd, 0x13, 0x1c, 0x2b, 0xe5, 0x20, 0x1b, 0xd4,
  0x23, 0x23, 0x02, 0x2d, 0x62, 0xcd, 0xe1, 0xc9, 0x5d, 0xc6, 0xb5, 0x0f,
  0x06, 0xd8, 0xcc, 0x6b, 0xc6, 0x0e, 0x23, 0x0d, 0x0c, 0x5b, 0x3e, 0x8b,
  0xfd, 0xa2, 0x94, 0xe6, 0x2b, 0x26, 0x75, 0x1f, 0xcd, 0xaf, 0xcc, 0x1c,
  0x16, 0x0c, 0x25, 0x33, 0x0b, 0xb9, 0x0a, 0x22, 0x1a, 0xf4, 0xda, 0x17,
  0x0b, 0xdf, 0x27, 0x03, 0x2a, 0x2a, 0x47, 0x20, 0x09, 0xf0, 0x97, 0x10,
  0xb1, 0xb5, 0x16, 0xb6, 0x66, 0x30, 0x24, 0xe4, 0xec, 0x3e, 0xba, 0xf0,
  0xd8, 0xd2, 0xc3, 0x15, 0x30, 0x82, 0x8a, 0x42, 0xd7, 0x39, 0x07, 0x32,
  0x1e, 0x0e, 0x01, 0xe7, 0xf0, 0xd6, 0xed, 0x45, 0x7f, 0x6b, 0xcd, 0x77,
  0xc1, 0x2e, 0xd9, 0x2d, 0xb9, 0xcb, 0x2d, 0x1f, 0xd0, 0x6a, 0x20, 0xab,
  0x1f, 0xcf, 0xe5, 0xbe, 0x3a, 0x1f, 0x56, 0xfc, 0xfb, 0xe4, 0xd6, 0xf8,
  0xcd, 0x08, 0x2a, 0xb0, 0xea, 0xac, 0xa7, 0xf6, 0x49, 0x30, 0x69, 0x38,
  0xa8, 0xd8, 0xdf, 0x4a, 0x00, 0x54, 0xc8, 0xd6, 0xf2, 0x44, 0x2e, 0x3a,
  0x29, 0x98, 0x47, 0x0a, 0xd8, 0x15, 0xbf, 0xe5, 0x4f, 0xa7, 0xae, 0x0e,
  0x11, 0xce, 0x97, 0x0c, 0xfd, 0x09, 0x35, 0x07, 0xba, 0x4e, 0x0f, 0x1b,
  0xcb, 0x2f, 0x1d, 0x1e, 0x9c, 0xce, 0x3d, 0x67, 0x05, 0x60, 0x3b, 0x12,
  0xc0, 0x7a, 0x38, 0xe8, 0xb3, 0xca, 0xf2, 0xc0, 0xb3, 0x52, 0x7f, 0x1f,
  0x17, 0xd6, 0x0c, 0x3f, 0xd0, 0x05, 0x07, 0x55, 0xfc, 0xba, 0xcd, 0xa2,
  0xe4, 0xd2, 0x93, 0x73, 0xd9, 0xc8, 0xb2, 0xcf, 0x97, 0x24, 0x31, 0x11,
  0xe2, 0x6b, 0xc3, 0xd4, 0x4f, 0x0a, 0x0c, 0xee, 0x9d, 0x4b, 0xf9, 0x45,
  0x06, 0x11, 0x01, 0xb1, 0x10, 0xfc, 0xfc, 0x25, 0xd8, 0x48, 0x98, 0xe3,
  0x64, 0xaa, 0x59, 0x24, 0x5a, 0x10, 0x4f, 0xe2, 0xbe, 0xdb, 0xd9, 0xb1,
  0xff, 0xff, 0xed, 0x00, 0xcc, 0xfb, 0x61, 0xda, 0xa5, 0x18, 0x3e, 0x8b,
  0xee, 0xb1, 0xbf, 0x0d, 0x04, 0xcc, 0xe9, 0x14, 0xca, 0x11, 0xe5, 0xd4,
  0xc2, 0xd1, 0xed, 0x86, 0xdf, 0xe3, 0x37, 0x3b, 0x57, 0x0e, 0x24, 0xe9,
  0x08, 0xa4, 0x02, 0x54, 0x3a, 0x95, 0xa8, 0xd1, 0x10, 0x00, 0x8d, 0xa8,
  0x45, 0xfe, 0xe9, 0xd2, 0xf6, 0x21, 0xdf, 0xb6, 0x7d, 0xe4, 0x1d, 0x42,
  0x03, 0xea, 0xdb, 0xe8, 0x93, 0xf4, 0xf8, 0xee, 0x24, 0x54, 0x46, 0x35,
  0xc2, 0x09, 0xfb, 0xc1, 0xf4, 0x9a, 0x36, 0xca, 0x2b, 0xe9, 0x2d, 0x38,
  0xb3, 0xd6, 0x9d, 0x69, 0xc4, 0xf1, 0xd3, 0xc2, 0x04, 0xd3, 0x71, 0x99,
  0xf2, 0xfe, 0x21, 0x0f, 0x61, 0xc6, 0x4d, 0xd2, 0x35, 0x0b, 0x1e, 0x0b,
  0xd0, 0xf3, 0x0c, 0x97, 0xf0, 0x40, 0x44, 0x87, 0x17, 0xd3, 0x96, 0xe4,
  0x1e, 0x12, 0x01, 0x9b, 0x11, 0x7b, 0xdf, 0x5e, 0xf8, 0x98, 0xde, 0x06,
  0xfb, 0x30, 0x19, 0x95, 0xcf, 0xd4, 0x0d, 0x45, 0xf8, 0x15, 0xdc, 0x9e,
  0x54, 0x05, 0x2e, 0x3c, 0x21, 0xb0, 0x40, 0xca, 0xb8, 0x65, 0xf1, 0xe7,
  0x65, 0xd1, 0x8d, 0xdb, 0x05, 0x25, 0x85, 0xe9, 0x75, 0x02, 0x0b, 0xb4,
  0x13, 0xf3, 0xd2, 0xb5, 0x0b, 0xc7, 0x37, 0x2d, 0x1d, 0x16, 0xbb, 0x30,
  0x23, 0x5d, 0x0f, 0x11, 0xe4, 0x60, 0x37, 0x8c, 0x28, 0x36, 0xfa, 0x8f,
  0xf4, 0xb1, 0x2f, 0xf6, 0xd6, 0x54, 0xfc, 0x4f, 0x2b, 0x9a, 0x72, 0x51,
  0x9a, 0xe0, 0x13, 0x0b, 0xe8, 0xe6, 0xa6, 0xa8, 0x2e, 0x20, 0x59, 0xa8,
  0x27, 0xb5, 0x04, 0xb8, 0xb3, 0xa5, 0xda, 0x30, 0x63, 0xe4, 0xdb, 0x17,
  0x1b, 0xfc, 0xea, 0xcc, 0x7f, 0xfe, 0xeb, 0x6e, 0xad, 0x48, 0x09, 0x54,
  0xf4, 0xff, 0x47, 0xbc, 0x04, 0xe3, 0x47, 0xe4, 0x15, 0xe9, 0xf3, 0x1e,
  0x53, 0x42, 0xa3, 0xca, 0xcf, 0xf6, 0x44, 0x23, 0x3e, 0xdd, 0xf2, 0xd1,
  0x16, 0x19, 0xff, 0x51, 0x6d, 0x04, 0x6a, 0xe8, 0x46, 0xe2, 0xb7, 0xcc,
  0x32, 0xe1, 0xf6, 0x64, 0xf1, 0xf1, 0xe1, 0x46, 0x51, 0xce, 0xa9, 0xd4,
  0x17, 0x47, 0xbd, 0x29, 0x12, 0x25, 0x4f, 0x44, 0xb9, 0xd0, 0x3b, 0xc8,
  0xd4, 0xc1, 0x18, 0x18, 0xd9, 0xe5, 0x23, 0x27, 0x68, 0x32, 0xf3, 0xc9,
  0xd2, 0xa6, 0xb6, 0x04, 0x91, 0xf2, 0xfc, 0x07, 0x04, 0x16, 0xe0, 0xda,
  0x5a, 0xdb, 0x15, 0xd8, 0x2d, 0xd9, 0x4d, 0xec, 0x2f, 0x41, 0x20, 0xf4,
  0xc0, 0xf8, 0xd7, 0x47, 0xd7, 0x00, 0x09, 0x1e, 0xf4, 0xbd, 0x47, 0x05,
  0x0e, 0x5b, 0x52, 0xc2, 0x31, 0xc3, 0x62, 0xa5, 0x49, 0x95, 0xfc, 0x56,
  0x36, 0x20, 0xef, 0x17, 0x54, 0xe6, 0xe2, 0x9e, 0x21, 0xb8, 0x3d, 0x1c,
  0x92, 0x4d, 0xd6, 0x3a, 0x11, 0x42, 0x49, 0x61, 0xb6, 0xe3, 0x17, 0xbd,
  0xe1, 0xc2, 0xac, 0x6e, 0xe7, 0x55, 0x22, 0xd7, 0x5e, 0x0b, 0x0a, 0x31,
  0xa1, 0x00, 0xf3, 0x95, 0x1d, 0xe0, 0xb7, 0x06, 0x5d, 0xc8, 0xe4, 0xb4,
  0xeb, 0x02, 0x5c, 0xa4, 0x4b, 0x24, 0x02, 0x39, 0xe3, 0xe1, 0x2a, 0xe2,
  0x03, 0x33, 0x9a, 0x5c, 0x14, 0x9e, 0x30, 0xec, 0x08, 0xa9, 0x55, 0x24,
  0x50, 0x2a, 0xe8, 0xe8, 0xd1, 0xff, 0x67, 0xe3, 0xc6, 0xb5, 0x32, 0x42,
  0x25, 0xd3, 0x27, 0x70, 0xb0, 0xec, 0xe5, 0xfd, 0xa0, 0x6b, 0xae, 0xca,
  0x2d, 0xfd, 0xda, 0xd1, 0xe4, 0xad, 0xe5, 0xc2, 0xcc, 0xd2, 0xb4, 0x89,
  0xd7, 0x94, 0xea, 0x39, 0x2a, 0x97, 0xd9, 0xbf, 0xba, 0xd0, 0x40, 0x26,
  0xe7, 0xe2, 0xb5, 0x24, 0x9e, 0xf2, 0x32, 0xd6, 0xc3, 0x5c, 0xa7, 0x4d,
  0xd7, 0xb2, 0x2c, 0x5b, 0x0b, 0xf1, 0xf9, 0x29, 0x7a, 0x6f, 0x0c, 0xd8,
  0x0c, 0x10, 0x37, 0x8b, 0xfb, 0x11, 0x82, 0x58, 0x18, 0x2f, 0x9f, 0x06,
  0x54, 0xc5, 0x25, 0x18, 0x91, 0x53, 0x4f, 0x8e, 0x07, 0x02, 0x42, 0x24,
  0xd0, 0xed, 0xef, 0x9a, 0xd9, 0x59, 0x18, 0xaf, 0x2e, 0xc9, 0x6a, 0x52,
  0xc2, 0x24, 0x18, 0x1c, 0x23, 0x23, 0x05, 0xfc, 0x31, 0x42, 0xcf, 0x1e,
  0xeb, 0xad, 0xdd, 0xb1, 0xcd, 0x23, 0x50, 0x1c, 0xf0, 0x98, 0xdc, 0x21,
  0x04, 0xe6, 0xe6, 0x05, 0x28, 0x36, 0x5d, 0xd9, 0xf6, 0x3e, 0x1d, 0x57,
  0x33, 0xa0, 0x9a, 0xbc, 0x1a, 0xdd, 0x29, 0xbf, 0x07, 0xe0, 0x8b, 0xdb,
  0xea, 0x30, 0x23, 0x24, 0x1b, 0xed, 0x3f, 0xc0, 0xb0, 0xa0, 0x42, 0x22,
  0xc1, 0xc9, 0xcb, 0xbd, 0x0b, 0xe1, 0x98, 0x5c, 0xdb, 0x41, 0x0d, 0xe2,
  0xe6, 0x1b, 0xa0, 0x14, 0x3b, 0xfd, 0xde, 0x35, 0xe2, 0x05, 0x0d, 0xbb,
  0x16, 0xaa, 0xbb, 0x6e, 0x4f, 0xf0, 0xe3, 0x2a, 0x72, 0xe1, 0x56, 0x14,
  0x76, 0x5d, 0xf2, 0xbb, 0x12, 0x36, 0xd5, 0x28, 0x27, 0x23, 0xe4, 0xf6,
  0x5b, 0xa2, 0x69, 0x5d, 0x1e, 0x02, 0x3e, 0x89, 0xff, 0x31, 0xda, 0xbe,
  0x04, 0xf9, 0xf7, 0x46, 0xc8, 0xba, 0x17, 0x27, 0x68, 0xd4, 0x63, 0x15,
  0x23, 0x7e, 0xdb, 0x19, 0x29, 0x4d, 0x49, 0x4a, 0xd5, 0x03, 0xf1, 0x4f,
  0x35, 0x56, 0x2c, 0xb4, 0xe0, 0x30, 0x4f, 0x50, 0x14, 0x19, 0xce, 0x40,
  0x0d, 0x8a, 0x44, 0x40, 0xed, 0xdc, 0x3c, 0x48, 0x31, 0xf9, 0x25, 0x31,
  0x4f, 0x24, 0x23, 0x2b, 0xea, 0xf1, 0xc4, 0xcc, 0x62, 0xe1, 0xf0, 0x26,
  0xd7, 0x01, 0x24, 0x05, 0xe2, 0x43, 0xdb, 0x08, 0xd6, 0x0c, 0x45, 0xd0,
  0x2a, 0x12, 0xb4, 0x25, 0xd5, 0xbc, 0x03, 0x02, 0x4a, 0x58, 0x17, 0x42,
  0x11, 0xbc, 0x28, 0xc8, 0x29, 0xc0, 0x76, 0x24, 0x5b, 0x9b, 0xb7, 0xde,
  0x0f, 0x8b, 0xcc, 0xee, 0x14, 0xb3, 0xc4, 0xcd, 0xf0, 0xd5, 0xb5, 0x39,
  0xad, 0x20, 0x09, 0xed, 0x53, 0xcb, 0x3e, 0x10, 0x0b, 0xd9, 0xb8, 0xf7,
  0x0b, 0xc8, 0xcd, 0x97, 0x96, 0x29, 0x5a, 0xfd, 0xc8, 0xd3, 0xd2, 0x69,
  0x2a, 0x06, 0xf7, 0x67, 0x42, 0x73, 0xf2, 0xaa, 0x74, 0x91, 0xe0, 0xc1,
  0xd2, 0xc1, 0xd5, 0xfd, 0xe5, 0xab, 0xd5, 0x9a, 0xc9, 0xfa, 0x2a, 0x5d,
  0xc1, 0x2e, 0x5c, 0xf3, 0x0f, 0x03, 0xde, 0x02, 0x10, 0x9e, 0xeb, 0x0f,
  0x02, 0x59, 0x19, 0x36, 0x93, 0x04, 0xe0, 0xc7, 0xea, 0x2b, 0xf0, 0x0d,
  0xda, 0x40, 0x2e, 0x61, 0x9f, 0x2e, 0xc9, 0x06, 0xb2, 0x2d, 0xbf, 0x60,
  0x20, 0x1a, 0x04, 0x33, 0x1a, 0x15, 0xc2, 0xfb, 0xda, 0xaa, 0x28, 0xfd,
  0xf9, 0xda, 0xf6, 0x04, 0xb9, 0x33, 0x13, 0xcd, 0x0e, 0x05, 0x17, 0x11,
  0x1a, 0xc5, 0x05, 0x1d, 0xd4, 0xaa, 0x65, 0xa2, 0x00, 0xc4, 0x20, 0x60,
  0x0b, 0x92, 0xc5, 0xcb, 0xd2, 0x8c, 0xf2, 0x03, 0x1e, 0x26, 0x01, 0x03,
  0xd2, 0x7c, 0xf8, 0x52, 0x1f, 0x00, 0xad, 0xd0, 0x40, 0x0b, 0x51, 0x09,
  0x1b, 0x07, 0x07, 0xdc, 0xda, 0x20, 0x1a, 0xe5, 0xe9, 0x02, 0x04, 0x68,
  0xa0, 0xf8, 0x1b, 0x41, 0xe7, 0x20, 0x2c, 0xf7, 0xe5, 0x3e, 0xfd, 0xdf,
  0x4b, 0xd9, 0x3a, 0x2c, 0xbc, 0xf8, 0xcb, 0xe6, 0x07, 0xed, 0xf4, 0x39,
  0x08, 0xf2, 0xf5, 0x0d, 0xaa, 0xf8, 0x20, 0x59, 0x12, 0x34, 0x20, 0x43,
  0xab, 0xe5, 0x3f, 0x08, 0x1d, 0x0d, 0x2e, 0x2e, 0xe7, 0x04, 0x2e, 0x2f,
  0xb0, 0xe1, 0x45, 0xbf, 0xc4, 0xa5, 0x26, 0x44, 0x3d, 0xea, 0xf2, 0xca,
  0xbc, 0x29, 0xa7, 0x14, 0xd9, 0x30, 0xca, 0xdd, 0x50, 0xf2, 0x35, 0x3d,
  0xbc, 0x03, 0x53, 0xa4, 0xf7, 0x97, 0xca, 0xb3, 0xa5, 0xa1, 0xd0, 0x19,
  0xef, 0xfc, 0xf7, 0x9c, 0x69, 0x9f, 0x28, 0x3d, 0xba, 0x38, 0x2b, 0x00,
  0xd8, 0x4e, 0xea, 0x1f, 0x3e, 0x76, 0x4b, 0xf9, 0x3d, 0x37, 0xac, 0x11,
  0x5c, 0xf8, 0xe7, 0xfc, 0x07, 0xe3, 0xd8, 0xef, 0xae, 0x1a, 0x00, 0x28,
  0xf9, 0x97, 0x05, 0xe0, 0x19, 0xd4, 0x26, 0xe2, 0xf5, 0xed, 0xaf, 0x16,
  0x2b, 0xf6, 0x8a, 0x48, 0xb7, 0xa1, 0xc1, 0x00, 0xc8, 0xf0, 0xbe, 0x23,
  0x08, 0x27, 0xff, 0x1f, 0xd3, 0x2d, 0x0c, 0x1b, 0xf9, 0x18, 0x53, 0xd9,
  0x0c, 0x0e, 0xcb, 0x10, 0xe8, 0x56, 0x0e, 0xea, 0xd8, 0x70, 0xda, 0x16,
  0xa4, 0x5f, 0x8f, 0x3a, 0xee, 0x2e, 0x0d, 0xf6, 0x20, 0x57, 0xae, 0x11,
  0x07, 0xb3, 0xdf, 0xf8, 0x01, 0xd6, 0x43, 0x76, 0x0d, 0xf1, 0x14, 0xfc,
  0x57, 0x04, 0x11, 0xfd, 0xc6, 0xd7, 0xfb, 0x10, 0x01, 0xf4, 0xc2, 0x9d,
  0xd9, 0x0e, 0xd7, 0xea, 0x19, 0xe4, 0xb5, 0xe5, 0x38, 0xe0, 0xb8, 0xcc,
  0x20, 0xfd, 0x0f, 0xa0, 0x4d, 0x20, 0xc9, 0xe0, 0x1e, 0x46, 0x6d, 0xfc,
  0xcc, 0x35, 0xea, 0x0d, 0x74, 0xa8, 0x18, 0x43, 0x3d, 0x9c, 0x37, 0x4e,
  0xd2, 0xd0, 0x25, 0xec, 0x06, 0x15, 0x55, 0xd3, 0xf1, 0x07, 0x33, 0x8d,
  0xcf, 0xf8, 0xee, 0x27, 0xda, 0xc3, 0xa1, 0xba, 0x37, 0x57, 0x0d, 0xed,
  0x3d, 0xa0, 0xa5, 0x36, 0xf9, 0xe6, 0x99, 0xe7, 0x01, 0xe3, 0xee, 0x22,
  0xe5, 0xed, 0xf0, 0xf1, 0x1c, 0xde, 0xd1, 0x0e, 0xc2, 0xf6, 0x3c, 0xd3,
  0xf7, 0x03, 0xb3, 0x4c, 0x6e, 0x42, 0xc2, 0x2f, 0xf4, 0x52, 0x4d, 0xb7,
  0x1b, 0x81, 0xa2, 0x8b, 0xbc, 0x00, 0x14, 0xe1, 0x0d, 0xe8, 0x05, 0x22,
  0xb2, 0x1d, 0xca, 0x02, 0x21, 0x54, 0xe7, 0x10, 0xbf, 0xe1, 0x00, 0x3b,
  0xfb, 0x27, 0xf8, 0xbc, 0x0f, 0x5d, 0x85, 0xae, 0xdf, 0x96, 0x16, 0x70,
  0xed, 0x36, 0x37, 0x0b, 0x42, 0xf9, 0x28, 0x58, 0x40, 0xb6, 0x31, 0xc3,
  0x54, 0xf5, 0x31, 0x77, 0xbd, 0xbc, 0xef, 0x02, 0x31, 0x95, 0xdf, 0x77,
  0xfa, 0x0d, 0xab, 0xb1, 0x01, 0x5f, 0x23, 0x2c, 0x45, 0x3d, 0xd2, 0x30,
  0x25, 0xd2, 0xf2, 0x07, 0x60, 0x15, 0x3a, 0x1b, 0xa7, 0xad, 0xab, 0x18,
  0xe9, 0xd7, 0xbb, 0x27, 0xbf, 0x01, 0xee, 0x50, 0xea, 0x13, 0xa3, 0x14,
  0xc3, 0x04, 0xf8, 0x2f, 0x1c, 0xe1, 0xda, 0x04, 0x2b, 0x8c, 0x13, 0x03,
  0x94, 0xfd, 0x0e, 0x0d, 0x44, 0x3a, 0xc5, 0x79, 0xba, 0xc7, 0xa1, 0x08,
  0xfd, 0x72, 0xd7, 0xc5, 0x13, 0x25, 0xbf, 0xb5, 0x11, 0x21, 0x3a, 0x1e,
  0x8e, 0xb8, 0x19, 0xb2, 0xcd, 0xe6, 0x2d, 0x1d, 0x8e, 0x71, 0xfa, 0xee,
  0x4e, 0xcd, 0xe8, 0x99, 0xad, 0x1f, 0xfd, 0x2f, 0xe0, 0x4f, 0x3f, 0x38,
  0xfe, 0x91, 0x04, 0xfc, 0x4a, 0x38, 0xeb, 0xdf, 0xea, 0x09, 0xcd, 0xdc,
  0xb6, 0x31, 0x9b, 0x35, 0x36, 0xf0, 0x1b, 0xd1, 0x65, 0xfe, 0xf2, 0xb4,
  0xcd, 0x1c, 0xd5, 0xa7, 0x2b, 0x11, 0xeb, 0xee, 0xc9, 0x08, 0x1a, 0xde,
  0x22, 0xcf, 0xcd, 0xe4, 0x03, 0xec, 0x29, 0xd6, 0x1b, 0xcd, 0x35, 0x25,
  0xdb, 0xf9, 0xed, 0x11, 0x6f, 0x08, 0xd6, 0xcc, 0xd7, 0x2b, 0xfe, 0x20,
  0xc4, 0xad, 0xf5, 0xd4, 0x33, 0x3e, 0xdd, 0x7f, 0x30, 0x37, 0x48, 0xaf,
  0x57, 0x0c, 0x10, 0x05, 0xf4, 0xe2, 0x06, 0xf4, 0x94, 0x0e, 0xbe, 0x54,
  0xd1, 0xfe, 0x32, 0xd9, 0x3d, 0xd8, 0x73, 0xcf, 0x30, 0xa6, 0x99, 0xa0,
  0x97, 0x24, 0x33, 0xe8, 0xde, 0xe9, 0xba, 0xde, 0x69, 0x77, 0xc8, 0x3c,
  0xff, 0x12, 0x04, 0x1d, 0xd8, 0xc8, 0x4d, 0xed, 0x16, 0x55, 0x04, 0xf5,
  0xb2, 0x12, 0x32, 0xfa, 0x3e, 0xd1, 0xcc, 0xee, 0xce, 0x17, 0xf7, 0x01,
  0xfc, 0x7c, 0xd9, 0x0c, 0x32, 0x55, 0x4a, 0x2e, 0x34, 0x3c, 0x1e, 0x69,
  0x37, 0x4f, 0x49, 0x04, 0xa2, 0x34, 0x62, 0xe2, 0x1d, 0x4e, 0x46, 0x19,
  0xe9, 0xe6, 0x0d, 0x4d, 0xd2, 0x1b, 0xf9, 0x30, 0xa6, 0xf5, 0x9f, 0x37,
  0xb7, 0xeb, 0x32, 0x97, 0xe3, 0x27, 0x0c, 0x2d, 0xf0, 0xbc, 0x4d, 0xf8,
  0x15, 0x4f, 0x4d, 0x2f, 0x12, 0x64, 0xd0, 0xdc, 0x23, 0x38, 0x12, 0x15,
  0x41, 0xf2, 0xf9, 0x2e, 0x07, 0xe5, 0xc9, 0x3a, 0xc3, 0x2a, 0x59, 0x32,
  0x19, 0xde, 0x08, 0xe3, 0x1d, 0x3a, 0xbd, 0x6e, 0x54, 0xd6, 0x06, 0x02,
  0x38, 0xf3, 0xd6, 0xd8, 0x22, 0x9f, 0xb3, 0x18, 0x58, 0x2c, 0x55, 0xf1,
  0x41, 0xe2, 0x3e, 0x46, 0x0b, 0xc7, 0x2e, 0xd0, 0x1a, 0x28, 0xb6, 0xc5,
  0xac, 0x35, 0xb3, 0xc1, 0xab, 0x0a, 0xbc, 0x3c, 0xae, 0xfd, 0x2b, 0xe8,
  0x06, 0x55, 0xc2, 0x4e, 0x03, 0xc6, 0xfc, 0xce, 0xec, 0x87, 0x4d, 0x22,
  0x3a, 0xe3, 0x00, 0xcf, 0x34, 0x14, 0x28, 0x0b, 0x7a, 0xb8, 0x31, 0x03,
  0x18, 0xd8, 0xd3, 0xcd, 0xd3, 0xff, 0x78, 0xec, 0x0e, 0x7e, 0x1a, 0x0e,
  0x2e, 0x24, 0xd3, 0xda, 0xa0, 0xf8, 0xcb, 0xc3, 0x5f, 0x01, 0x64, 0x14,
  0x30, 0xa4, 0x2d, 0x0a, 0x1b, 0x9e, 0x06, 0xf8, 0xd5, 0x20, 0x66, 0x1a,
  0xb4, 0xc9, 0xc5, 0x39, 0x63, 0xdf, 0x06, 0xfc, 0xf5, 0x14, 0x38, 0xe2,
  0x12, 0xff, 0x20, 0x9c, 0xff, 0x4a, 0xb1, 0xed, 0xfb, 0xc9, 0x90, 0xf6,
  0x0c, 0x46, 0x13, 0xc4, 0x31, 0xe1, 0xef, 0x56, 0x2b, 0x85, 0x14, 0x07,
  0x63, 0xe6, 0xc0, 0x10, 0xc1, 0x3c, 0x27, 0xfe, 0xf1, 0x01, 0x4a, 0x0d,
  0xf8, 0xf7, 0x0f, 0x2d, 0x08, 0xcb, 0x0f, 0x23, 0x33, 0xdd, 0xfc, 0xea,
  0xed, 0x63, 0x34, 0xeb, 0xfe, 0x85, 0x2b, 0xd2, 0x1b, 0x10, 0x2e, 0x76,
  0xab, 0x01, 0x16, 0xd8, 0x2c, 0x9f, 0x03, 0x0c, 0x1f, 0xb1, 0xf6, 0x49,
  0xa4, 0xfe, 0xd2, 0x0c, 0xe5, 0x75, 0x87, 0x98, 0x24, 0x2f, 0xfc, 0x7e,
  0xbe, 0xbd, 0x35, 0x1b, 0xc7, 0xe3, 0x57, 0x45, 0x98, 0xe0, 0x2f, 0x10,
  0x4a, 0x12, 0xac, 0xe1, 0x10, 0x40, 0x38, 0xe1, 0x16, 0xa6, 0xae, 0x0a,
  0x60, 0xcd, 0xf8, 0x15, 0x51, 0xeb, 0x32, 0x13, 0x23, 0x3c, 0xed, 0x3d,
  0x17, 0x17, 0xe2, 0x22, 0x0e, 0x1b, 0xfa, 0x5b, 0xf1, 0xc7, 0xd5, 0xb1,
  0xc4, 0x64, 0x2f, 0xc9, 0x13, 0x18, 0x2e, 0xb4, 0x08, 0x09, 0x3d, 0x46,
  0xb6, 0xbe, 0x04, 0xd2, 0x04, 0xd9, 0x08, 0x19, 0x76, 0xce, 0xd9, 0xb9,
  0x5a, 0xe2, 0x23, 0xf5, 0xe5, 0x78, 0x0f, 0x44, 0xe0, 0xdc, 0x28, 0x32,
  0x10, 0x48, 0xfe, 0x3a, 0xf8, 0xd0, 0x01, 0x40, 0x33, 0xdb, 0xf7, 0xd0,
  0xb0, 0xdb, 0x4f, 0xb2, 0x1e, 0x00, 0x9a, 0x19, 0x28, 0xff, 0x9c, 0x4c,
  0xe3, 0xbd, 0x89, 0xc8, 0xf4, 0xee, 0xec, 0x3e, 0x65, 0xce, 0xc1, 0x38,
  0xf4, 0xf0, 0x16, 0xf0, 0x3f, 0x48, 0x1f, 0x00, 0xfc, 0x42, 0xef, 0xc1,
  0xf6, 0xef, 0xef, 0x14, 0x28, 0x19, 0x73, 0x28, 0x16, 0x12, 0xa6, 0x3e,
  0xdc, 0x18, 0x0e, 0xf7, 0xea, 0x17, 0x2b, 0x16, 0x44, 0xf8, 0x57, 0x20,
  0x16, 0xbe, 0xf9, 0x10, 0xfb, 0xc9, 0xf1, 0x2c, 0x0e, 0xae, 0x0b, 0xe9,
  0x11, 0x08, 0xd0, 0xc6, 0x5d, 0x5f, 0x14, 0x18, 0xd2, 0x9d, 0xd6, 0x7d,
  0x03, 0x2b, 0xb3, 0x18, 0x12, 0x32, 0x94, 0x40, 0x3a, 0x27, 0xfd, 0x1b,
  0xfa, 0xe7, 0x22, 0xec, 0xe2, 0x55, 0xfc, 0xe4, 0xc7, 0x44, 0x5c, 0x4b,
  0xc9, 0x4e, 0x1d, 0xb0, 0x8b, 0x70, 0xc8, 0x35, 0x7b, 0xb8, 0x9d, 0xfe,
  0x86, 0x13, 0x35, 0x97, 0x17, 0xde, 0x59, 0xfe, 0xc6, 0x0d, 0x9f, 0x1e,
  0x09, 0xab, 0x12, 0x09, 0x4c, 0x6d, 0x1b, 0xf4, 0xf7, 0x73, 0x06, 0x42,
  0xff, 0xd3, 0x43, 0x33, 0xb0, 0xbe, 0xc5, 0x08, 0x42, 0x53, 0x3f, 0x15,
  0x06, 0xf6, 0x01, 0x41, 0xb2, 0xf9, 0xe1, 0xfd, 0x2c, 0x15, 0xc9, 0xef,
  0xcc, 0x1d, 0xfc, 0x10, 0x0a, 0xa5, 0xce, 0xf7, 0xed, 0x37, 0xf2, 0x54,
  0x0d, 0xf2, 0xc4, 0xbe, 0xec, 0x41, 0xad, 0x05, 0x68, 0xbf, 0xdc, 0x34,
  0xf4, 0x02, 0xb9, 0xf6, 0xc0, 0xe2, 0xbe, 0x21, 0xd4, 0x2b, 0x6d, 0x07,
  0xf5, 0x6e, 0xf6, 0x2f, 0x0b, 0x9a, 0xeb, 0xf0, 0x25, 0x29, 0x8e, 0x13,
  0x49, 0x02, 0x4e, 0xce, 0x83, 0xaf, 0x2e, 0x5c, 0xd5, 0xcf, 0xb8, 0xd7,
  0x8a, 0x4d, 0x03, 0x03, 0x91, 0xdd, 0x03, 0xf6, 0x27, 0xaa, 0x15, 0x24,
  0xc7, 0xd3, 0x0e, 0x6c, 0xb7, 0x48, 0x5d, 0xc5, 0xa0, 0x8a, 0x49, 0x43,
  0xf8, 0xfb, 0x82, 0x10, 0x15, 0x1d, 0xe6, 0xdd, 0x42, 0xf6, 0x6c, 0x06,
  0xc0, 0x09, 0xd5, 0x09, 0x2a, 0x42, 0x45, 0x7a, 0xd0, 0x63, 0xf5, 0xec,
  0xdf, 0x2b, 0x2b, 0xb6, 0xa9, 0x23, 0x09, 0x25, 0x39, 0x05, 0xe7, 0x03,
  0x78, 0xd6, 0x00, 0x39, 0x5a, 0x60, 0x29, 0x4f, 0x5a, 0x0f, 0xfe, 0x28,
  0x01, 0x3f, 0x64, 0x28, 0x86, 0xfb, 0x65, 0xde, 0x2e, 0xdc, 0x25, 0x09,
  0x59, 0xb5, 0xc2, 0xb5, 0x4c, 0x5f, 0xe8, 0xf5, 0x7a, 0x06, 0xcf, 0xb6,
  0x05, 0x82, 0xd0, 0xdb, 0x11, 0xc7, 0x41, 0x3f, 0xcc, 0xee, 0xba, 0x62,
  0x23, 0xf9, 0x13, 0x1b, 0x4b, 0xdd, 0xd5, 0xe5, 0xe3, 0x1d, 0xd7, 0x65,
  0xfb, 0xf1, 0x0f, 0xeb, 0xfe, 0xe1, 0xf6, 0xdf, 0x02, 0x3b, 0xb0, 0xe5,
  0xcc, 0x1e, 0x20, 0xd6, 0x05, 0x38, 0xd9, 0x0e, 0xee, 0x72, 0x18, 0x0a,
  0xe1, 0x20, 0x1b, 0xae, 0xef, 0xdb, 0x0e, 0xf9, 0xa9, 0xb7, 0x94, 0x11,
  0x04, 0xeb, 0xed, 0x21, 0x40, 0xed, 0xc7, 0xc7, 0xe3, 0x26, 0x0f, 0xc0,
  0x60, 0x1a, 0xd2, 0x4a, 0x05, 0xcf, 0x5b, 0x07, 0x37, 0x5a, 0x54, 0xf0,
  0x28, 0xc6, 0xd5, 0x43, 0x54, 0xe3, 0x24, 0xef, 0x13, 0x3f, 0xb0, 0x33,
  0x04, 0xd1, 0x81, 0xae, 0x01, 0x15, 0xe7, 0x0f, 0x31, 0xf5, 0xc9, 0x0a,
  0x0b, 0x1d, 0xa7, 0xb4, 0x2f, 0x24, 0x08, 0xca, 0x45, 0x46, 0x09, 0x10,
  0xe9, 0x6e, 0x66, 0xf1, 0x39, 0xed, 0x7d, 0xf0, 0x47, 0x31, 0x3d, 0x45,
  0x8f, 0x12, 0xba, 0x01, 0x2d, 0xae, 0xe6, 0xe4, 0xc4, 0xf9, 0xf8, 0xf6,
  0xe8, 0x2a, 0xea, 0x09, 0xd6, 0x9b, 0xae, 0x13, 0xce, 0xfc, 0xfa, 0x04,
  0xe9, 0xee, 0x63, 0x17, 0xed, 0x05, 0x6a, 0xb1, 0x4b, 0x16, 0xe9, 0xf9,
  0xd5, 0xc2, 0x87, 0x4d, 0xde, 0x38, 0xfc, 0xc4, 0xf5, 0x05, 0x2e, 0xfe,
  0x11, 0x8a, 0xd8, 0xed, 0xdb, 0xf5, 0xbe, 0xbc, 0x02, 0x4a, 0x4b, 0xe0,
  0x27, 0x63, 0xb1, 0xe5, 0xe6, 0x99, 0xbb, 0x4a, 0xef, 0x1f, 0x0a, 0x7c,
  0xa2, 0x0f, 0x2f, 0xfd, 0x0c, 0xd4, 0x1b, 0x32, 0xa0, 0x0e, 0x1a, 0xe0,
  0xe0, 0x01, 0xc6, 0x1c, 0xf4, 0x69, 0x44, 0x59, 0x37, 0x02, 0x05, 0x19,
  0x0e, 0x5f, 0x1c, 0x1b, 0xef, 0x4e, 0x53, 0x55, 0x3b, 0x46, 0xd4, 0xe7,
  0x3c, 0x1f, 0xc2, 0x6c, 0x26, 0x89, 0x11, 0xdb, 0xfd, 0x1e, 0xdb, 0x0f,
  0xec, 0x20, 0x03, 0x89, 0xfa, 0x60, 0x16, 0xa2, 0xa3, 0xeb, 0xff, 0x22,
  0xb1, 0x08, 0xf0, 0x3c, 0xa0, 0x0d, 0xeb, 0xd6, 0x75, 0x72, 0x09, 0x70,
  0xfd, 0x35, 0xfa, 0x13, 0x16, 0xdb, 0x09, 0xaa, 0x66, 0x42, 0x30, 0xc6,
  0x12, 0x1c, 0xf1, 0x51, 0x0c, 0x25, 0xc0, 0x47, 0xf4, 0xbb, 0xba, 0x2a,
  0x1e, 0x61, 0x2f, 0x13, 0x5c, 0x0b, 0x83, 0x27, 0x1e, 0x6b, 0x0d, 0xe4,
  0x02, 0x20, 0x0c, 0xd4, 0x2a, 0xda, 0x82, 0x3a, 0x01, 0xb2, 0x3a, 0x4b,
  0xf0, 0x07, 0xdc, 0xd9, 0x65, 0x29, 0x86, 0xeb, 0xe2, 0x19, 0x68, 0xd1,
  0xe5, 0xcd, 0x3e, 0xd1, 0x8b, 0x0c, 0xe9, 0x04, 0x97, 0x16, 0xfb, 0x2a,
  0x1e, 0x78, 0xf1, 0x2c, 0xe3, 0xf5, 0xf9, 0xa7, 0xde, 0xf1, 0x3d, 0x43,
  0xb7, 0x2b, 0xe2, 0xe7, 0x94, 0x40, 0xb7, 0x01, 0xfa, 0x1c, 0x00, 0xd3,
  0xd0, 0xb6, 0x43, 0xff, 0x02, 0x05, 0x0c, 0x33, 0xdd, 0x60, 0x79, 0xb9,
  0x33, 0x0b, 0xd3, 0xc5, 0x2d, 0xf4, 0x1b, 0x17, 0x42, 0xd9, 0xf2, 0x41,
  0xf7, 0x48, 0x02, 0x9a, 0xfb, 0x05, 0x1a, 0xfd, 0xd6, 0x35, 0xc9, 0x0b,
  0xd7, 0xa3, 0xe2, 0xda, 0xb1, 0x2e, 0xe6, 0xb0, 0xed, 0x7c, 0x13, 0xbd,
  0x6f, 0xd8, 0xd2, 0x76, 0x50, 0xf8, 0x1c, 0x38, 0x26, 0x68, 0xd8, 0x1b,
  0x47, 0x65, 0xd1, 0x38, 0x03, 0xb0, 0x57, 0xe6, 0xeb, 0x4f, 0xb1, 0xb1,
  0xea, 0xee, 0x50, 0x17, 0x56, 0x20, 0x63, 0x03, 0xf7, 0x78, 0x00, 0xca,
  0x1e, 0x48, 0xde, 0x00, 0x06, 0xb8, 0x29, 0x03, 0xc5, 0xc4, 0xe4, 0x18,
  0xa3, 0x49, 0x09, 0x7a, 0x51, 0xd2, 0xdd, 0xd1, 0x0b, 0x09, 0xf3, 0xe1,
  0xa2, 0xf3, 0x34, 0xe1, 0xe9, 0xd9, 0x25, 0x50, 0xf8, 0xdd, 0xff, 0xd6,
  0x77, 0x2b, 0x1b, 0x4f, 0x01, 0x53, 0x2a, 0x5b, 0xf6, 0xea, 0xd1, 0xef,
  0xf4, 0x19, 0xfd, 0xe6, 0xc7, 0xbd, 0x26, 0x04, 0x49, 0xe3, 0xd1, 0xa8,
  0x20, 0x5b, 0x1d, 0x62, 0x74, 0xac, 0xec, 0x0a, 0x5d, 0x0a, 0xef, 0x12,
  0x13, 0xe0, 0x17, 0x26, 0x88, 0x15, 0x07, 0xe9, 0x47, 0x2b, 0x40, 0xec,
  0x08, 0x56, 0xef, 0x2b, 0x65, 0x3e, 0xb3, 0xe7, 0xb7, 0x8b, 0x0b, 0xd3,
  0xe2, 0x2f, 0xf1, 0x58, 0x00, 0xba, 0xe9, 0x4b, 0x99, 0xde, 0x04, 0xef,
  0xd4, 0x1f, 0x4b, 0x40, 0x9c, 0xde, 0x5d, 0xfa, 0x10, 0xa8, 0xd8, 0x05,
  0xd7, 0xfa, 0xca, 0x58, 0xca, 0x02, 0x60, 0x0f, 0x10, 0x68, 0x37, 0xb9,
  0xdc, 0x36, 0x31, 0x1b, 0x2b, 0x75, 0x31, 0x41, 0x35, 0xac, 0x56, 0x4a,
  0xf5, 0x02, 0xf1, 0xba, 0x02, 0xd9, 0x26, 0xb7, 0xea, 0xd3, 0x03, 0x56,
  0xda, 0xb2, 0x65, 0x16, 0xe3, 0xf4, 0x54, 0x14, 0xbf, 0x11, 0x41, 0xff,
  0x3f, 0x33, 0x0d, 0xbe, 0x3a, 0x5a, 0xef, 0x33, 0x03, 0x07, 0xf3, 0x4c,
  0x39, 0x1a, 0x35, 0xcf, 0x06, 0xf5, 0x0f, 0x0c, 0xf7, 0x3e, 0x20, 0x97,
  0xfa, 0x31, 0x31, 0x7e, 0xd4, 0xc1, 0xc8, 0x19, 0xb9, 0x92, 0x0f, 0xd6,
  0x3d, 0x73, 0x10, 0x5a, 0xd2, 0xfa, 0x3b, 0x20, 0xb9, 0xc8, 0x06, 0xfa,
  0xd4, 0x05, 0x4d, 0xe4, 0x85, 0xce, 0x50, 0xe8, 0xef, 0x0e, 0xe4, 0xb8,
  0x02, 0x1c, 0xed, 0xeb, 0x00, 0x15, 0x9b, 0xef, 0x74, 0x38, 0x16, 0xd2,
  0xd2, 0x13, 0xd3, 0xf1, 0x2f, 0xe0, 0xef, 0x17, 0xfd, 0x6c, 0x42, 0x28,
  0x29, 0x01, 0x63, 0x22, 0x9a, 0xda, 0x0f, 0x1b, 0x6e, 0xc9, 0xed, 0xf2,
  0x2a, 0x31, 0x60, 0xfa, 0xe1, 0xf7, 0x92, 0x18, 0xd6, 0x34, 0x3a, 0xbc,
  0xea, 0x24, 0xd9, 0x16, 0xcd, 0xc2, 0xed, 0xfc, 0x10, 0x2e, 0x20, 0xcb,
  0x44, 0x06, 0x44, 0xb4, 0xea, 0x40, 0x1c, 0x22, 0x28, 0xba, 0xcb, 0x17,
  0xf4, 0xf3, 0x88, 0xee, 0x97, 0xf3, 0x2a, 0x42, 0xf9, 0xf6, 0x06, 0xe7,
  0xbf, 0x0a, 0x2f, 0x4e, 0x45, 0xc6, 0x08, 0x98, 0xeb, 0xda, 0x91, 0xea,
  0xd6, 0xd6, 0x48, 0x33, 0xc4, 0x0e, 0xa3, 0x5c, 0xfb, 0x53, 0x5d, 0xb1,
  0xd0, 0x65, 0x27, 0xcc, 0x22, 0xea, 0x27, 0xf8, 0x5a, 0x00, 0x6c, 0xfc,
  0x06, 0x3f, 0x09, 0xdf, 0xf8, 0x0d, 0x35, 0x95, 0x53, 0x21, 0x3e, 0x3a,
  0x1a, 0xd2, 0xe1, 0x73, 0x2e, 0xd0, 0xad, 0xcf, 0xe0, 0xc5, 0x19, 0x8e,
  0xe2, 0xe5, 0x4b, 0x72, 0x00, 0x2b, 0x51, 0xf1, 0xe1, 0x9c, 0xf2, 0x9f,
  0x16, 0xe8, 0x2f, 0xce, 0xb0, 0x4a, 0xf5, 0x49, 0xb5, 0x17, 0xd2, 0x96,
  0xec, 0xc5, 0x5d, 0x44, 0x11, 0xde, 0xe3, 0x00, 0x23, 0x1b, 0xcf, 0xb1,
  0x74, 0x52, 0xd2, 0xe5, 0xe6, 0x08, 0x3e, 0x29, 0xd6, 0x16, 0x8d, 0x1e,
  0x23, 0x14, 0x04, 0x52, 0x16, 0xf1, 0xfe, 0x74, 0xff, 0xd3, 0x77, 0x16,
  0x1f, 0x4a, 0xde, 0xa7, 0x48, 0x15, 0xbd, 0x10, 0xef, 0xf2, 0x13, 0xf0,
  0x7c, 0xc4, 0x24, 0xb3, 0x9b, 0xd3, 0xfb, 0x09, 0x07, 0x1d, 0x2a, 0x31,
  0x35, 0xc8, 0x33, 0xc8, 0x41, 0xe6, 0x22, 0xc2, 0xe6, 0xb2, 0x31, 0x18,
  0x28, 0x30, 0xe1, 0x13, 0xea, 0xf9, 0x11, 0xc8, 0x8d, 0x38, 0x20, 0x53,
  0x96, 0x67, 0x53, 0xcf, 0x34, 0x13, 0xd6, 0xe1, 0x32, 0x35, 0x0c, 0x7f,
  0x60, 0xd0, 0x30, 0x27, 0x51, 0x47, 0x44, 0x26, 0xc0, 0x13, 0xf9, 0x19,
  0xec, 0xbc, 0xaf, 0xe5, 0x99, 0x1e, 0x20, 0xfd, 0xe2, 0xbc, 0x8d, 0x38,
  0x4d, 0xc3, 0x27, 0x15, 0x12, 0xc8, 0x3a, 0x13, 0x97, 0xc3, 0x32, 0x6c,
  0x13, 0xf1, 0x38, 0x11, 0xb3, 0xef, 0x09, 0xec, 0x3b, 0x24, 0x30, 0xfc,
  0xb0, 0xcf, 0x06, 0x5f, 0xf7, 0x24, 0x4a, 0x98, 0x3a, 0xc3, 0xbe, 0xe6,
  0xcd, 0xdf, 0xc1, 0xfa, 0xed, 0x51, 0x49, 0x22, 0x06, 0x90, 0xaf, 0xc7,
  0xcb, 0x27, 0xfa, 0x3c, 0x6d, 0x0e, 0xc0, 0x6d, 0xf8, 0x20, 0xd0, 0x18,
  0xec, 0x7c, 0x3b, 0x13, 0xe4, 0xef, 0x2a, 0xc3, 0x36, 0x35, 0xd4, 0x29,
  0x07, 0x18, 0xdf, 0x19, 0x92, 0x28, 0xb8, 0xee, 0x04, 0x44, 0xe8, 0x29,
  0xde, 0x1f, 0x02, 0x14, 0xfd, 0xb9, 0xcb, 0x4f, 0x17, 0x22, 0xe5, 0xbd,
  0x10, 0x1e, 0x09, 0xba, 0x79, 0x40, 0xbc, 0x4c, 0x86, 0xca, 0x0f, 0x26,
  0xd0, 0x20, 0xcc, 0x08, 0xfa, 0xff, 0x4a, 0x39, 0xad, 0xd9, 0xfd, 0x12,
  0x1f, 0xc3, 0xdd, 0xec, 0x35, 0x2a, 0x28, 0x57, 0xf1, 0xd8, 0xd6, 0x64,
  0x0c, 0x28, 0xf3, 0xb4, 0xe0, 0x1e, 0xdf, 0x30, 0xc9, 0x0e, 0xa5, 0xed,
  0x1f, 0x73, 0xcf, 0xda, 0xe8, 0x49, 0xdd, 0xd9, 0x15, 0xe4, 0xce, 0x2e,
  0x70, 0x4c, 0xbc, 0xb5, 0xbd, 0x2d, 0x2a, 0xe3, 0x4d, 0x38, 0x28, 0x66,
  0xa1, 0x95, 0xe3, 0xe8, 0x50, 0x7f, 0x19, 0x1a, 0x2a, 0x28, 0xc0, 0x1b,
  0xb2, 0x27, 0xec, 0xeb, 0x1b, 0x1b, 0xdc, 0x05, 0xc9, 0x30, 0xda, 0xcf,
  0x41, 0xc4, 0x10, 0x2b, 0x5d, 0x1e, 0xb9, 0x04, 0x1d, 0x4a, 0x1b, 0xd1,
  0xd9, 0xf8, 0x75, 0xb2, 0xbd, 0xcc, 0x6a, 0x2f, 0x52, 0xf8, 0x3c, 0x64,
  0x3f, 0x36, 0xdb, 0x35, 0xfd, 0xb3, 0xbf, 0x08, 0x0b, 0xba, 0x49, 0x11,
  0x1b, 0x3c, 0x21, 0x03, 0xeb, 0x88, 0xbe, 0x19, 0x90, 0x23, 0xf5, 0x17,
  0x1c, 0xd8, 0xfe, 0xfa, 0x04, 0xe7, 0xc2, 0x04, 0x2f, 0xee, 0xfa, 0x1f,
  0x68, 0x37, 0x97, 0x23, 0x3f, 0x23, 0x1b, 0x94, 0x32, 0x2f, 0xe9, 0x3d,
  0x59, 0x30, 0x64, 0xea, 0x5b, 0xcf, 0x25, 0xee, 0x05, 0x46, 0x31, 0x08,
  0xfc, 0x1a, 0x56, 0xca, 0x1e, 0x0f, 0x4f, 0xfe, 0x1b, 0xa2, 0x3b, 0x1a,
  0xa7, 0x54, 0xb4, 0x7b, 0x4c, 0x0a, 0xdb, 0xb3, 0x2d, 0x8c, 0xd4, 0x12,
  0x02, 0xba, 0x2b, 0x0b, 0xe7, 0x42, 0x11, 0xda, 0x33, 0xdb, 0x18, 0xb1,
  0x3f, 0x1c, 0xa8, 0xc5, 0xdb, 0xf2, 0xe1, 0x23, 0xd9, 0x5c, 0x45, 0x1a,
  0x44, 0x32, 0x59, 0xf4, 0xcc, 0x72, 0xfd, 0xbd, 0x27, 0x41, 0x15, 0xc2,
  0x03, 0xfb, 0x17, 0x10, 0x2c, 0xc9, 0x35, 0xae, 0xa1, 0x4e, 0xf8, 0xa8,
  0xe1, 0x4e, 0xde, 0x78, 0x12, 0xa0, 0x30, 0x5f, 0xd1, 0x15, 0x02, 0xf8,
  0x04, 0x18, 0xdc, 0x32, 0x07, 0xdc, 0xeb, 0x23, 0xdc, 0xc1, 0xc1, 0xf6,
  0xc4, 0xf6, 0xaa, 0x11, 0x06, 0x14, 0x65, 0xbe, 0x6b, 0xe7, 0x01, 0xdf,
  0xc5, 0x30, 0x44, 0xc5, 0x15, 0x42, 0xd1, 0xf1, 0x09, 0x04, 0xb0, 0xe6,
  0x23, 0x5d, 0x17, 0xf3, 0xcf, 0x58, 0x21, 0xc6, 0x89, 0x2d, 0xe0, 0xfa,
  0x28, 0xbe, 0x45, 0xfe, 0x7e, 0x0f, 0x02, 0x39, 0xd8, 0x18, 0x5f, 0x28,
  0x31, 0xeb, 0x24, 0x18, 0x0a, 0x8e, 0x3c, 0x1f, 0xbc, 0x1d, 0x55, 0x43,
  0xa8, 0x38, 0xba, 0xe3, 0x6d, 0x19, 0xd3, 0xfc, 0x40, 0xc0, 0xd5, 0x2c,
  0x21, 0x00, 0x31, 0x3d, 0xd9, 0x16, 0xef, 0x6a, 0xc1, 0x09, 0x0d, 0xf4,
  0xcf, 0x0e, 0xe9, 0x0e, 0xd2, 0x9c, 0x1a, 0x00, 0xba, 0x4b, 0x47, 0xf8,
  0xe7, 0xed, 0x0a, 0xad, 0x39, 0xfa, 0x1e, 0x3e, 0xfb, 0xd9, 0xf8, 0x0d,
  0xe2, 0xf9, 0xf3, 0xcf, 0xc2, 0x02, 0x9f, 0xff, 0xe4, 0x1c, 0x63, 0xf6,
  0x18, 0xc9, 0x6c, 0x0a, 0xfc, 0x1e, 0xbd, 0xef, 0x36, 0x5a, 0xff, 0x2e,
  0x01, 0x31, 0xdf, 0xe7, 0x4b, 0xcc, 0xd0, 0x2b, 0xfa, 0x13, 0xf6, 0x1f,
  0xc5, 0x2e, 0x08, 0x63, 0x18, 0xe8, 0xf7, 0x24, 0x8b, 0x0a, 0xcf, 0xa9,
  0xd1, 0x04, 0xfe, 0x6b, 0x3c, 0x2b, 0x4a, 0xf2, 0x07, 0x7a, 0xe2, 0x18,
  0x19, 0x22, 0x17, 0x0b, 0x44, 0x05, 0xe2, 0xf2, 0x2f, 0xbd, 0xbd, 0x0f,
  0xf1, 0xc4, 0x0f, 0x0a, 0x35, 0xd0, 0x4b, 0xdf, 0xd5, 0x05, 0x00, 0x35,
  0xf4, 0xeb, 0xfa, 0xbe, 0x58, 0x23, 0xfc, 0xe9, 0xe8, 0xd3, 0xec, 0x0b,
  0x4e, 0x2e, 0xce, 0xb8, 0xd9, 0x8c, 0xf2, 0xbd, 0xd6, 0xcf, 0x3b, 0xc8,
  0x22, 0xe1, 0xf4, 0x4b, 0x09, 0x9b, 0xd9, 0xe1, 0x96, 0xc9, 0x6f, 0x22,
  0x10, 0x88, 0xcb, 0x4c, 0xd0, 0x46, 0x24, 0xe1, 0x78, 0xc8, 0xb8, 0xd9,
  0xd5, 0x15, 0xc8, 0xb8, 0xe4, 0x1d, 0xd9, 0xaa, 0xdb, 0x18, 0xc6, 0xbd,
  0x2d, 0x55, 0x42, 0x26, 0x48, 0x63, 0x00, 0xba, 0xd7, 0xf3, 0xf1, 0xe8,
  0x4e, 0x12, 0x87, 0x0b, 0xda, 0x57, 0x9f, 0xfe, 0xf5, 0xab, 0xe8, 0x55,
  0xd3, 0xd7, 0xcc, 0x5d, 0xfb, 0xc6, 0x2c, 0xf2, 0xc0, 0xdc, 0x16, 0x51,
  0x39, 0xf0, 0x55, 0x27, 0xe5, 0xc6, 0x22, 0x26, 0xa6, 0x2b, 0xca, 0xf7,
  0x68, 0xa3, 0x10, 0x21, 0x08, 0x0a, 0x48, 0x05, 0x19, 0x1b, 0x32, 0xed,
  0xc5, 0xdc, 0x11, 0xf0, 0x1c, 0xf5, 0x0d, 0x30, 0xda, 0x38, 0xec, 0x03,
  0x84, 0x37, 0xf1, 0x2f, 0xcc, 0xfb, 0x1b, 0xe4, 0xa5, 0xc0, 0xe9, 0xcd,
  0xe5, 0xf2, 0xf3, 0x34, 0x9e, 0xe4, 0x49, 0x9f, 0x5c, 0xdc, 0x11, 0xcd,
  0xec, 0xe7, 0x0c, 0x46, 0x17, 0xbd, 0xf1, 0x41, 0xe7, 0x81, 0x57, 0x2c,
  0x2a, 0x6b, 0x0b, 0xec, 0x13, 0x42, 0x6d, 0x08, 0xd8, 0xa9, 0xee, 0xa8,
  0xa9, 0x38, 0xd5, 0xc3, 0xea, 0xf8, 0xc2, 0x3d, 0x90, 0xea, 0x59, 0xde,
  0xca, 0x25, 0xf2, 0xab, 0x9f, 0xec, 0xd5, 0x26, 0x03, 0x1b, 0xd4, 0x0b,
  0xbe, 0xc7, 0xff, 0x36, 0x2b, 0xf0, 0xc9, 0x87, 0xd1, 0x71, 0x31, 0xb8,
  0xd0, 0xfc, 0x31, 0x68, 0x1c, 0x25, 0xad, 0xad, 0xe8, 0x9c, 0xfa, 0xb0,
  0xf0, 0x55, 0xa9, 0x1c, 0x2c, 0xf4, 0xbb, 0xc4, 0x2a, 0xbb, 0x0a, 0x38,
  0xf5, 0xd4, 0xdd, 0xd7, 0x96, 0xe1, 0x0d, 0xf8, 0x06, 0xc5, 0xd1, 0x65,
  0x27, 0xbe, 0x54, 0x39, 0x38, 0xc8, 0xa8, 0xd3, 0x10, 0x2c, 0xf6, 0x97,
  0x30, 0x3d, 0x21, 0x3b, 0x9e, 0xa1, 0x47, 0xbf, 0x58, 0x4c, 0xf8, 0x5c,
  0xeb, 0x7e, 0xff, 0x42, 0xf1, 0xfe, 0x57, 0xaf, 0xe6, 0x20, 0x1f, 0xff,
  0xcf, 0xb0, 0x2b, 0x0a, 0x0d, 0x10, 0x0b, 0x07, 0xfe, 0xd4, 0x30, 0xdd,
  0xea, 0xd2, 0x26, 0xe3, 0xf6, 0x0a, 0xcb, 0xd4, 0x9b, 0x09, 0x4c, 0xfe,
  0xb7, 0xbc, 0xff, 0x44, 0xde, 0xca, 0xb1, 0x2d, 0xaf, 0xab, 0x3d, 0x14,
  0xe0, 0xaa, 0x07, 0x10, 0xb6, 0xea, 0xf8, 0xf1, 0x6a, 0xf3, 0x2c, 0x3f,
  0xc4, 0x40, 0xaa, 0x2c, 0x01, 0xf4, 0xc9, 0xe6, 0x53, 0x08, 0x29, 0x0b,
  0xe6, 0x24, 0x33, 0x28, 0x1b, 0x05, 0x18, 0x54, 0x09, 0xed, 0xd1, 0x19,
  0x19, 0x0c, 0x2b, 0x02, 0xbc, 0x11, 0xdf, 0xb7, 0x20, 0x2d, 0xba, 0x1d,
  0xfe, 0x13, 0x45, 0x38, 0xf8, 0xde, 0x45, 0xeb, 0x33, 0x11, 0xb3, 0x20,
  0xfa, 0x98, 0xf5, 0x5e, 0xd7, 0x3e, 0xc1, 0x10, 0x0b, 0xe4, 0x46, 0x0e,
  0xa4, 0xb5, 0xfa, 0xda, 0xfc, 0x1b, 0x05, 0xee, 0x06, 0x38, 0x2a, 0xd7,
  0xd6, 0xf0, 0x0e, 0xb8, 0xd2, 0x11, 0xd3, 0xe7, 0x43, 0x81, 0x24, 0x08,
  0xee, 0x1f, 0x5b, 0x21, 0x71, 0x75, 0xb0, 0xa7, 0xdf, 0xf3, 0xe4, 0x57,
  0x3b, 0xf8, 0x50, 0xef, 0x63, 0xd3, 0xaf, 0x5c, 0x9c, 0xad, 0x20, 0x52,
  0x0d, 0xae, 0xe8, 0x04, 0x09, 0xe0, 0xc6, 0xdc, 0xf8, 0xe7, 0xc7, 0xdc,
  0xc8, 0xe1, 0x08, 0xe3, 0x03, 0xca, 0xc0, 0x1e, 0xee, 0xa2, 0xeb, 0x07,
  0x0d, 0xf7, 0xfc, 0x48, 0x30, 0xcf, 0xec, 0xfc, 0xed, 0x28, 0x39, 0xe2,
  0x1b, 0x15, 0x37, 0xdb, 0xb6, 0x4a, 0xfd, 0x12, 0x25, 0x08, 0xca, 0xc5,
  0x2e, 0x5f, 0xe3, 0x1f, 0x9d, 0x98, 0x19, 0xe5, 0xe9, 0x50, 0xfb, 0xaa,
  0xc5, 0x1e, 0x53, 0x0e, 0x4c, 0x0a, 0x37, 0x2d, 0xeb, 0xae, 0x15, 0xe8,
  0x01, 0x1e, 0xf1, 0x3f, 0xbc, 0xc8, 0x4f, 0xb8, 0xe3, 0xef, 0xdb, 0xd6,
  0x3e, 0x99, 0x47, 0xcd, 0x12, 0x07, 0x19, 0xc9, 0x11, 0x07, 0x21, 0x39,
  0x31, 0xc0, 0xe6, 0xd4, 0xa5, 0xbd, 0x39, 0x28, 0x03, 0x10, 0xa4, 0xbf,
  0x45, 0x2f, 0xb3, 0x14, 0x0e, 0x1a, 0xb8, 0x39, 0x51, 0xe0, 0x0b, 0x1b,
  0x1d, 0x08, 0xb8, 0x1a, 0xfe, 0xdd, 0x27, 0x06, 0x22, 0x0f, 0xdc, 0xdc,
  0xb5, 0xe3, 0xec, 0x08, 0x5e, 0xe2, 0xf0, 0x6f, 0x11, 0x01, 0x05, 0x4e,
  0xeb, 0xac, 0x9f, 0x1c, 0xb9, 0x00, 0x3b, 0xe1, 0xf7, 0xdb, 0xbf, 0xfe,
  0xe2, 0xcd, 0x41, 0x58, 0x03, 0xfe, 0x35, 0x3d, 0xc0, 0xbb, 0xb2, 0xf6,
  0xfc, 0x72, 0x15, 0xc2, 0x14, 0x3c, 0xe6, 0xad, 0x31, 0x26, 0x1f, 0x11,
  0x0a, 0xc1, 0x13, 0x28, 0xd0, 0xa7, 0xf2, 0x1a, 0xb2, 0x5a, 0xc9, 0x47,
  0x11, 0x31, 0x1e, 0xc3, 0x0f, 0xd5, 0xee, 0xdb, 0x00, 0x4b, 0xb2, 0xe0,
  0x0a, 0x03, 0xc6, 0xd4, 0x4b, 0xd9, 0xeb, 0xce, 0xe3, 0xc1, 0xfc, 0xe1,
  0xe3, 0x5a, 0xed, 0xe0, 0xf3, 0xef, 0x1f, 0x42, 0x2c, 0xba, 0xeb, 0x26,
  0xeb, 0xd5, 0x4c, 0xe0, 0xf0, 0x3a, 0x55, 0x39, 0x98, 0x21, 0x4a, 0x72,
  0x69, 0x93, 0x4d, 0xf1, 0x14, 0x0f, 0x3b, 0x40, 0x0b, 0x09, 0xe1, 0x4f,
  0x47, 0xf5, 0x07, 0x2c, 0x22, 0x2d, 0x5b, 0x91, 0x1a, 0xd6, 0x3e, 0x25,
  0x24, 0xf5, 0xfc, 0xcb, 0xd9, 0xea, 0x1e, 0xe4, 0x18, 0xcc, 0x59, 0x54,
  0x36, 0x24, 0x24, 0x10, 0x3e, 0xec, 0x19, 0x41, 0x14, 0xb9, 0x3c, 0x16,
  0xa0, 0x5b, 0x03, 0xf7, 0x61, 0xd0, 0x34, 0x5d, 0x2e, 0x13, 0x12, 0xef,
  0x57, 0xbd, 0x98, 0x04, 0x26, 0x43, 0xe8, 0x14, 0xc6, 0xe9, 0xff, 0xff,
  0x04, 0x00, 0x00, 0x00, 0x20, 0x00, 0x00, 0x00, 0x00, 0x00, 0x00, 0x00,
  0x00, 0x00, 0x00, 0x00, 0x00, 0x00, 0x00, 0x00, 0x00, 0x00, 0x00, 0x00,
  0x00, 0x00, 0x00, 0x00, 0x00, 0x00, 0x00, 0x00, 0x00, 0x00, 0x00, 0x00,
  0x00, 0x00, 0x00, 0x00, 0xf2, 0xe9, 0xff, 0xff, 0x04, 0x00, 0x00, 0x00,
  0x00, 0x14, 0x00, 0x00, 0x3e, 0xe2, 0x2b, 0xcc, 0xc6, 0xfb, 0xc5, 0xee,
  0x78, 0x11, 0x36, 0xdc, 0xa9, 0xfd, 0xf0, 0xf0, 0x17, 0x34, 0x92, 0x15,
  0x3f, 0x8d, 0xc9, 0x2a, 0xcd, 0x06, 0xfc, 0x39, 0xe5, 0x56, 0x6b, 0xd8,
  0x2b, 0x30, 0x0b, 0x19, 0xcd, 0xfd, 0x02, 0xd1, 0xe6, 0x0c, 0x60, 0x3c,
  0xd7, 0x3b, 0xf6, 0xf1, 0x08, 0x2c, 0xda, 0x08, 0x37, 0x2a, 0x43, 0xfd,
  0x4c, 0x4c, 0x2d, 0xb8, 0xad, 0xc1, 0xdd, 0xe7, 0x18, 0x48, 0x02, 0x49,
  0x1f, 0xfc, 0x49, 0x0d, 0x3b, 0x04, 0x31, 0x87, 0xf0, 0xc6, 0x32, 0xa9,
  0xc8, 0xfa, 0x30, 0xdd, 0x28, 0xdb, 0xc0, 0x35, 0xd1, 0x1d, 0xfd, 0x36,
  0x02, 0xea, 0x4d, 0xab, 0xeb, 0xc1, 0xa3, 0xf7, 0xf2, 0x02, 0x0a, 0x04,
  0x46, 0xde, 0xeb, 0xd7, 0x78, 0xfe, 0x5a, 0x2e, 0x5e, 0xe4, 0xbb, 0x3c,
  0x48, 0x0b, 0x30, 0xc9, 0x47, 0x2f, 0x0f, 0x40, 0xea, 0x22, 0x16, 0xaf,
  0xd2, 0xe8, 0x65, 0x01, 0x0b, 0x3f, 0x62, 0x0b, 0xac, 0x13, 0xd9, 0x48,
  0xe3, 0x6b, 0x9f, 0x28, 0x41, 0xa7, 0x06, 0x20, 0xfa, 0x13, 0x72, 0xe3,
  0xe2, 0xf4, 0xc3, 0x29, 0x93, 0x3e, 0xc3, 0x14, 0x22, 0x20, 0xf9, 0xcc,
  0xdb, 0xb8, 0x05, 0x26, 0x42, 0xf6, 0x04, 0x19, 0x84, 0xe0, 0x27, 0xa8,
  0xb9, 0xb8, 0x42, 0x42, 0x2d, 0x5f, 0x91, 0x21, 0x81, 0xdc, 0x27, 0x08,
  0xdf, 0xdf, 0x07, 0x01, 0x4b, 0xb1, 0x22, 0xbc, 0x02, 0x57, 0x51, 0xeb,
  0xcf, 0xf1, 0xde, 0x96, 0x2c, 0x35, 0x2e, 0x27, 0xe4, 0x91, 0xd4, 0xc0,
  0xea, 0x13, 0x2a, 0xc7, 0xe8, 0xc2, 0xed, 0x41, 0x4e, 0xda, 0xde, 0x38,
  0xe5, 0xf4, 0x26, 0x12, 0x51, 0x9e, 0x45, 0x38, 0x1b, 0xf9, 0xff, 0x02,
  0x06, 0x37, 0xce, 0xdb, 0x38, 0x8f, 0xe5, 0x0b, 0x24, 0xf5, 0xf6, 0x4a,
  0x73, 0x04, 0xf6, 0x05, 0xc3, 0xe4, 0xd0, 0x04, 0x65, 0x87, 0xd6, 0xea,
  0xab, 0x01, 0x9d, 0x01, 0xa3, 0x0a, 0x8e, 0x29, 0x47, 0x4c, 0xe4, 0xe5,
  0x0a, 0xe0, 0xbd, 0xee, 0xfc, 0x5b, 0xe0, 0x20, 0xc4, 0xd8, 0x24, 0xda,
  0xcf, 0xc3, 0x4b, 0xad, 0xc5, 0x44, 0x18, 0xad, 0x07, 0x3a, 0x29, 0x00,
  0xcb, 0x45, 0xd9, 0xec, 0xfc, 0xf5, 0x24, 0xc5, 0x56, 0xd2, 0x68, 0x04,
  0xf8, 0x6b, 0x1e, 0xea, 0x44, 0xd5, 0x3a, 0x44, 0xda, 0xa2, 0x46, 0xf6,
  0x1d, 0x39, 0x48, 0xf4, 0xe7, 0xba, 0x9a, 0x13, 0xfb, 0x00, 0x48, 0xd5,
  0x09, 0xa7, 0x6a, 0xf0, 0xd7, 0xcd, 0x28, 0xd0, 0x64, 0x1f, 0xa0, 0xd0,
  0xb0, 0x07, 0xc0, 0xf0, 0x37, 0x07, 0x20, 0xdf, 0x1d, 0x69, 0x13, 0xef,
  0xed, 0x98, 0xb5, 0x05, 0xb7, 0xfb, 0x09, 0x33, 0x10, 0x0b, 0xe8, 0x15,
  0x71, 0x2b, 0xdd, 0xe6, 0xcb, 0xc8, 0x44, 0xa1, 0x18, 0xe6, 0x10, 0x40,
  0xce, 0x01, 0xf6, 0x78, 0x65, 0x12, 0x27, 0x13, 0xd3, 0x0c, 0x15, 0x2a,
  0xf5, 0xda, 0x51, 0xf4, 0xcd, 0xec, 0xd8, 0xb1, 0x03, 0x98, 0x46, 0xc6,
  0x12, 0xbd, 0x37, 0x20, 0x20, 0xbc, 0x41, 0x09, 0xc4, 0x4a, 0x1d, 0x44,
  0x21, 0xc1, 0x32, 0x15, 0x24, 0x1f, 0x32, 0x26, 0xfc, 0xe0, 0x04, 0xb8,
  0x03, 0xd7, 0xd8, 0xc2, 0x6f, 0x04, 0x59, 0xdb, 0xe7, 0x95, 0xf5, 0xb7,
  0xdc, 0x50, 0x0f, 0x91, 0xfc, 0xa7, 0xf8, 0xdb, 0xe4, 0x3d, 0x07, 0xf0,
  0x55, 0x26, 0xcc, 0x4b, 0x82, 0xa6, 0x94, 0xd4, 0xd7, 0xef, 0xe9, 0x7b,
  0x35, 0x90, 0x3c, 0x5d, 0xc6, 0x1a, 0xf6, 0x0f, 0xf3, 0x3d, 0x92, 0xc5,
  0xe3, 0x44, 0x1b, 0x29, 0x1b, 0x72, 0x69, 0x00, 0x26, 0x8d, 0xe8, 0xcd,
  0xfc, 0xfa, 0x37, 0xc0, 0x26, 0xfb, 0x4b, 0xd8, 0xb6, 0x47, 0xb3, 0xf2,
  0x4f, 0xf0, 0xdf, 0xc3, 0xe3, 0xe7, 0xfa, 0xfb, 0x16, 0xa0, 0xe5, 0x5e,
  0x27, 0x35, 0xe5, 0xd3, 0x18, 0xb4, 0xda, 0x41, 0xda, 0xaf, 0x66, 0x03,
  0x04, 0xbe, 0xdf, 0x38, 0xcf, 0xd0, 0xd0, 0xa3, 0xae, 0x42, 0xbc, 0xc6,
  0x55, 0xaf, 0xba, 0xcb, 0x32, 0x04, 0xd9, 0xc2, 0x19, 0xee, 0x44, 0xea,
  0xb8, 0x3a, 0xe3, 0x3d, 0x25, 0x61, 0x19, 0xc2, 0xff, 0x25, 0x39, 0xd5,
  0x1b, 0xcb, 0x07, 0x8e, 0xed, 0xfa, 0xd1, 0xcf, 0xb4, 0xfd, 0x5f, 0xdc,
  0x19, 0x20, 0xc2, 0x53, 0x86, 0x12, 0x39, 0x03, 0xec, 0x28, 0xef, 0x04,
  0xee, 0x66, 0xdc, 0x56, 0xf5, 0xf2, 0xee, 0x11, 0xd8, 0xf2, 0x08, 0xde,
  0x26, 0x07, 0x9a, 0x2e, 0xd3, 0xb4, 0x2e, 0xe5, 0xdb, 0x1a, 0x5a, 0x03,
  0x43, 0x00, 0x1f, 0x2d, 0xc9, 0x3f, 0xc8, 0xd0, 0x01, 0x35, 0x0a, 0x63,
  0x02, 0xd8, 0x16, 0x31, 0x45, 0xf2, 0x4a, 0x2d, 0x92, 0xe4, 0x1f, 0x0f,
  0x31, 0x36, 0x0a, 0x49, 0x07, 0xa1, 0x04, 0xe7, 0x0f, 0xd8, 0xaf, 0xf5,
  0xbf, 0x28, 0xae, 0x3b, 0xf0, 0xde, 0xea, 0x2d, 0x28, 0x9e, 0x32, 0x76,
  0xc4, 0x00, 0xe1, 0xbf, 0xcf, 0x28, 0x06, 0xbd, 0x56, 0x1b, 0xff, 0xdf,
  0x26, 0xde, 0x1d, 0x48, 0xdc, 0x8a, 0xb7, 0x55, 0x12, 0xdc, 0xa5, 0x04,
  0x6b, 0x25, 0xe5, 0x73, 0x8c, 0xae, 0x5a, 0xef, 0x1e, 0xf7, 0xba, 0x54,
  0xd2, 0xe5, 0xca, 0x5a, 0x1c, 0x45, 0xe7, 0xf7, 0x6a, 0x2b, 0x0c, 0x62,
  0xde, 0x86, 0xa8, 0x4a, 0x56, 0xf3, 0x24, 0xcb, 0x12, 0xdd, 0x69, 0xef,
  0x29, 0x1d, 0xda, 0x8f, 0x1e, 0x06, 0x32, 0xd0, 0x0b, 0x25, 0xb7, 0x02,
  0xb4, 0xc8, 0x3e, 0x47, 0x0c, 0x0b, 0x04, 0x00, 0x3e, 0xe6, 0x13, 0x24,
  0x3a, 0xeb, 0x56, 0xcc, 0x69, 0x15, 0xc5, 0x38, 0x90, 0xfe, 0x02, 0xc8,
  0x1f, 0x1a, 0x5b, 0xe2, 0xaa, 0x3a, 0xa0, 0x1c, 0x73, 0xd9, 0x7d, 0x00,
  0x10, 0x69, 0x3e, 0x56, 0x29, 0xfb, 0x24, 0xf4, 0xea, 0x3d, 0x0c, 0xa6,
  0x22, 0xed, 0x42, 0x42, 0x3b, 0x72, 0x34, 0xf6, 0xdf, 0x36, 0x0f, 0xeb,
  0xc9, 0xd4, 0x12, 0x0a, 0xed, 0x2f, 0x34, 0x5f, 0x0f, 0xc6, 0xfa, 0xff,
  0xfb, 0x41, 0x3c, 0x32, 0xd7, 0x89, 0xf4, 0xf1, 0x68, 0xc2, 0xfe, 0x07,
  0x27, 0x30, 0xca, 0xb0, 0x9e, 0x07, 0x01, 0x09, 0xd6, 0xee, 0xd1, 0xea,
  0x2f, 0x41, 0x16, 0x93, 0x78, 0xa3, 0x32, 0x31, 0x23, 0xb6, 0x63, 0xf5,
  0x1b, 0x4f, 0x3e, 0x60, 0x93, 0xd0, 0x34, 0xaf, 0xd7, 0xf9, 0xf5, 0x9c,
  0xb0, 0xcc, 0xdd, 0x3c, 0xed, 0x54, 0xc5, 0xe5, 0xf6, 0x3a, 0xb9, 0xa6,
  0x49, 0x2f, 0x32, 0x2b, 0xe6, 0x62, 0xb7, 0xc8, 0x5a, 0x1b, 0x09, 0xf7,
  0xf1, 0xbf, 0x2d, 0x0a, 0x2f, 0x0c, 0x2d, 0xa3, 0xeb, 0x19, 0x28, 0x3d,
  0x49, 0x06, 0x29, 0x2a, 0xc9, 0xc3, 0xb0, 0x83, 0xd8, 0xf3, 0x5c, 0xf6,
  0xf0, 0xd5, 0xf7, 0x3e, 0xf5, 0xf7, 0x66, 0x2a, 0x62, 0xf6, 0xb2, 0x9b,
  0xe1, 0x2f, 0x3c, 0xfb, 0x38, 0xfe, 0xdd, 0x26, 0xfd, 0xae, 0xee, 0x30,
  0xf1, 0xd3, 0xa8, 0xb0, 0x2f, 0xf1, 0x13, 0x20, 0x44, 0x42, 0xc1, 0x30,
  0x40, 0x2e, 0xd5, 0xaa, 0xf3, 0xbf, 0x25, 0x3c, 0x14, 0xbc, 0x5c, 0x1c,
  0xc0, 0xee, 0x67, 0x27, 0x07, 0x02, 0x25, 0x21, 0x0b, 0x56, 0xf1, 0xee,
  0x35, 0x4f, 0xf2, 0x6a, 0xe9, 0x68, 0xcd, 0xef, 0x1b, 0xdf, 0x48, 0x22,
  0xdd, 0x49, 0x13, 0xb1, 0xa8, 0x01, 0xf5, 0x42, 0x20, 0xd9, 0x04, 0xf4,
  0xc9, 0x7a, 0x1e, 0x14, 0xf3, 0xe7, 0xa8, 0x26, 0x35, 0xf6, 0x2a, 0xf5,
  0x8b, 0x45, 0xe0, 0x8e, 0xc9, 0xe9, 0xe8, 0x19, 0x64, 0xfd, 0xc3, 0x03,
  0x1b, 0x55, 0xf8, 0x42, 0x11, 0x03, 0x3d, 0xda, 0x3d, 0x5b, 0xf8, 0x22,
  0xe5, 0xd4, 0xe7, 0x71, 0x32, 0xb0, 0xa8, 0xf5, 0xf6, 0x1e, 0x07, 0xd8,
  0x30, 0x81, 0x59, 0xba, 0x57, 0x03, 0xde, 0xb0, 0x9a, 0x0a, 0x2e, 0x12,
  0x2c, 0xaf, 0xc9, 0xeb, 0xfb, 0x00, 0xb4, 0x16, 0xfd, 0xe6, 0x5c, 0x48,
  0x1d, 0xfb, 0xee, 0x1d, 0x71, 0x03, 0xc2, 0xc6, 0x22, 0x42, 0x9f, 0xf2,
  0x65, 0xca, 0xcc, 0x08, 0xdb, 0x03, 0x1e, 0xaf, 0xcb, 0x49, 0x48, 0x17,
  0x3f, 0xe9, 0xe0, 0x47, 0x61, 0x0a, 0x39, 0xaa, 0x48, 0xde, 0x76, 0x1b,
  0xeb, 0x4a, 0x42, 0xb5, 0xb4, 0xe3, 0xe9, 0xe6, 0xde, 0xe2, 0xf4, 0x0b,
  0x0e, 0xe7, 0xc4, 0xd0, 0x97, 0x0f, 0x02, 0x0a, 0xf8, 0xef, 0xed, 0xe5,
  0xe3, 0x48, 0xc0, 0x19, 0xfa, 0xf1, 0xcb, 0x00, 0x13, 0x2e, 0x2f, 0x03,
  0x58, 0xdd, 0xd1, 0x93, 0x4b, 0x8e, 0x3b, 0x57, 0xd6, 0x4f, 0x35, 0xb8,
  0x3e, 0x1f, 0xc8, 0x0a, 0x96, 0x69, 0xfe, 0xfa, 0xd9, 0x26, 0xd9, 0xf0,
  0xc1, 0xf5, 0x46, 0x3e, 0x5a, 0xf7, 0xbb, 0xbb, 0xe1, 0x29, 0x05, 0x10,
  0x9f, 0xf6, 0xee, 0x41, 0x0b, 0xd8, 0x22, 0x50, 0x00, 0xd3, 0x04, 0x37,
  0xa6, 0x17, 0x43, 0x3e, 0xf4, 0x7f, 0x40, 0xcd, 0x13, 0x18, 0xf9, 0xe9,
  0x15, 0x5c, 0xd7, 0x16, 0xfe, 0xac, 0xed, 0x06, 0xa4, 0x37, 0xfd, 0xee,
  0xf3, 0xd1, 0x13, 0x33, 0x15, 0x16, 0xe1, 0x82, 0xf5, 0xd5, 0xf4, 0x27,
  0xc2, 0x1d, 0x44, 0x06, 0x33, 0xc4, 0x03, 0xdd, 0x3f, 0x2c, 0x3d, 0x12,
  0xa8, 0x2e, 0x07, 0x35, 0x65, 0x41, 0xd2, 0x22, 0xe9, 0xaf, 0x03, 0x1d,
  0x11, 0x19, 0xbc, 0x15, 0x28, 0xb6, 0x27, 0xdc, 0xbc, 0xbf, 0x9f, 0xa1,
  0xab, 0xe8, 0x27, 0xfc, 0x0a, 0x13, 0xf1, 0x1a, 0xb1, 0x04, 0x2d, 0xf7,
  0x9d, 0x62, 0xdc, 0xe1, 0xa0, 0x42, 0x1a, 0xec, 0x0f, 0x5e, 0xc6, 0x13,
  0x36, 0xb0, 0xf3, 0x33, 0x0e, 0xf9, 0xe8, 0x0d, 0x9c, 0x06, 0x1c, 0xa1,
  0xba, 0x6e, 0xfd, 0x11, 0x3b, 0x2a, 0x05, 0x3b, 0xca, 0x58, 0xd9, 0x95,
  0xc4, 0x29, 0xcc, 0xdb, 0x0f, 0xb4, 0xf0, 0x4f, 0xf8, 0x53, 0xa1, 0x6f,
  0xf2, 0x31, 0xaa, 0x61, 0xb9, 0x07, 0x42, 0xec, 0x52, 0xc5, 0x1d, 0x34,
  0xd7, 0xd8, 0x32, 0x92, 0x2c, 0xf8, 0xb6, 0xe8, 0x14, 0x4c, 0xb2, 0x0f,
  0xd4, 0xb4, 0x0e, 0xf0, 0x93, 0xef, 0xd5, 0x37, 0xfb, 0x10, 0xa7, 0x30,
  0x16, 0xc6, 0x1b, 0x1f, 0xfa, 0xea, 0xfc, 0xea, 0x09, 0xd3, 0xd3, 0x15,
  0x35, 0xcd, 0x43, 0x31, 0xb3, 0xa3, 0x75, 0xe4, 0xc2, 0x21, 0x60, 0x7c,
  0x19, 0xb7, 0xf5, 0x2b, 0x26, 0xc7, 0xa7, 0xfa, 0x34, 0xcb, 0x16, 0x2f,
  0x39, 0x2a, 0x11, 0xa0, 0x00, 0xef, 0x7c, 0xfd, 0x19, 0x60, 0x9d, 0xcf,
  0xac, 0x3d, 0x2b, 0x1d, 0xce, 0x09, 0x59, 0x1b, 0xf5, 0xf1, 0x70, 0x36,
  0xbe, 0x8c, 0x1d, 0x63, 0xbb, 0xed, 0xa0, 0x3a, 0xed, 0x1e, 0xea, 0x53,
  0x6c, 0xf9, 0x6d, 0x2c, 0xa5, 0xf2, 0x99, 0xd7, 0x5d, 0xe1, 0xc6, 0x00,
  0xfb, 0xa2, 0xff, 0x99, 0x1d, 0x3f, 0x26, 0xf0, 0x55, 0x22, 0x23, 0x8d,
  0x1a, 0x1f, 0x3f, 0xb5, 0x03, 0xd5, 0x59, 0x9a, 0x35, 0xe0, 0x14, 0x84,
  0x36, 0xad, 0x05, 0x11, 0xde, 0xc2, 0x38, 0xe7, 0xb0, 0xeb, 0xdf, 0x9b,
  0x06, 0xaa, 0xd3, 0x47, 0x29, 0xcd, 0xf3, 0x19, 0xe9, 0xef, 0xe3, 0xdd,
  0xdd, 0xc8, 0xd5, 0xdb, 0x56, 0x20, 0x45, 0x2f, 0x27, 0x1a, 0x03, 0xed,
  0x25, 0x13, 0x3b, 0xa9, 0x9b, 0xe3, 0x20, 0xc4, 0xcf, 0x3f, 0x2c, 0x2f,
  0xab, 0x26, 0xbc, 0xea, 0x8c, 0x49, 0x2d, 0x40, 0x16, 0x47, 0x2c, 0x43,
  0xa3, 0x19, 0x1b, 0x7c, 0xf5, 0x23, 0xaa, 0x05, 0xa1, 0x11, 0x1d, 0x22,
  0xaf, 0xb0, 0xce, 0x1d, 0x1a, 0x2a, 0xe1, 0x5d, 0x9d, 0xea, 0xcb, 0x42,
  0xe9, 0xca, 0x1b, 0xaa, 0x94, 0x02, 0xcf, 0xe1, 0x1f, 0x63, 0x2f, 0xbc,
  0x09, 0xfc, 0xc4, 0x10, 0x46, 0xf8, 0x14, 0xfc, 0xcf, 0x60, 0x17, 0xb5,
  0x86, 0xfd, 0xf3, 0x1a, 0x9d, 0x2f, 0xc6, 0xd0, 0x36, 0xc2, 0xce, 0x57,
  0x3d, 0xcd, 0x0c, 0x3f, 0x86, 0x8c, 0x14, 0x15, 0x22, 0xfa, 0xa4, 0x59,
  0x08, 0x1d, 0xff, 0x21, 0x33, 0x1a, 0xbe, 0x09, 0xf8, 0xf6, 0x40, 0xa8,
  0x02, 0xeb, 0xec, 0xf9, 0x1b, 0x18, 0x04, 0x32, 0x22, 0xcb, 0xdf, 0xb5,
  0xc5, 0x36, 0x0b, 0xb7, 0x9b, 0x08, 0x59, 0x1b, 0xe2, 0x15, 0xb2, 0xb7,
  0xb2, 0x4b, 0xe4, 0x1e, 0xeb, 0xbc, 0xe2, 0x52, 0x16, 0x1d, 0x75, 0xa9,
  0x51, 0x09, 0x00, 0xae, 0xe9, 0x0d, 0x0a, 0xce, 0x0a, 0x02, 0x37, 0x98,
  0x05, 0xda, 0xda, 0x54, 0xe6, 0x57, 0xd9, 0xe1, 0x19, 0xb8, 0x42, 0xbb,
  0xcc, 0xf6, 0x37, 0x44, 0xbe, 0x48, 0xdc, 0xfa, 0x63, 0x03, 0x27, 0x0b,
  0xfe, 0x42, 0xf8, 0xe3, 0x0c, 0xc8, 0x0d, 0x3f, 0xee, 0xde, 0xdd, 0x01,
  0xd9, 0xfa, 0xb4, 0x14, 0x5d, 0xfe, 0x0c, 0x9b, 0x07, 0xb5, 0x33, 0x13,
  0x24, 0x0c, 0x9f, 0xf8, 0x2e, 0xa3, 0x92, 0x6d, 0x7c, 0xad, 0x0f, 0x87,
  0xeb, 0x2b, 0xfe, 0xc8, 0xac, 0xea, 0xa5, 0xd7, 0x66, 0x66, 0x03, 0x0f,
  0xfa, 0x16, 0x1d, 0x03, 0x1d, 0x29, 0x07, 0x07, 0xc4, 0x16, 0x1b, 0x1e,
  0x10, 0x1b, 0xae, 0xcd, 0xee, 0x2c, 0xd0, 0x07, 0xdd, 0xf9, 0x14, 0x29,
  0xf7, 0xfb, 0xbf, 0xda, 0xd7, 0x73, 0x4b, 0x45, 0x1f, 0x26, 0xb9, 0xaf,
  0x7a, 0xac, 0x44, 0xf8, 0x3d, 0xff, 0x08, 0xf8, 0x2d, 0x5a, 0xf4, 0xd6,
  0x47, 0xb7, 0xe9, 0x2f, 0x52, 0x3f, 0xdc, 0x55, 0x13, 0xff, 0xd4, 0x36,
  0x06, 0xec, 0xf7, 0x59, 0xfe, 0xd9, 0x3b, 0xfb, 0xf3, 0x3d, 0x12, 0x06,
  0x53, 0x2b, 0x17, 0x05, 0xb7, 0xbf, 0x12, 0x33, 0x1f, 0x08, 0xfd, 0x41,
  0x2d, 0x8e, 0x23, 0x16, 0xac, 0x2a, 0x1a, 0x6b, 0x13, 0xc7, 0x27, 0x56,
  0xb7, 0xfa, 0xe6, 0xd0, 0x17, 0xa3, 0xf8, 0xf2, 0xc2, 0x84, 0x12, 0x09,
  0xf3, 0x08, 0x86, 0x92, 0x65, 0x10, 0xcc, 0x0e, 0xd3, 0xd2, 0xd0, 0x2f,
  0xbb, 0x98, 0x1f, 0xfd, 0x12, 0xfd, 0x99, 0x20, 0x2b, 0xd1, 0xea, 0xb9,
  0xe4, 0xd4, 0xfa, 0x11, 0xed, 0x56, 0xc5, 0x24, 0x25, 0x32, 0xf3, 0xca,
  0xae, 0x14, 0xfb, 0x0a, 0x2f, 0xcf, 0x95, 0xea, 0x07, 0x21, 0xc0, 0xd3,
  0xd7, 0xad, 0x3a, 0x11, 0xfa, 0x44, 0xfe, 0xf8, 0xb6, 0xc1, 0xd8, 0x04,
  0xff, 0x81, 0xd5, 0x4a, 0xb4, 0xd1, 0x0c, 0xe7, 0x16, 0xa2, 0xea, 0xe6,
  0x93, 0x25, 0x36, 0x10, 0x69, 0x07, 0x73, 0x2a, 0xc7, 0x18, 0x37, 0x40,
  0x9b, 0xdf, 0xc8, 0x38, 0x90, 0xd0, 0x0b, 0x16, 0xe9, 0xe1, 0x39, 0x03,
  0x28, 0x2e, 0x48, 0x1a, 0xf6, 0xbb, 0x1d, 0x16, 0x7b, 0xd7, 0x95, 0xf2,
  0x01, 0x0f, 0xcf, 0x38, 0x19, 0x05, 0x17, 0x51, 0x49, 0x30, 0xd9, 0xae,
  0x8f, 0x1e, 0x52, 0x0b, 0x4b, 0x62, 0x1f, 0xec, 0xcb, 0x76, 0xd9, 0xec,
  0xe9, 0x85, 0x1b, 0x21, 0x4d, 0x23, 0xd4, 0x1e, 0x2b, 0xce, 0x17, 0x4d,
  0xbb, 0x53, 0xa9, 0x29, 0xe7, 0x15, 0x3e, 0xe9, 0xe9, 0xc8, 0x6b, 0x00,
  0x00, 0x3c, 0x00, 0xf8, 0x84, 0x22, 0xe6, 0x20, 0x07, 0x0e, 0x8b, 0x0b,
  0xa6, 0x0e, 0x40, 0xd5, 0x25, 0x25, 0xd8, 0xac, 0x34, 0x69, 0xe4, 0xcb,
  0xfb, 0x27, 0x54, 0xa2, 0xaf, 0x92, 0x76, 0xd8, 0xe2, 0x0d, 0xf3, 0x0c,
  0x01, 0x12, 0xce, 0xe6, 0x62, 0xfe, 0x1f, 0x29, 0x14, 0x6c, 0x96, 0x86,
  0x02, 0x05, 0x13, 0xfc, 0x43, 0xec, 0x37, 0xfc, 0x86, 0xed, 0x03, 0xfb,
  0x2f, 0x44, 0xe1, 0xc2, 0x2b, 0x42, 0x36, 0x0f, 0x54, 0x33, 0x44, 0x4b,
  0x17, 0x40, 0x8a, 0xed, 0x4c, 0xef, 0xce, 0xaf, 0x3f, 0xbd, 0x76, 0xf0,
  0x01, 0xdb, 0x04, 0x05, 0xcf, 0xdc, 0xd4, 0x20, 0xc0, 0x1e, 0xe1, 0xe5,
  0x0d, 0xde, 0x18, 0x40, 0xd3, 0xe4, 0x59, 0xdd, 0xe5, 0xfc, 0xfe, 0x7f,
  0xce, 0xd2, 0x3c, 0xf0, 0xaf, 0xbb, 0x63, 0xfc, 0x27, 0xc7, 0x28, 0x1e,
  0x07, 0x0b, 0x0f, 0xe1, 0x50, 0x21, 0x0f, 0xcf, 0xf1, 0x0e, 0xba, 0x11,
  0xfb, 0x3b, 0xe0, 0x09, 0x05, 0x21, 0x4e, 0xae, 0xfd, 0x8c, 0x14, 0x58,
  0x35, 0x09, 0xdb, 0x30, 0x0c, 0x21, 0xc6, 0xd2, 0xbf, 0xfb, 0xd9, 0x01,
  0x11, 0xf1, 0xde, 0xc5, 0x18, 0xda, 0x54, 0x26, 0xd5, 0x05, 0xfe, 0xe7,
  0x42, 0x38, 0xd0, 0xed, 0x0f, 0x11, 0xb3, 0xe3, 0x9b, 0x1d, 0xcc, 0xb8,
  0xc5, 0xff, 0x52, 0x10, 0x29, 0xcd, 0xda, 0xf7, 0x9d, 0x28, 0x07, 0x2f,
  0x0b, 0x4f, 0x1c, 0xc3, 0x98, 0xe0, 0xb7, 0x37, 0xdf, 0x56, 0x37, 0x0d,
  0xee, 0x12, 0xc9, 0x13, 0x59, 0xfb, 0xd7, 0xd8, 0xf0, 0xba, 0xdd, 0xe6,
  0x50, 0xd0, 0xed, 0x3e, 0x1e, 0xda, 0x55, 0xe2, 0x24, 0x69, 0x07, 0xfe,
  0xc7, 0xe7, 0xa8, 0x22, 0xca, 0xd6, 0x17, 0xf0, 0xee, 0xa9, 0xcd, 0xeb,
  0x3a, 0xfa, 0x0c, 0xcc, 0x38, 0x02, 0x58, 0x85, 0x1b, 0xdf, 0x83, 0x0c,
  0xe6, 0xe1, 0x32, 0x9f, 0x3f, 0x2e, 0xda, 0xdd, 0xbf, 0x2a, 0x0d, 0x3d,
  0x00, 0xf4, 0x76, 0xe0, 0xc8, 0x8c, 0x28, 0xa4, 0x07, 0xfd, 0x4f, 0xbf,
  0xdf, 0x04, 0x71, 0x33, 0x06, 0xb0, 0x75, 0x08, 0x31, 0x37, 0x1e, 0xc3,
  0x50, 0x17, 0xf9, 0xe9, 0x20, 0x0b, 0x08, 0xcd, 0x01, 0x30, 0xea, 0x08,
  0xe0, 0x14, 0x3b, 0xe4, 0x26, 0x09, 0xbf, 0x34, 0xe4, 0xf8, 0x18, 0x49,
  0xde, 0xda, 0x50, 0xee, 0x01, 0x08, 0x2f, 0xfe, 0xe8, 0x57, 0x5b, 0x3d,
  0x3a, 0xc1, 0xc1, 0xa6, 0x75, 0x4e, 0x9c, 0x75, 0xbc, 0x3d, 0xfc, 0x0b,
  0xe8, 0x9e, 0x9e, 0xd7, 0x37, 0xee, 0xc6, 0xef, 0xdf, 0x88, 0xfb, 0x41,
  0xa2, 0xe3, 0xd5, 0xc0, 0xa3, 0x2a, 0xb6, 0xb7, 0x4d, 0x22, 0xd9, 0xed,
  0x23, 0x11, 0x97, 0xc4, 0xf4, 0xfc, 0xef, 0x1e, 0x2b, 0x52, 0x14, 0xdd,
  0x10, 0x00, 0x56, 0x3f, 0xd6, 0x2b, 0xbc, 0x32, 0xfd, 0xc7, 0xef, 0x0b,
  0xb2, 0xff, 0xeb, 0xdf, 0x17, 0xf9, 0xe6, 0x60, 0x44, 0xb9, 0xd4, 0x42,
  0xce, 0xb4, 0xcd, 0x05, 0x24, 0xfc, 0x56, 0x68, 0xa6, 0x03, 0x07, 0x98,
  0x2f, 0x38, 0x03, 0xf1, 0x20, 0x2e, 0x16, 0xa3, 0x57, 0xfe, 0xe5, 0x4b,
  0xe2, 0xd5, 0x19, 0xda, 0x24, 0x2e, 0x3b, 0xf6, 0x08, 0x37, 0xf4, 0x33,
  0xde, 0x13, 0x9b, 0x19, 0x0d, 0x3e, 0x39, 0x47, 0xfa, 0xde, 0x4e, 0x2b,
  0x04, 0x15, 0x20, 0x43, 0x45, 0xee, 0x83, 0xbf, 0x9e, 0x27, 0xf9, 0xfa,
  0x15, 0xfd, 0x2f, 0xbe, 0x42, 0xf9, 0xcb, 0xd0, 0xbb, 0x29, 0x28, 0xca,
  0xb6, 0xe7, 0xd7, 0x5e, 0xd6, 0xd3, 0xdc, 0x36, 0x17, 0x11, 0x0f, 0x1b,
  0xe6, 0x19, 0x0d, 0x10, 0xfb, 0x55, 0x59, 0x3d, 0x41, 0xf9, 0xc1, 0x03,
  0x31, 0x63, 0x51, 0xd9, 0x69, 0x98, 0xa7, 0x0a, 0x3e, 0x9e, 0xd0, 0x1c,
  0xe8, 0x42, 0x0a, 0xed, 0xe6, 0x3f, 0xe7, 0x21, 0x08, 0x19, 0x38, 0xff,
  0x11, 0xac, 0x00, 0xd0, 0x1f, 0x0e, 0xb5, 0x24, 0x43, 0x05, 0xe8, 0x25,
  0xf2, 0xe6, 0x33, 0x0c, 0x5d, 0xc5, 0x28, 0x87, 0xf8, 0xfe, 0xf4, 0xb1,
  0xdd, 0x28, 0x0f, 0x2d, 0x37, 0x0f, 0x0e, 0x05, 0x9c, 0xeb, 0xc7, 0x3c,
  0x1a, 0x44, 0x20, 0x2c, 0x15, 0xb8, 0x3f, 0x2d, 0xca, 0x7e, 0xdc, 0x15,
  0xf4, 0x1f, 0xc3, 0x5c, 0x05, 0xe9, 0xe7, 0x26, 0x07, 0x76, 0x41, 0xee,
  0x29, 0xcc, 0xa6, 0x5a, 0x2a, 0xff, 0xfd, 0xf9, 0xd8, 0x1c, 0x70, 0xca,
  0x05, 0x00, 0x3a, 0x53, 0xe1, 0xb1, 0x2b, 0x2a, 0x3c, 0x4d, 0x3f, 0xcd,
  0xf7, 0xb8, 0xd6, 0xdc, 0x4b, 0xba, 0xbd, 0xdd, 0x17, 0x0f, 0x56, 0x8a,
  0xc9, 0xae, 0xa6, 0x04, 0xb9, 0xfb, 0x31, 0xca, 0x0e, 0x4b, 0x31, 0xd4,
  0xfb, 0x22, 0x01, 0x26, 0xfa, 0x7f, 0x77, 0x1c, 0x54, 0x04, 0x20, 0x2c,
  0xe0, 0x2c, 0x65, 0x1d, 0x0e, 0xef, 0xa6, 0xea, 0x2e, 0xc6, 0x2c, 0x00,
  0x41, 0x28, 0x58, 0x71, 0x12, 0xa2, 0x50, 0xf0, 0x0e, 0x1f, 0x15, 0xb3,
  0xfa, 0xe4, 0x37, 0x08, 0x2a, 0xe2, 0x9c, 0x59, 0x42, 0x5d, 0xe5, 0xca,
  0xfa, 0x8b, 0xdb, 0x03, 0x05, 0xdc, 0x44, 0x75, 0x2a, 0x2b, 0xf9, 0x95,
  0xc3, 0x25, 0xa8, 0xf0, 0xa3, 0x29, 0x18, 0x53, 0x5b, 0x02, 0x6d, 0x46,
  0x70, 0xac, 0x1c, 0x30, 0xb2, 0xdd, 0xf2, 0x01, 0x33, 0xf0, 0x94, 0x35,
  0x0b, 0x0b, 0x07, 0xe4, 0x1b, 0xfb, 0x10, 0x98, 0xed, 0x36, 0xc6, 0x89,
  0xd4, 0x35, 0x54, 0x32, 0x20, 0xe3, 0x02, 0x5f, 0x1c, 0x12, 0xeb, 0xfb,
  0xc4, 0x23, 0xc8, 0xdc, 0x2d, 0xd5, 0x62, 0xcb, 0xf9, 0x47, 0xe1, 0x17,
  0xde, 0x4f, 0xa1, 0x03, 0x14, 0x1c, 0xb5, 0xb2, 0xd3, 0x92, 0x14, 0x9e,
  0xd7, 0x02, 0xd3, 0x27, 0xfd, 0x12, 0xbd, 0x39, 0x05, 0xe4, 0x48, 0x22,
  0x2b, 0x71, 0x1b, 0xd9, 0x9b, 0x2b, 0x0e, 0x4b, 0x74, 0x7f, 0x14, 0x0f,
  0x78, 0x3c, 0x35, 0x24, 0x1f, 0x09, 0xfb, 0xc9, 0xb1, 0x08, 0x04, 0xed,
  0x01, 0x62, 0x11, 0x0b, 0x4e, 0x09, 0x08, 0x0c, 0xf5, 0x9a, 0x23, 0xb3,
  0x3c, 0x62, 0x3a, 0x36, 0x43, 0x00, 0xc4, 0xa4, 0x90, 0x04, 0x0f, 0xfc,
  0xef, 0x0a, 0x48, 0x26, 0x58, 0xd5, 0xf5, 0xb6, 0xb0, 0xf8, 0xc8, 0xf2,
  0xdd, 0x2a, 0x0e, 0xb6, 0x01, 0xc8, 0x4b, 0xa8, 0x25, 0x13, 0x2b, 0xee,
  0x27, 0x1f, 0x06, 0xf1, 0xe5, 0xac, 0x07, 0x2b, 0x22, 0xf3, 0xf8, 0x14,
  0x1c, 0x01, 0x21, 0xef, 0xe0, 0xf2, 0xa4, 0xc6, 0xed, 0xde, 0x07, 0x55,
  0x29, 0xae, 0xca, 0x32, 0xd6, 0x07, 0x2f, 0x22, 0xed, 0xbe, 0xda, 0xae,
  0x9f, 0x03, 0xb7, 0x79, 0x6b, 0x26, 0x01, 0xee, 0x1b, 0xce, 0x27, 0x20,
  0xcd, 0xaa, 0x73, 0xc2, 0x19, 0xf2, 0xe3, 0xec, 0xf1, 0x3a, 0x2a, 0x7e,
  0x0f, 0x21, 0x3d, 0x1c, 0xe3, 0x1f, 0xad, 0x1a, 0xed, 0x1a, 0xd0, 0xd4,
  0x8d, 0xad, 0x2f, 0x23, 0x5f, 0x45, 0xe8, 0xfa, 0xe9, 0x16, 0x1f, 0xec,
  0x35, 0xfe, 0x06, 0xeb, 0x36, 0x1b, 0xd8, 0xeb, 0x93, 0x4a, 0x4a, 0x2e,
  0xec, 0xd7, 0xf1, 0x96, 0x35, 0xf6, 0xb6, 0x0e, 0xd0, 0xf3, 0xc7, 0xcb,
  0x05, 0x2f, 0x7a, 0xe5, 0xd6, 0x06, 0xee, 0x63, 0x2a, 0x23, 0x7e, 0xef,
  0x25, 0xfc, 0xf1, 0xaf, 0x02, 0x0f, 0x2c, 0xfe, 0x2a, 0x16, 0x9b, 0x18,
  0x16, 0x78, 0xcf, 0xc2, 0xd7, 0xd0, 0xfa, 0x81, 0x17, 0x5d, 0xbb, 0xe2,
  0x2d, 0xd7, 0x21, 0xd7, 0xc0, 0xe9, 0x44, 0x49, 0x62, 0xa1, 0x84, 0xcc,
  0x1b, 0xfd, 0xee, 0x62, 0xcf, 0x27, 0x43, 0xdd, 0x02, 0xb0, 0x31, 0xf1,
  0x0e, 0x17, 0x47, 0x2d, 0x29, 0x27, 0x04, 0x2b, 0x2d, 0x03, 0x1d, 0x41,
  0xe7, 0x0b, 0x3c, 0xe8, 0x23, 0xbb, 0x8d, 0x14, 0xe0, 0xfb, 0xf1, 0x1c,
  0x0a, 0x45, 0xf8, 0x17, 0x41, 0xe5, 0x2a, 0xf0, 0xf9, 0xce, 0x32, 0xd4,
  0xfe, 0x8e, 0xa1, 0xed, 0xdd, 0x70, 0xee, 0x49, 0x4d, 0x1a, 0x0a, 0x32,
  0x53, 0xca, 0x96, 0xe6, 0x23, 0x24, 0x4b, 0xf9, 0x07, 0x25, 0xe0, 0x53,
  0xe1, 0xcb, 0x18, 0x22, 0xd9, 0xe8, 0xde, 0xce, 0x15, 0x18, 0xf8, 0x12,
  0x50, 0x0b, 0x46, 0xea, 0x47, 0xfe, 0xe8, 0x14, 0x06, 0xe5, 0xf9, 0xc6,
  0x11, 0x32, 0x0e, 0x1c, 0x8e, 0x01, 0x0e, 0xd3, 0x04, 0x11, 0x5a, 0x43,
  0xd7, 0xf8, 0xa1, 0x8c, 0xcd, 0x3b, 0xd7, 0x03, 0xf0, 0xed, 0xb8, 0xf1,
  0x3c, 0x0a, 0x04, 0xcc, 0x3b, 0x12, 0x16, 0x57, 0x84, 0xc4, 0xc2, 0x66,
  0x5f, 0xf9, 0xf6, 0xe0, 0xae, 0xcd, 0x6d, 0xbf, 0x45, 0x6f, 0x4f, 0x04,
  0xe2, 0xde, 0x0a, 0xec, 0xe8, 0xc8, 0xf9, 0x25, 0x0f, 0x59, 0x0e, 0xff,
  0xb7, 0xe4, 0xd5, 0xef, 0x7d, 0xf5, 0x0c, 0x04, 0xbd, 0x10, 0xbd, 0x25,
  0xdd, 0xe4, 0xfb, 0x02, 0xb4, 0x4e, 0xe7, 0x0d, 0xe4, 0xb8, 0xe8, 0x43,
  0xf5, 0xe9, 0xfb, 0xe0, 0x14, 0x23, 0x63, 0xd2, 0x68, 0x3c, 0x25, 0xfb,
  0x35, 0x3a, 0x6c, 0x89, 0x2c, 0xf0, 0x09, 0x37, 0x6a, 0x0f, 0x44, 0x4b,
  0x4e, 0x3b, 0x49, 0x59, 0x07, 0x0b, 0x30, 0x5b, 0x1c, 0x54, 0x3e, 0xb9,
  0x39, 0x2a, 0x11, 0xe1, 0xdd, 0xa8, 0xd6, 0x5e, 0xd8, 0xd4, 0x1e, 0xf3,
  0x0b, 0x97, 0x3a, 0xcb, 0x98, 0xeb, 0xed, 0x79, 0xe8, 0x27, 0xe9, 0x22,
  0xba, 0x08, 0x73, 0xef, 0x3a, 0xd9, 0x3c, 0x90, 0x1f, 0xed, 0x12, 0x33,
  0xff, 0x3d, 0x27, 0x02, 0xfc, 0x4b, 0x2c, 0x3e, 0xe0, 0x39, 0x1d, 0x39,
  0x13, 0x52, 0x64, 0xe5, 0xc9, 0x63, 0x20, 0xcc, 0x3a, 0x0f, 0xfa, 0xbb,
  0x4e, 0x60, 0xdd, 0xff, 0xdd, 0x9e, 0xa1, 0x5d, 0xec, 0xcd, 0xb7, 0xdc,
  0xfb, 0x42, 0xec, 0x23, 0x9f, 0xcb, 0xf2, 0x5e, 0x28, 0x15, 0x01, 0x28,
  0xfb, 0x1a, 0xb7, 0x32, 0xc4, 0x19, 0x20, 0xd9, 0xde, 0xf0, 0x30, 0xfa,
  0xe6, 0xad, 0xb9, 0xd1, 0x16, 0x65, 0x19, 0xbc, 0xcd, 0xc5, 0xb5, 0x1f,
  0x6f, 0x29, 0xfe, 0xd8, 0x1b, 0xd6, 0xf3, 0xc6, 0xb5, 0xb3, 0xd0, 0xe9,
  0x93, 0x33, 0x1c, 0x26, 0xab, 0x60, 0xd0, 0x1a, 0x09, 0xd2, 0x12, 0x6e,
  0x4c, 0x15, 0xff, 0xde, 0x08, 0x1e, 0xa8, 0x39, 0x39, 0xff, 0xfe, 0x1b,
  0x4f, 0x1c, 0x7b, 0x0f, 0x55, 0xbd, 0xd6, 0xfe, 0xbf, 0x0e, 0x0f, 0x9a,
  0x32, 0xc2, 0x27, 0x29, 0xa3, 0x5f, 0x21, 0x0f, 0x68, 0x3d, 0x35, 0xe4,
  0xe5, 0xbf, 0x5f, 0xae, 0xfc, 0x94, 0xcc, 0x23, 0xff, 0x3c, 0xdb, 0x1e,
  0x43, 0xf6, 0x32, 0xb7, 0x43, 0xe6, 0x33, 0x24, 0xe1, 0x46, 0x2c, 0x3f,
  0x45, 0x53, 0xf0, 0x03, 0x58, 0x4c, 0x2f, 0xdf, 0xa7, 0xf7, 0xe5, 0xed,
  0xac, 0xb8, 0x0a, 0xe0, 0x60, 0x37, 0xf7, 0xd1, 0xb9, 0x1e, 0x3d, 0x3e,
  0x34, 0xd5, 0xb0, 0x47, 0x68, 0x53, 0xff, 0x33, 0xc4, 0x19, 0x0d, 0x0d,
  0x21, 0x3a, 0x9b, 0xb8, 0x2b, 0x19, 0xaf, 0x20, 0xcc, 0x5e, 0x43, 0x6c,
  0xb2, 0x81, 0xef, 0xd0, 0xee, 0xdd, 0x07, 0xec, 0x38, 0xae, 0xd1, 0xde,
  0x06, 0xcc, 0x1c, 0x83, 0x98, 0x04, 0x5f, 0xb7, 0x1c, 0x3f, 0x42, 0x35,
  0x03, 0xc7, 0x2d, 0xdd, 0xee, 0xe7, 0x36, 0x58, 0x31, 0xd3, 0xb9, 0xf8,
  0xd5, 0x31, 0xf1, 0xd8, 0xb6, 0x17, 0x68, 0x4a, 0x0c, 0x20, 0xd5, 0x45,
  0xfd, 0xd9, 0x1a, 0xfe, 0x9e, 0x08, 0xcd, 0xe1, 0xf2, 0xef, 0x18, 0x42,
  0xe9, 0xd8, 0xb1, 0xd2, 0x66, 0xb2, 0x40, 0x08, 0x01, 0x59, 0x45, 0xee,
  0x01, 0xb3, 0x1b, 0x26, 0x8a, 0xf3, 0xcd, 0xb0, 0xce, 0x22, 0x07, 0xe9,
  0x23, 0x08, 0x5a, 0xd9, 0x5d, 0x0a, 0x2e, 0x04, 0x68, 0xee, 0x9e, 0xf9,
  0x1b, 0xfb, 0xe2, 0x18, 0xff, 0x26, 0x36, 0xca, 0x20, 0x08, 0x8a, 0xa9,
  0xe7, 0x03, 0xd5, 0x89, 0xd8, 0x33, 0x13, 0x58, 0xc3, 0x0b, 0x22, 0xda,
  0x44, 0xda, 0x0f, 0x2c, 0xd6, 0x13, 0xbf, 0x3d, 0xfb, 0xd0, 0x08, 0x74,
  0x8f, 0x05, 0x1b, 0x5b, 0xfa, 0x2c, 0xf9, 0xc3, 0xc3, 0xd1, 0x2b, 0xe9,
  0xc9, 0x06, 0xd5, 0xf9, 0x4e, 0xd4, 0x16, 0xf3, 0xfe, 0xae, 0xf5, 0x68,
  0x8b, 0x69, 0x1d, 0xe9, 0xf2, 0xb7, 0xd6, 0xe0, 0x3a, 0x26, 0xd7, 0x0a,
  0x7f, 0xd3, 0xe7, 0xed, 0xc9, 0x4b, 0xf8, 0x14, 0xc6, 0xc8, 0x5b, 0x69,
  0xf1, 0xc5, 0x9e, 0xdf, 0x92, 0x44, 0xb9, 0x20, 0x17, 0x54, 0x4a, 0x01,
  0x6e, 0xbe, 0xbe, 0xa9, 0x5c, 0x24, 0x38, 0x96, 0x82, 0x4e, 0x3d, 0x67,
  0xa3, 0x0e, 0x41, 0xca, 0x54, 0xf0, 0xf5, 0xd7, 0xec, 0xb8, 0xdc, 0x06,
  0x1e, 0xbc, 0xa2, 0x0b, 0xce, 0x56, 0xac, 0xed, 0xe3, 0x27, 0xfd, 0x03,
  0x7d, 0xef, 0x04, 0x5b, 0x15, 0x37, 0xbb, 0x2f, 0x28, 0x1b, 0x0b, 0x51,
  0x4a, 0xa8, 0x10, 0x66, 0x96, 0xa8, 0xee, 0x38, 0xce, 0x0d, 0x41, 0x32,
  0xf7, 0xec, 0x30, 0x30, 0x54, 0x1a, 0x11, 0x07, 0x29, 0x41, 0xc4, 0xe9,
  0xa4, 0x6f, 0x0e, 0x11, 0x0a, 0x25, 0xa3, 0xfb, 0xe9, 0x08, 0x41, 0x2e,
  0x33, 0x06, 0x54, 0x61, 0xf5, 0xf6, 0xfb, 0xab, 0x36, 0x46, 0xe1, 0x4a,
  0x70, 0x0c, 0x60, 0x26, 0xab, 0xd4, 0x47, 0x0a, 0x2e, 0xbd, 0x1d, 0x13,
  0x23, 0x45, 0xed, 0x34, 0x5b, 0x23, 0xe6, 0xf1, 0x2d, 0x53, 0x01, 0xf9,
  0x21, 0xe3, 0xe9, 0xec, 0x21, 0xcd, 0x1e, 0xc3, 0xc9, 0xcf, 0x1c, 0xe8,
  0x34, 0xf1, 0xfd, 0xdb, 0x99, 0x17, 0xf4, 0x3c, 0x06, 0x93, 0x9f, 0x94,
  0xf3, 0x27, 0x77, 0xdb, 0x31, 0x3c, 0x08, 0x25, 0x15, 0x47, 0xea, 0xfd,
  0xc6, 0x15, 0x09, 0x2a, 0x0d, 0x08, 0x06, 0xfd, 0x00, 0x59, 0x47, 0xca,
  0x6f, 0xb8, 0x1f, 0xf8, 0xf1, 0x4d, 0x29, 0x46, 0xf4, 0xef, 0xe4, 0xe5,
  0xf3, 0xfc, 0xf3, 0x55, 0xd6, 0x0d, 0x43, 0xb7, 0xf3, 0xb7, 0x15, 0xa4,
  0x11, 0x6d, 0x27, 0xe6, 0x08, 0xd3, 0x5c, 0x24, 0xd1, 0x12, 0xe3, 0xf1,
  0xef, 0x33, 0x38, 0xa0, 0x2a, 0x38, 0xc9, 0xaf, 0xfb, 0x3a, 0x29, 0xe4,
  0x1a, 0x04, 0x17, 0x0a, 0x26, 0xde, 0x23, 0x25, 0xf1, 0xf9, 0x6e, 0x2e,
  0xec, 0x15, 0xc0, 0x0f, 0xc6, 0xde, 0xf8, 0x1b, 0x56, 0x35, 0xec, 0xc2,
  0xde, 0x37, 0xa2, 0x5a, 0xb7, 0xdf, 0xd8, 0xe8, 0x2d, 0x7c, 0x08, 0x4c,
  0xe6, 0x02, 0xdf, 0x27, 0xe0, 0x71, 0x22, 0xc0, 0x51, 0x46, 0x14, 0xe0,
  0x32, 0x65, 0xf8, 0x50, 0x97, 0xe0, 0xc5, 0x30, 0x35, 0x04, 0x12, 0xd4,
  0xcc, 0x0f, 0x23, 0x46, 0x91, 0xdf, 0xf8, 0xce, 0xb1, 0xd3, 0x8c, 0x01,
  0x9d, 0xc5, 0x54, 0x5e, 0xdd, 0x68, 0x21, 0x58, 0x13, 0xec, 0x2c, 0x3f,
  0xb8, 0xea, 0xe6, 0x47, 0x59, 0xb6, 0xd0, 0x3a, 0xc8, 0x01, 0xed, 0x2d,
  0x57, 0xe3, 0x07, 0x41, 0x58, 0x54, 0xf7, 0x38, 0xe3, 0xe8, 0x06, 0x0c,
  0xd1, 0xd4, 0xe1, 0x53, 0x30, 0xe8, 0x94, 0x40, 0x01, 0xe1, 0x2f, 0x0f,
  0x13, 0x2a, 0x2a, 0x0c, 0xd0, 0xb8, 0x2d, 0x22, 0xe6, 0xe8, 0x11, 0xbd,
  0xd5, 0x4c, 0x0c, 0xe8, 0xc5, 0x36, 0xab, 0x13, 0x1f, 0x11, 0xd9, 0x12,
  0xc2, 0x02, 0xc1, 0xce, 0x11, 0xe0, 0x10, 0x91, 0xc0, 0x44, 0x16, 0x15,
  0x10, 0x3c, 0xdb, 0x28, 0xe7, 0x0e, 0x5f, 0xea, 0xe6, 0xf8, 0xeb, 0x36,
  0xd3, 0x10, 0x18, 0xee, 0x65, 0x44, 0x82, 0xd5, 0xdd, 0xdc, 0x31, 0xb3,
  0xee, 0x5c, 0x03, 0xec, 0x6c, 0x33, 0x21, 0x28, 0x61, 0xcc, 0xcb, 0x5b,
  0x50, 0xe8, 0x48, 0xd7, 0x52, 0xe1, 0xe8, 0x08, 0xfc, 0x4c, 0x3d, 0x3a,
  0x27, 0x09, 0x22, 0x24, 0x51, 0xc8, 0x8b, 0x04, 0xd6, 0x9a, 0xd5, 0x33,
  0xc2, 0x00, 0xde, 0xd7, 0x0c, 0xdc, 0x02, 0xcd, 0x1e, 0x24, 0x06, 0xb8,
  0xbf, 0x29, 0xda, 0xbb, 0xfd, 0xba, 0x39, 0xee, 0xe7, 0x02, 0xe9, 0x1e,
  0x2a, 0x02, 0xf7, 0x52, 0xf5, 0x1d, 0xca, 0x83, 0x1c, 0x25, 0x33, 0x41,
  0x52, 0xca, 0x1a, 0x15, 0xf5, 0xcb, 0xd8, 0x39, 0x20, 0x0f, 0x5b, 0x34,
  0xf9, 0x0c, 0xde, 0x9d, 0x25, 0xf9, 0x2e, 0x5e, 0x0f, 0xfc, 0x43, 0x7c,
  0xdd, 0xde, 0xbb, 0x26, 0x49, 0x22, 0x0a, 0x4a, 0xcc, 0xea, 0xe1, 0xc2,
  0x04, 0xe3, 0xd6, 0x0f, 0x27, 0xc0, 0x5e, 0x04, 0x1d, 0xd1, 0x10, 0x0b,
  0x2b, 0xff, 0x09, 0xd5, 0xec, 0x94, 0xe0, 0x4f, 0xe6, 0xf8, 0x36, 0xdc,
  0x18, 0x10, 0x10, 0xd9, 0xa3, 0x03, 0xfd, 0x9f, 0x47, 0x29, 0xea, 0x09,
  0xf5, 0x9a, 0x9b, 0x36, 0xd0, 0xf4, 0x1e, 0xbe, 0x15, 0x0b, 0xbd, 0xf7,
  0x3b, 0xb5, 0x5a, 0xe6, 0x85, 0x07, 0xe2, 0x63, 0x2d, 0xf6, 0x34, 0xeb,
  0xcc, 0x1d, 0xe5, 0x2c, 0xb0, 0x14, 0x8a, 0x2f, 0x3e, 0x14, 0xdf, 0x18,
  0xdd, 0x68, 0xd0, 0xe9, 0xb3, 0x3a, 0xb3, 0xbb, 0xfe, 0xe6, 0xc0, 0x34,
  0x89, 0xc2, 0x03, 0x5f, 0x30, 0xcc, 0x5c, 0x1c, 0x0b, 0x3c, 0x7f, 0x60,
  0xde, 0xf1, 0xcd, 0xb8, 0x36, 0x63, 0x35, 0xcf, 0x0c, 0x3e, 0xf4, 0xe6,
  0xd7, 0xc1, 0xa2, 0x65, 0xca, 0x87, 0xce, 0xdb, 0xf4, 0x5d, 0xf5, 0xfa,
  0xbb, 0xe3, 0xbd, 0xce, 0x56, 0xf7, 0xd2, 0x5c, 0xd4, 0x42, 0x9e, 0xdd,
  0x5d, 0x1c, 0xe9, 0x08, 0x05, 0x07, 0xba, 0x00, 0x13, 0x1b, 0xe9, 0x18,
  0x28, 0xda, 0xf5, 0x66, 0xc2, 0x32, 0x3f, 0xc1, 0x63, 0x90, 0xa1, 0x5a,
  0xb7, 0x24, 0x15, 0x46, 0xe7, 0xd2, 0xe4, 0x65, 0xfd, 0xf4, 0xd0, 0x02,
  0xf2, 0x3a, 0x33, 0x64, 0x45, 0xc6, 0xd1, 0x29, 0x9c, 0xce, 0x7a, 0xbf,
  0xca, 0xdc, 0xf7, 0xe1, 0xb6, 0xdd, 0x3a, 0x00, 0x08, 0x02, 0x45, 0x02,
  0xf7, 0x8d, 0xf1, 0x23, 0x24, 0x31, 0x05, 0x56, 0x16, 0x76, 0xd7, 0xf0,
  0xa3, 0x3f, 0x08, 0x0d, 0xb9, 0xaa, 0x54, 0x3b, 0x8a, 0xc6, 0xe4, 0x32,
  0xfc, 0xba, 0x54, 0xca, 0xf0, 0x1a, 0xd0, 0xfa, 0x68, 0xc4, 0x1e, 0xd9,
  0xdd, 0xc5, 0x0d, 0x2c, 0xc4, 0xbe, 0x05, 0x76, 0xdc, 0xf7, 0x5b, 0x4d,
  0x4c, 0x57, 0x2a, 0x0c, 0x4e, 0x12, 0x8b, 0x17, 0xba, 0xe9, 0x55, 0x4a,
  0xf8, 0xd9, 0x5f, 0xfd, 0xde, 0x12, 0xbe, 0x2e, 0x02, 0xb6, 0x71, 0xf5,
  0x34, 0x35, 0xd4, 0x2f, 0x08, 0x3c, 0x28, 0xc5, 0xd4, 0xf9, 0x0d, 0xa1,
  0x8d, 0xd8, 0x37, 0xae, 0x3e, 0x4e, 0x06, 0xc1, 0x17, 0x4c, 0xf9, 0xfe,
  0xd5, 0xfa, 0xbc, 0xfe, 0x54, 0x2f, 0xaa, 0xca, 0x30, 0xed, 0xec, 0x24,
  0x12, 0xc9, 0x38, 0x08, 0xb7, 0x0b, 0x22, 0xde, 0x76, 0x42, 0x47, 0x38,
  0xf4, 0xaf, 0x1a, 0xee, 0xc3, 0x32, 0x2e, 0x64, 0x12, 0x3c, 0x5d, 0x32,
  0x42, 0x8b, 0x57, 0xec, 0xe6, 0x20, 0x21, 0x54, 0x34, 0x10, 0xac, 0xd9,
  0x4b, 0xb4, 0xb8, 0x5d, 0x15, 0xfe, 0xde, 0xd6, 0xf1, 0xf8, 0x3e, 0x1e,
  0x47, 0x31, 0xf0, 0x88, 0x0c, 0x17, 0x30, 0xd2, 0xe9, 0xf1, 0x34, 0x07,
  0xbb, 0xed, 0xaa, 0xc1, 0xd3, 0x1b, 0x25, 0x3d, 0x0e, 0xb5, 0xd0, 0x47,
  0x3b, 0xe0, 0x0b, 0x1b, 0x31, 0x97, 0xe8, 0xc2, 0xe8, 0xf0, 0xfa, 0xca,
  0x3e, 0x71, 0x59, 0xd6, 0x3f, 0xfe, 0x65, 0x7f, 0x9b, 0x20, 0x13, 0x03,
  0x52, 0xe2, 0x81, 0x3c, 0x0c, 0x28, 0x3e, 0x40, 0x00, 0xc0, 0xb4, 0x08,
  0x10, 0x38, 0xbc, 0xf7, 0x1e, 0x0c, 0xe1, 0x06, 0xc9, 0x46, 0x2e, 0xef,
  0x07, 0x40, 0xc7, 0x1e, 0x1c, 0xe9, 0xda, 0xe3, 0xb2, 0xfc, 0xe8, 0xff,
  0xe9, 0x74, 0x02, 0xd9, 0x85, 0x12, 0x10, 0xbc, 0xcc, 0xb2, 0x27, 0x59,
  0x13, 0xfd, 0x95, 0x04, 0x12, 0xeb, 0xc8, 0xfb, 0x07, 0x00, 0x01, 0x03,
  0xb0, 0x5b, 0xa1, 0x7d, 0xfb, 0x1a, 0xf8, 0xcf, 0xe5, 0x05, 0x26, 0xd2,
  0x71, 0x32, 0xce, 0x79, 0x12, 0x7a, 0xf5, 0x70, 0xaf, 0xd0, 0x29, 0xdc,
  0x38, 0xcf, 0x3b, 0x15, 0x0a, 0xac, 0xb7, 0x06, 0xdb, 0x62, 0xa3, 0xe7,
  0xd9, 0xd7, 0x19, 0xc0, 0x23, 0xad, 0xe9, 0x1c, 0xea, 0x20, 0xf5, 0xfe,
  0x12, 0xf5, 0xf0, 0x1b, 0x1e, 0x40, 0xb5, 0x11, 0xea, 0xaf, 0x51, 0x04,
  0xf0, 0x09, 0x3e, 0xee, 0xd5, 0xe7, 0x11, 0x3c, 0xd1, 0xb9, 0xcc, 0x2d,
  0xce, 0xc4, 0xf8, 0x01, 0x24, 0xae, 0xb9, 0xde, 0xa7, 0x9a, 0x1f, 0x9d,
  0xbe, 0xdb, 0xb4, 0x05, 0x45, 0x69, 0x5c, 0xc0, 0x45, 0xc6, 0x11, 0xd1,
  0xf3, 0xa6, 0xb4, 0x36, 0x21, 0x21, 0x2c, 0x03, 0x04, 0x61, 0x24, 0x68,
  0xa1, 0xe2, 0xd3, 0x91, 0x00, 0x00, 0x28, 0xbb, 0xea, 0xe0, 0x02, 0x1a,
  0x3a, 0x0a, 0x2e, 0x59, 0xc6, 0xdf, 0x05, 0xe1, 0x9e, 0xb4, 0xa7, 0x9e,
  0xaa, 0x21, 0xab, 0xdd, 0x3f, 0x56, 0x0c, 0xcc, 0xda, 0xe3, 0x2f, 0xe8,
  0x10, 0xee, 0x67, 0xf1, 0xc2, 0x58, 0xd5, 0x03, 0xad, 0xde, 0x13, 0x52,
  0xce, 0xd7, 0xfd, 0x78, 0xf9, 0x49, 0x79, 0x23, 0x32, 0x08, 0x26, 0x49,
  0x1f, 0xa8, 0xfc, 0xc6, 0x83, 0x44, 0x23, 0x42, 0xfd, 0x38, 0xe6, 0xb5,
  0x1a, 0x2e, 0x14, 0x37, 0x1f, 0xc0, 0xe9, 0x10, 0x50, 0xa6, 0x04, 0x08,
  0x3f, 0xbc, 0x01, 0x71, 0xf9, 0x69, 0xfc, 0x00, 0x32, 0x39, 0x77, 0x52,
  0xc0, 0x31, 0xc7, 0xc5, 0xf4, 0x13, 0x51, 0xf5, 0xc6, 0xf8, 0x06, 0x21,
  0xb9, 0x54, 0xd9, 0xf9, 0xe3, 0x56, 0xfd, 0x13, 0xbe, 0x44, 0x1f, 0x1e,
  0x00, 0x3a, 0x65, 0x3a, 0xa3, 0x02, 0x52, 0x93, 0x62, 0xdc, 0x1e, 0xa9,
  0xc3, 0x3a, 0x7e, 0xbe, 0xf5, 0x4c, 0x15, 0x49, 0x24, 0x1a, 0x18, 0xea,
  0x63, 0xe4, 0x85, 0x25, 0xda, 0x28, 0x09, 0x17, 0xd5, 0x46, 0x40, 0x02,
  0xfd, 0x92, 0xff, 0xfd, 0xfa, 0x2a, 0xab, 0x07, 0x06, 0xa3, 0x4d, 0x1d,
  0x21, 0xf6, 0x39, 0xbc, 0xdc, 0xdf, 0xe2, 0x18, 0x0d, 0x7a, 0x16, 0xb6,
  0x7f, 0x0f, 0x92, 0xcf, 0xcf, 0x53, 0xc3, 0x2e, 0xc7, 0xb2, 0x3b, 0xc7,
  0xf5, 0xe8, 0xc6, 0xeb, 0x0f, 0x51, 0x16, 0x00, 0xfc, 0x55, 0xae, 0x27,
  0x8c, 0xbb, 0xb5, 0x3f, 0xfb, 0xe1, 0xec, 0x33, 0xf8, 0x04, 0x51, 0x21,
  0xcf, 0x16, 0x62, 0x00, 0x2c, 0xed, 0x20, 0xa9, 0x14, 0xe7, 0x29, 0x93,
  0xe6, 0xed, 0xec, 0x67, 0x74, 0x0c, 0xf8, 0x1a, 0x9d, 0x42, 0xea, 0x29,
  0x07, 0x4f, 0xb7, 0x53, 0xc5, 0xf7, 0xcc, 0xc5, 0x43, 0xb3, 0x17, 0x28,
  0x11, 0xce, 0x00, 0xdc, 0xc0, 0x11, 0xf1, 0xe3, 0x02, 0x0c, 0x4e, 0x56,
  0x12, 0x57, 0x3c, 0xc4, 0x07, 0xc2, 0x47, 0x0d, 0x6d, 0x3a, 0x38, 0xf0,
  0xf5, 0x23, 0xe5, 0x3c, 0xd3, 0x1c, 0x17, 0x14, 0x1f, 0xa5, 0xd4, 0x1e,
  0xb6, 0x2f, 0x49, 0xf8, 0x3d, 0x8f, 0x6d, 0x1e, 0xfe, 0x20, 0x12, 0xc7,
  0xd1, 0xab, 0xe1, 0xdd, 0x0e, 0xb5, 0x8a, 0xfe, 0xf2, 0x03, 0xc6, 0x0f,
  0xc1, 0x44, 0xc6, 0xc6, 0xd7, 0xf0, 0xb7, 0x21, 0xd7, 0xdb, 0xd4, 0xe1,
  0x30, 0xce, 0xcc, 0xd9, 0xc2, 0xd2, 0x28, 0x90, 0x2c, 0x0a, 0x00, 0x22,
  0xd0, 0x5c, 0x18, 0xde, 0xea, 0xf3, 0xda, 0x01, 0xda, 0xee, 0xe6, 0x2a,
  0x33, 0xda, 0xe6, 0x38, 0x2a, 0x07, 0x40, 0xe4, 0xac, 0x15, 0xc0, 0xde,
  0xa5, 0xd1, 0xde, 0xea, 0x28, 0xe6, 0xbf, 0x16, 0x83, 0x3f, 0xfe, 0x3d,
  0xc1, 0x56, 0xc5, 0x34, 0xc8, 0x0d, 0x2d, 0x95, 0xfe, 0xcb, 0x29, 0x0d,
  0xd5, 0xc4, 0x20, 0x12, 0xde, 0x0e, 0x16, 0xf1, 0x49, 0x8a, 0xc2, 0x19,
  0xfb, 0x92, 0xce, 0xe9, 0xce, 0x03, 0xb2, 0xe8, 0x1a, 0xf0, 0xde, 0x28,
  0xf2, 0xce, 0x6b, 0xe1, 0x68, 0x26, 0xf2, 0x23, 0x36, 0x4a, 0x41, 0x08,
  0x26, 0xfd, 0xef, 0xef, 0x4b, 0xd0, 0x16, 0x0c, 0x31, 0xef, 0x69, 0xea,
  0xfe, 0xfd, 0xff, 0xff, 0x04, 0x00, 0x00, 0x00, 0x20, 0x00, 0x00, 0x00,
  0xfe, 0xff, 0xff, 0xff, 0x00, 0x00, 0x00, 0x00, 0x00, 0x00, 0x00, 0x00,
  0xff, 0xff, 0xff, 0xff, 0xff, 0xff, 0xff, 0xff, 0x00, 0x00, 0x00, 0x00,
  0x00, 0x00, 0x00, 0x00, 0x02, 0x00, 0x00, 0x00, 0x0c, 0xfa, 0xff, 0xff,
  0x0f, 0x00, 0x00, 0x00, 0x54, 0x4f, 0x43, 0x4f, 0x20, 0x43, 0x6f, 0x6e,
  0x76, 0x65, 0x72, 0x74, 0x65, 0x64, 0x2e, 0x00, 0x01, 0x00, 0x00, 0x00,
  0x04, 0x00, 0x00, 0x00, 0x24, 0xf8, 0xff, 0xff, 0xf8, 0x01, 0x00, 0x00,
  0xec, 0x01, 0x00, 0x00, 0xe0, 0x01, 0x00, 0x00, 0x04, 0x00, 0x00, 0x00,
  0x06, 0x00, 0x00, 0x00, 0x84, 0x01, 0x00, 0x00, 0x1c, 0x01, 0x00, 0x00,
  0xd0, 0x00, 0x00, 0x00, 0x80, 0x00, 0x00, 0x00, 0x48, 0x00, 0x00, 0x00,
  0x04, 0x00, 0x00, 0x00, 0xce, 0xff, 0xff, 0xff, 0x00, 0x00, 0x00, 0x09,
  0x04, 0x00, 0x00, 0x00, 0x1c, 0x00, 0x00, 0x00, 0x10, 0x00, 0x00, 0x00,
  0x04, 0x00, 0x00, 0x00, 0x92, 0xfe, 0xff, 0xff, 0x00, 0x00, 0x80, 0x3f,
  0x01, 0x00, 0x00, 0x00, 0x0d, 0x00, 0x00, 0x00, 0x01, 0x00, 0x00, 0x00,
  0x0a, 0x00, 0x00, 0x00, 0x00, 0x00, 0x0e, 0x00, 0x18, 0x00, 0x08, 0x00,
  0x0c, 0x00, 0x10, 0x00, 0x07, 0x00, 0x14, 0x00, 0x0e, 0x00, 0x00, 0x00,
  0x00, 0x00, 0x00, 0x08, 0x02, 0x00, 0x00, 0x00, 0x18, 0x00, 0x00, 0x00,
  0x0c, 0x00, 0x00, 0x00, 0x04, 0x00, 0x00, 0x00, 0xb4, 0xfa, 0xff, 0xff,
  0x01, 0x00, 0x00, 0x00, 0x0a, 0x00, 0x00, 0x00, 0x03, 0x00, 0x00, 0x00,
  0x06, 0x00, 0x00, 0x00, 0x0b, 0x00, 0x00, 0x00, 0x03, 0x00, 0x00, 0x00,
  0xc2, 0xff, 0xff, 0xff, 0x00, 0x00, 0x00, 0x01, 0x24, 0x00, 0x00, 0x00,
  0x18, 0x00, 0x00, 0x00, 0x04, 0x00, 0x00, 0x00, 0xb4, 0xff, 0xff, 0xff,
  0x00, 0x00, 0x00, 0x01, 0x08, 0x00, 0x00, 0x00, 0x08, 0x00, 0x00, 0x00,
  0x01, 0x00, 0x00, 0x00, 0x06, 0x00, 0x00, 0x00, 0x03, 0x00, 0x00, 0x00,
  0x05, 0x00, 0x00, 0x00, 0x0f, 0x00, 0x00, 0x00, 0x01, 0x00, 0x00, 0x00,
  0x00, 0x00, 0x0e, 0x00, 0x14, 0x00, 0x00, 0x00, 0x08, 0x00, 0x0c, 0x00,
  0x07, 0x00, 0x10, 0x00, 0x0e, 0x00, 0x00, 0x00, 0x00, 0x00, 0x00, 0x01,
  0x30, 0x00, 0x00, 0x00, 0x24, 0x00, 0x00, 0x00, 0x10, 0x00, 0x00, 0x00,
  0x0c, 0x00, 0x10, 0x00, 0x00, 0x00, 0x08, 0x00, 0x0c, 0x00, 0x07, 0x00,
  0x0c, 0x00, 0x00, 0x00, 0x00, 0x00, 0x00, 0x01, 0x08, 0x00, 0x00, 0x00,
  0x08, 0x00, 0x00, 0x00, 0x01, 0x00, 0x00, 0x00, 0x05, 0x00, 0x00, 0x00,
  0x03, 0x00, 0x00, 0x00, 0x04, 0x00, 0x00, 0x00, 0x0e, 0x00, 0x00, 0x00,
  0x00, 0x00, 0x00, 0x00, 0xaa, 0xff, 0xff, 0xff, 0x00, 0x00, 0x00, 0x02,
  0x01, 0x00, 0x00, 0x00, 0x38, 0x00, 0x00, 0x00, 0x2c, 0x00, 0x00, 0x00,
  0x14, 0x00, 0x00, 0x00, 0x00, 0x00, 0x0e, 0x00, 0x14, 0x00, 0x00, 0x00,
  0x08, 0x00, 0x0c, 0x00, 0x10, 0x00, 0x07, 0x00, 0x0e, 0x00, 0x00, 0x00,
  0x00, 0x00, 0x00, 0x01, 0x02, 0x00, 0x00, 0x00, 0x02, 0x00, 0x00, 0x00,
  0x08, 0x00, 0x00, 0x00, 0x01, 0x00, 0x00, 0x00, 0x04, 0x00, 0x00, 0x00,
  0x03, 0x00, 0x00, 0x00, 0x08, 0x00, 0x00, 0x00, 0x0c, 0x00, 0x00, 0x00,
  0x02, 0x00, 0x00, 0x00, 0x00, 0x00, 0x0e, 0x00, 0x1a, 0x00, 0x08, 0x00,
  0x0c, 0x00, 0x10, 0x00, 0x07, 0x00, 0x14, 0x00, 0x0e, 0x00, 0x00, 0x00,
  0x00, 0x00, 0x00, 0x11, 0x03, 0x00, 0x00, 0x00, 0x38, 0x00, 0x00, 0x00,
  0x2c, 0x00, 0x00, 0x00, 0x0c, 0x00, 0x00, 0x00, 0x00, 0x00, 0x06, 0x00,
  0x08, 0x00, 0x04, 0x00, 0x06, 0x00, 0x00, 0x00, 0x04, 0x00, 0x00, 0x00,
  0x04, 0x00, 0x00, 0x00, 0xff, 0xff, 0xff, 0xff, 0x31, 0x00, 0x00, 0x00,
  0x28, 0x00, 0x00, 0x00, 0x01, 0x00, 0x00, 0x00, 0x01, 0x00, 0x00, 0x00,
  0x08, 0x00, 0x00, 0x00, 0x02, 0x00, 0x00, 0x00, 0x07, 0x00, 0x00, 0x00,
  0x09, 0x00, 0x00, 0x00, 0x01, 0x00, 0x00, 0x00, 0x0d, 0x00, 0x00, 0x00,
  0x01, 0x00, 0x00, 0x00, 0x07, 0x00, 0x00, 0x00, 0x10, 0x00, 0x00, 0x00,
  0xf4, 0x07, 0x00, 0x00, 0x34, 0x07, 0x00, 0x00, 0x88, 0x06, 0x00, 0x00,
  0x34, 0x06, 0x00, 0x00, 0xb4, 0x05, 0x00, 0x00, 0x3c, 0x05, 0x00, 0x00,
  0xc8, 0x04, 0x00, 0x00, 0x54, 0x04, 0x00, 0x00, 0xd8, 0x03, 0x00, 0x00,
  0x98, 0x03, 0x00, 0x00, 0x28, 0x03, 0x00, 0x00, 0xbc, 0x02, 0x00, 0x00,
  0xe8, 0x01, 0x00, 0x00, 0x7c, 0x01, 0x00, 0x00, 0xc0, 0x00, 0x00, 0x00,
  0x04, 0x00, 0x00, 0x00, 0x5a, 0xf8, 0xff, 0xff, 0x00, 0x00, 0x00, 0x09,
  0x9c, 0x00, 0x00, 0x00, 0x02, 0x00, 0x00, 0x00, 0x7c, 0x00, 0x00, 0x00,
  0x04, 0x00, 0x00, 0x00, 0x4c, 0xf8, 0xff, 0xff, 0x4c, 0x00, 0x00, 0x00,
  0x04, 0x00, 0x00, 0x00, 0x08, 0x00, 0x00, 0x00, 0x00, 0x00, 0x00, 0x00,
  0x00, 0x00, 0x00, 0x00, 0x00, 0x00, 0x00, 0x00, 0x00, 0x00, 0x00, 0x00,
  0x00, 0x00, 0x00, 0x00, 0x00, 0x00, 0x00, 0x00, 0x00, 0x00, 0x00, 0x00,
  0x00, 0x00, 0x00, 0x00, 0x00, 0x00, 0x00, 0x00, 0x00, 0x00, 0x00, 0x00,
  0x00, 0x00, 0x00, 0x00, 0x00, 0x00, 0x00, 0x00, 0x00, 0x00, 0x00, 0x00,
  0x00, 0x00, 0x00, 0x00, 0x00, 0x00, 0x00, 0x00, 0x00, 0x00, 0x00, 0x00,
  0x08, 0x00, 0x00, 0x00, 0xd5, 0xdd, 0x24, 0x39, 0xa4, 0x3d, 0x22, 0x39,
  0x33, 0x1c, 0x22, 0x39, 0xea, 0x0c, 0x25, 0x39, 0xf3, 0xe8, 0x21, 0x39,
  0xb5, 0x75, 0x24, 0x39, 0x5f, 0xbd, 0x24, 0x39, 0x6c, 0xee, 0x24, 0x39,
  0x12, 0x00, 0x00, 0x00, 0x74, 0x68, 0x69, 0x72, 0x64, 0x5f, 0x77, 0x65,
  0x69, 0x67, 0x68, 0x74, 0x73, 0x2f, 0x72, 0x65, 0x61, 0x64, 0x00, 0x00,
  0x04, 0x00, 0x00, 0x00, 0x08, 0x00, 0x00, 0x00, 0x0a, 0x00, 0x00, 0x00,
  0x08, 0x00, 0x00, 0x00, 0x08, 0x00, 0x00, 0x00, 0x12, 0xf9, 0xff, 0xff,
  0x00, 0x00, 0x00, 0x09, 0x9c, 0x00, 0x00, 0x00, 0x04, 0x00, 0x00, 0x00,
  0x7c, 0x00, 0x00, 0x00, 0x04, 0x00, 0x00, 0x00, 0x04, 0xf9, 0xff, 0xff,
  0x4c, 0x00, 0x00, 0x00, 0x04, 0x00, 0x00, 0x00, 0x08, 0x00, 0x00, 0x00,
  0x00, 0x00, 0x00, 0x00, 0x00, 0x00, 0x00, 0x00, 0x00, 0x00, 0x00, 0x00,
  0x00, 0x00, 0x00, 0x00, 0x00, 0x00, 0x00, 0x00, 0x00, 0x00, 0x00, 0x00,
  0x00, 0x00, 0x00, 0x00, 0x00, 0x00, 0x00, 0x00, 0x00, 0x00, 0x00, 0x00,
  0x00, 0x00, 0x00, 0x00, 0x00, 0x00, 0x00, 0x00, 0x00, 0x00, 0x00, 0x00,
  0x00, 0x00, 0x00, 0x00, 0x00, 0x00, 0x00, 0x00, 0x00, 0x00, 0x00, 0x00,
  0x00, 0x00, 0x00, 0x00, 0x08, 0x00, 0x00, 0x00, 0x07, 0x17, 0x25, 0x39,
  0xed, 0x81, 0x22, 0x39, 0xf0, 0xc8, 0x24, 0x39, 0x9d, 0xd6, 0x24, 0x39,
  0x6e, 0x8a, 0x21, 0x39, 0x8c, 0x7c, 0x23, 0x39, 0x1d, 0xe2, 0x22, 0x39,
  0x6e, 0x45, 0x24, 0x39, 0x13, 0x00, 0x00, 0x00, 0x73, 0x65, 0x63, 0x6f,
  0x6e, 0x64, 0x5f, 0x77, 0x65, 0x69, 0x67, 0x68, 0x74, 0x73, 0x2f, 0x72,
  0x65, 0x61, 0x64, 0x00, 0x04, 0x00, 0x00, 0x00, 0x08, 0x00, 0x00, 0x00,
  0x0a, 0x00, 0x00, 0x00, 0x08, 0x00, 0x00, 0x00, 0x08, 0x00, 0x00, 0x00,
  0xca, 0xf9, 0xff, 0xff, 0x00, 0x00, 0x00, 0x09, 0x44, 0x00, 0x00, 0x00,
  0x05, 0x00, 0x00, 0x00, 0x28, 0x00, 0x00, 0x00, 0x04, 0x00, 0x00, 0x00,
  0xbc, 0xf9, 0xff, 0xff, 0x14, 0x00, 0x00, 0x00, 0x04, 0x00, 0x00, 0x00,
  0x01, 0x00, 0x00, 0x00, 0x80, 0xff, 0xff, 0xff, 0xff, 0xff, 0xff, 0xff,
  0x01, 0x00, 0x00, 0x00, 0x00, 0x00, 0x80, 0x3b, 0x0e, 0x00, 0x00, 0x00,
  0x6c, 0x61, 0x62, 0x65, 0x6c, 0x73, 0x5f, 0x73, 0x6f, 0x66, 0x74, 0x6d,
  0x61, 0x78, 0x00, 0x00, 0x02, 0x00, 0x00, 0x00, 0x01, 0x00, 0x00, 0x00,
  0x06, 0x00, 0x00, 0x00, 0x00, 0x00, 0x0e, 0x00, 0x1a, 0x00, 0x08, 0x00,
  0x07, 0x00, 0x0c, 0x00, 0x10, 0x00, 0x14, 0x00, 0x0e, 0x00, 0x00, 0x00,
  0x00, 0x00, 0x00, 0x09, 0xb4, 0x00, 0x00, 0x00, 0x0e, 0x00, 0x00, 0x00,
  0x94, 0x00, 0x00, 0x00, 0x18, 0x00, 0x00, 0x00, 0x00, 0x00, 0x12, 0x00,
  0x10, 0x00, 0x00, 0x00, 0x00, 0x00, 0x04, 0x00, 0x08, 0x00, 0x00, 0x00,
  0x00, 0x00, 0x0c, 0x00, 0x12, 0x00, 0x00, 0x00, 0x50, 0x00, 0x00, 0x00,
  0x08, 0x00, 0x00, 0x00, 0x03, 0x00, 0x00, 0x00, 0x08, 0x00, 0x00, 0x00,
  0x00, 0x00, 0x00, 0x00, 0x00, 0x00, 0x00, 0x00, 0x00, 0x00, 0x00, 0x00,
  0x00, 0x00, 0x00, 0x00, 0x00, 0x00, 0x00, 0x00, 0x00, 0x00, 0x00, 0x00,
  0x00, 0x00, 0x00, 0x00, 0x00, 0x00, 0x00, 0x00, 0x00, 0x00, 0x00, 0x00,
  0x00, 0x00, 0x00, 0x00, 0x00, 0x00, 0x00, 0x00, 0x00, 0x00, 0x00, 0x00,
  0x00, 0x00, 0x00, 0x00, 0x00, 0x00, 0x00, 0x00, 0x00, 0x00, 0x00, 0x00,
  0x00, 0x00, 0x00, 0x00, 0x08, 0x00, 0x00, 0x00, 0x43, 0x74, 0x1a, 0x39,
  0x06, 0x4d, 0x24, 0x39, 0xf7, 0xf8, 0x23, 0x39, 0xba, 0x63, 0x23, 0x39,
  0x5c, 0x92, 0x20, 0x39, 0xce, 0xbf, 0x1c, 0x39, 0x66, 0xbd, 0x23, 0x39,
  0x51, 0x5a, 0x1e, 0x39, 0x12, 0x00, 0x00, 0x00, 0x66, 0x69, 0x72, 0x73,
  0x74, 0x5f, 0x77, 0x65, 0x69, 0x67, 0x68, 0x74, 0x73, 0x2f, 0x72, 0x65,
  0x61, 0x64, 0x00, 0x00, 0x04, 0x00, 0x00, 0x00, 0x01, 0x00, 0x00, 0x00,
  0x0a, 0x00, 0x00, 0x00, 0x08, 0x00, 0x00, 0x00, 0x08, 0x00, 0x00, 0x00,
  0x02, 0xfb, 0xff, 0xff, 0x00, 0x00, 0x00, 0x09, 0x54, 0x00, 0x00, 0x00,
  0x07, 0x00, 0x00, 0x00, 0x28, 0x00, 0x00, 0x00, 0x04, 0x00, 0x00, 0x00,
  0xf4, 0xfa, 0xff, 0xff, 0x14, 0x00, 0x00, 0x00, 0x04, 0x00, 0x00, 0x00,
  0x01, 0x00, 0x00, 0x00, 0x00, 0x00, 0x00, 0x00, 0x00, 0x00, 0x00, 0x00,
  0x01, 0x00, 0x00, 0x00, 0xe4, 0x80, 0x24, 0x39, 0x1f, 0x00, 0x00, 0x00,
  0x66, 0x69, 0x6e, 0x61, 0x6c, 0x5f, 0x66, 0x63, 0x5f, 0x77, 0x65, 0x69,
  0x67, 0x68, 0x74, 0x73, 0x2f, 0x72, 0x65, 0x61, 0x64, 0x2f, 0x74, 0x72,
  0x61, 0x6e, 0x73, 0x70, 0x6f, 0x73, 0x65, 0x00, 0x02, 0x00, 0x00, 0x00,
  0x06, 0x00, 0x00, 0x00, 0x08, 0x00, 0x00, 0x00, 0x6a, 0xfb, 0xff, 0xff,
  0x00, 0x00, 0x00, 0x09, 0x58, 0x00, 0x00, 0x00, 0x06, 0x00, 0x00, 0x00,
  0x44, 0x00, 0x00, 0x00, 0x04, 0x00, 0x00, 0x00, 0x8c, 0xfd, 0xff, 0xff,
  0x30, 0x00, 0x00, 0x00, 0x24, 0x00, 0x00, 0x00, 0x18, 0x00, 0x00, 0x00,
  0x04, 0x00, 0x00, 0x00, 0x01, 0x00, 0x00, 0x00, 0xf9, 0xff, 0xff, 0xff,
  0xff, 0xff, 0xff, 0xff, 0x00, 0x00, 0x00, 0x00, 0x01, 0x00, 0x00, 0x00,
  0x72, 0x30, 0x48, 0x36, 0x01, 0x00, 0x00, 0x00, 0x79, 0x0e, 0xd2, 0x39,
  0x01, 0x00, 0x00, 0x00, 0x0b, 0xc2, 0xbc, 0xb9, 0x05, 0x00, 0x00, 0x00,
  0x61, 0x64, 0x64, 0x5f, 0x33, 0x00, 0x00, 0x00, 0x02, 0x00, 0x00, 0x00,
  0x01, 0x00, 0x00, 0x00, 0x06, 0x00, 0x00, 0x00, 0xd6, 0xfb, 0xff, 0xff,
  0x00, 0x00, 0x00, 0x02, 0x2c, 0x00, 0x00, 0x00, 0x0a, 0x00, 0x00, 0x00,
  0x10, 0x00, 0x00, 0x00, 0x08, 0x00, 0x00, 0x00, 0x04, 0x00, 0x04, 0x00,
  0x04, 0x00, 0x00, 0x00, 0x0f, 0x00, 0x00, 0x00, 0x52, 0x65, 0x73, 0x68,
  0x61, 0x70, 0x65, 0x5f, 0x32, 0x2f, 0x73, 0x68, 0x61, 0x70, 0x65, 0x00,
  0x01, 0x00, 0x00, 0x00, 0x04, 0x00, 0x00, 0x00, 0x12, 0xfc, 0xff, 0xff,
  0x00, 0x00, 0x00, 0x09, 0x5c, 0x00, 0x00, 0x00, 0x0b, 0x00, 0x00, 0x00,
  0x44, 0x00, 0x00, 0x00, 0x04, 0x00, 0x00, 0x00, 0x34, 0xfe, 0xff, 0xff,
  0x30, 0x00, 0x00, 0x00, 0x24, 0x00, 0x00, 0x00, 0x18, 0x00, 0x00, 0x00,
  0x04, 0x00, 0x00, 0x00, 0x01, 0x00, 0x00, 0x00, 0x80, 0xff, 0xff, 0xff,
  0xff, 0xff, 0xff, 0xff, 0x00, 0x00, 0x00, 0x00, 0x01, 0x00, 0x00, 0x00,
  0x00, 0x00, 0xd0, 0x3d, 0x01, 0x00, 0x00, 0x00, 0x00, 0x30, 0xcf, 0x41,
  0x01, 0x00, 0x00, 0x00, 0x00, 0x00, 0x00, 0x00, 0x09, 0x00, 0x00, 0x00,
  0x52, 0x65, 0x73, 0x68, 0x61, 0x70, 0x65, 0x5f, 0x32, 0x00, 0x00, 0x00,
  0x04, 0x00, 0x00, 0x00, 0x01, 0x00, 0x00, 0x00, 0x31, 0x00, 0x00, 0x00,
  0x28, 0x00, 0x00, 0x00, 0x01, 0x00, 0x00, 0x00, 0x8a, 0xfc, 0xff, 0xff,
  0x00, 0x00, 0x00, 0x09, 0x5c, 0x00, 0x00, 0x00, 0x0f, 0x00, 0x00, 0x00,
  0x44, 0x00, 0x00, 0x00, 0x04, 0x00, 0x00, 0x00, 0xac, 0xfe, 0xff, 0xff,
  0x30, 0x00, 0x00, 0x00, 0x24, 0x00, 0x00, 0x00, 0x18, 0x00, 0x00, 0x00,
  0x04, 0x00, 0x00, 0x00, 0x01, 0x00, 0x00, 0x00, 0x80, 0xff, 0xff, 0xff,
  0xff, 0xff, 0xff, 0xff, 0x00, 0x00, 0x00, 0x00, 0x01, 0x00, 0x00, 0x00,
  0x00, 0x00, 0xd0, 0x3d, 0x01, 0x00, 0x00, 0x00, 0x00, 0x30, 0xcf, 0x41,
  0x01, 0x00, 0x00, 0x00, 0x00, 0x00, 0x00, 0x00, 0x09, 0x00, 0x00, 0x00,
  0x52, 0x65, 0x73, 0x68, 0x61, 0x70, 0x65, 0x5f, 0x31, 0x00, 0x00, 0x00,
  0x02, 0x00, 0x00, 0x00, 0x01, 0x00, 0x00, 0x00, 0xa8, 0x07, 0x00, 0x00,
  0xfa, 0xfc, 0xff, 0xff, 0x00, 0x00, 0x00, 0x09, 0x54, 0x00, 0x00, 0x00,
  0x10, 0x00, 0x00, 0x00, 0x40, 0x00, 0x00, 0x00, 0x04, 0x00, 0x00, 0x00,
  0x1c, 0xff, 0xff, 0xff, 0x2c, 0x00, 0x00, 0x00, 0x20, 0x00, 0x00, 0x00,
  0x14, 0x00, 0x00, 0x00, 0x04, 0x00, 0x00, 0x00, 0x01, 0x00, 0x00, 0x00,
  0x80, 0xff, 0xff, 0xff, 0xff, 0xff, 0xff, 0xff, 0x01, 0x00, 0x00, 0x00,
  0x77, 0xab, 0xc9, 0x38, 0x01, 0x00, 0x00, 0x00, 0xcc, 0xe1, 0xc8, 0x3c,
  0x01, 0x00, 0x00, 0x00, 0x00, 0x00, 0x00, 0x00, 0x06, 0x00, 0x00, 0x00,
  0x52, 0x65, 0x6c, 0x75, 0x5f, 0x32, 0x00, 0x00, 0x04, 0x00, 0x00, 0x00,
  0x01, 0x00, 0x00, 0x00, 0x01, 0x00, 0x00, 0x00, 0x01, 0x00, 0x00, 0x00,
  0x08, 0x00, 0x00, 0x00, 0x6a, 0xfd, 0xff, 0xff, 0x00, 0x00, 0x00, 0x09,
  0x58, 0x00, 0x00, 0x00, 0x0c, 0x00, 0x00, 0x00, 0x44, 0x00, 0x00, 0x00,
  0x04, 0x00, 0x00, 0x00, 0x8c, 0xff, 0xff, 0xff, 0x30, 0x00, 0x00, 0x00,
  0x24, 0x00, 0x00, 0x00, 0x18, 0x00, 0x00, 0x00, 0x04, 0x00, 0x00, 0x00,
  0x01, 0x00, 0x00, 0x00, 0x80, 0xff, 0xff, 0xff, 0xff, 0xff, 0xff, 0xff,
  0x00, 0x00, 0x00, 0x00, 0x01, 0x00, 0x00, 0x00, 0x81, 0x73, 0x35, 0x3b,
  0x01, 0x00, 0x00, 0x00, 0x0d, 0xbe, 0x34, 0x3f, 0x01, 0x00, 0x00, 0x00,
  0x00, 0x00, 0x00, 0x00, 0x06, 0x00, 0x00, 0x00, 0x52, 0x65, 0x6c, 0x75,
  0x5f, 0x31, 0x00, 0x00, 0x04, 0x00, 0x00, 0x00, 0x01, 0x00, 0x00, 0x00,
  0x04, 0x00, 0x00, 0x00, 0x03, 0x00, 0x00, 0x00, 0x08, 0x00, 0x00, 0x00,
  0xde, 0xfd, 0xff, 0xff, 0x00, 0x00, 0x00, 0x09, 0x60, 0x00, 0x00, 0x00,
  0x09, 0x00, 0x00, 0x00, 0x4c, 0x00, 0x00, 0x00, 0x10, 0x00, 0x00, 0x00,
  0x0c, 0x00, 0x14, 0x00, 0x04, 0x00, 0x08, 0x00, 0x0c, 0x00, 0x10, 0x00,
  0x0c, 0x00, 0x00, 0x00, 0x2c, 0x00, 0x00, 0x00, 0x20, 0x00, 0x00, 0x00,
  0x14, 0x00, 0x00, 0x00, 0x04, 0x00, 0x00, 0x00, 0x01, 0x00, 0x00, 0x00,
  0x80, 0xff, 0xff, 0xff, 0xff, 0xff, 0xff, 0xff, 0x01, 0x00, 0x00, 0x00,
  0xe0, 0xa0, 0xbb, 0x3c, 0x01, 0x00, 0x00, 0x00, 0x3f, 0xe5, 0xba, 0x40,
  0x01, 0x00, 0x00, 0x00, 0x00, 0x00, 0x00, 0x00, 0x04, 0x00, 0x00, 0x00,
  0x52, 0x65, 0x6c, 0x75, 0x00, 0x00, 0x00, 0x00, 0x04, 0x00, 0x00, 0x00,
  0x01, 0x00, 0x00, 0x00, 0x19, 0x00, 0x00, 0x00, 0x14, 0x00, 0x00, 0x00,
  0x08, 0x00, 0x00, 0x00, 0x5a, 0xfe, 0xff, 0xff, 0x00, 0x00, 0x00, 0x02,
  0x40, 0x00, 0x00, 0x00, 0x0d, 0x00, 0x00, 0x00, 0x28, 0x00, 0x00, 0x00,
  0x04, 0x00, 0x00, 0x00, 0x4c, 0xfe, 0xff, 0xff, 0x14, 0x00, 0x00, 0x00,
  0x04, 0x00, 0x00, 0x00, 0x01, 0x00, 0x00, 0x00, 0x00, 0x00, 0x00, 0x00,
  0x00, 0x00, 0x00, 0x00, 0x01, 0x00, 0x00, 0x00, 0x62, 0x97, 0x81, 0x32,
  0x0b, 0x00, 0x00, 0x00, 0x4d, 0x61, 0x74, 0x4d, 0x75, 0x6c, 0x5f, 0x62,
  0x69, 0x61, 0x73, 0x00, 0x01, 0x00, 0x00, 0x00, 0x06, 0x00, 0x00, 0x00,
  0xaa, 0xfe, 0xff, 0xff, 0x00, 0x00, 0x00, 0x02, 0x98, 0x00, 0x00, 0x00,
  0x08, 0x00, 0x00, 0x00, 0x80, 0x00, 0x00, 0x00, 0x04, 0x00, 0x00, 0x00,
  0x9c, 0xfe, 0xff, 0xff, 0x50, 0x00, 0x00, 0x00, 0x04, 0x00, 0x00, 0x00,
  0x08, 0x00, 0x00, 0x00, 0x00, 0x00, 0x00, 0x00, 0x00, 0x00, 0x00, 0x00,
  0x00, 0x00, 0x00, 0x00, 0x00, 0x00, 0x00, 0x00, 0x00, 0x00, 0x00, 0x00,
  0x00, 0x00, 0x00, 0x00, 0x00, 0x00, 0x00, 0x00, 0x00, 0x00, 0x00, 0x00,
  0x00, 0x00, 0x00, 0x00, 0x00, 0x00, 0x00, 0x00, 0x00, 0x00, 0x00, 0x00,
  0x00, 0x00, 0x00, 0x00, 0x00, 0x00, 0x00, 0x00, 0x00, 0x00, 0x00, 0x00,
  0x00, 0x00, 0x00, 0x00, 0x00, 0x00, 0x00, 0x00, 0x00, 0x00, 0x00, 0x00,
  0x08, 0x00, 0x00, 0x00, 0xed, 0xfc, 0x7a, 0x37, 0x95, 0x7e, 0x85, 0x37,
  0x49, 0x3a, 0x85, 0x37, 0x07, 0xc1, 0x84, 0x37, 0xeb, 0x76, 0x82, 0x37,
  0xaf, 0xb7, 0x7e, 0x37, 0xe3, 0x09, 0x85, 0x37, 0x62, 0xa9, 0x80, 0x37,
  0x0b, 0x00, 0x00, 0x00, 0x43, 0x6f, 0x6e, 0x76, 0x32, 0x44, 0x5f, 0x62,
  0x69, 0x61, 0x73, 0x00, 0x01, 0x00, 0x00, 0x00, 0x08, 0x00, 0x00, 0x00,
  0x52, 0xff, 0xff, 0xff, 0x00, 0x00, 0x00, 0x02, 0x9c, 0x00, 0x00, 0x00,
  0x01, 0x00, 0x00, 0x00, 0x80, 0x00, 0x00, 0x00, 0x04, 0x00, 0x00, 0x00,
  0x44, 0xff, 0xff, 0xff, 0x50, 0x00, 0x00, 0x00, 0x04, 0x00, 0x00, 0x00,
  0x08, 0x00, 0x00, 0x00, 0x00, 0x00, 0x00, 0x00, 0x00, 0x00, 0x00, 0x00,
  0x00, 0x00, 0x00, 0x00, 0x00, 0x00, 0x00, 0x00, 0x00, 0x00, 0x00, 0x00,
  0x00, 0x00, 0x00, 0x00, 0x00, 0x00, 0x00, 0x00, 0x00, 0x00, 0x00, 0x00,
  0x00, 0x00, 0x00, 0x00, 0x00, 0x00, 0x00, 0x00, 0x00, 0x00, 0x00, 0x00,
  0x00, 0x00, 0x00, 0x00, 0x00, 0x00, 0x00, 0x00, 0x00, 0x00, 0x00, 0x00,
  0x00, 0x00, 0x00, 0x00, 0x00, 0x00, 0x00, 0x00, 0x00, 0x00, 0x00, 0x00,
  0x08, 0x00, 0x00, 0x00, 0x75, 0xb6, 0xe9, 0x34, 0x91, 0xfd, 0xe5, 0x34,
  0x29, 0xce, 0xe5, 0x34, 0x33, 0xf9, 0xe9, 0x34, 0x82, 0x85, 0xe5, 0x34,
  0xd9, 0x22, 0xe9, 0x34, 0x71, 0x88, 0xe9, 0x34, 0xf9, 0xcd, 0xe9, 0x34,
  0x0d, 0x00, 0x00, 0x00, 0x43, 0x6f, 0x6e, 0x76, 0x32, 0x44, 0x5f, 0x32,
  0x5f, 0x62, 0x69, 0x61, 0x73, 0x00, 0x00, 0x00, 0x01, 0x00, 0x00, 0x00,
  0x08, 0x00, 0x00, 0x00, 0x00, 0x00, 0x0e, 0x00, 0x18, 0x00, 0x08, 0x00,
  0x07, 0x00, 0x0c, 0x00, 0x10, 0x00, 0x14, 0x00, 0x0e, 0x00, 0x00, 0x00,
  0x00, 0x00, 0x00, 0x02, 0xa4, 0x00, 0x00, 0x00, 0x03, 0x00, 0x00, 0x00,
  0x88, 0x00, 0x00, 0x00, 0x10, 0x00, 0x00, 0x00, 0x0c, 0x00, 0x0c, 0x00,
  0x00, 0x00, 0x00, 0x00, 0x04, 0x00, 0x08, 0x00, 0x0c, 0x00, 0x00, 0x00,
  0x4c, 0x00, 0x00, 0x00, 0x04, 0x00, 0x00, 0x00, 0x08, 0x00, 0x00, 0x00,
  0x00, 0x00, 0x00, 0x00, 0x00, 0x00, 0x00, 0x00, 0x00, 0x00, 0x00, 0x00,
  0x00, 0x00, 0x00, 0x00, 0x00, 0x00, 0x00, 0x00, 0x00, 0x00, 0x00, 0x00,
  0x00, 0x00, 0x00, 0x00, 0x00, 0x00, 0x00, 0x00, 0x00, 0x00, 0x00, 0x00,
  0x00, 0x00, 0x00, 0x00, 0x00, 0x00, 0x00, 0x00, 0x00, 0x00, 0x00, 0x00,
  0x00, 0x00, 0x00, 0x00, 0x00, 0x00, 0x00, 0x00, 0x00, 0x00, 0x00, 0x00,
  0x00, 0x00, 0x00, 0x00, 0x08, 0x00, 0x00, 0x00, 0x22, 0xff, 0x71, 0x36,
  0x0f, 0x36, 0x6e, 0x36, 0xaa, 0x8c, 0x71, 0x36, 0xb6, 0xa0, 0x71, 0x36,
  0x44, 0xcb, 0x6c, 0x36, 0x6e, 0xa5, 0x6f, 0x36, 0x0e, 0xc3, 0x6e, 0x36,
  0xe5, 0xcb, 0x70, 0x36, 0x0d, 0x00, 0x00, 0x00, 0x43, 0x6f, 0x6e, 0x76,
  0x32, 0x44, 0x5f, 0x31, 0x5f, 0x62, 0x69, 0x61, 0x73, 0x00, 0x00, 0x00,
  0x01, 0x00, 0x00, 0x00, 0x08, 0x00, 0x00, 0x00, 0x05, 0x00, 0x00, 0x00,
  0x60, 0x00, 0x00, 0x00, 0x44, 0x00, 0x00, 0x00, 0x28, 0x00, 0x00, 0x00,
  0x1c, 0x00, 0x00, 0x00, 0x04, 0x00, 0x00, 0x00, 0xd6, 0xff, 0xff, 0xff,
  0x00, 0x00, 0x00, 0x19, 0x02, 0x00, 0x00, 0x00, 0x00, 0x00, 0x06, 0x00,
  0x08, 0x00, 0x07, 0x00, 0x06, 0x00, 0x00, 0x00, 0x00, 0x00, 0x00, 0x16,
  0xf2, 0xff, 0xff, 0xff, 0x00, 0x00, 0x00, 0x09, 0x04, 0x00, 0x00, 0x00,
  0x00, 0x00, 0x0a, 0x00, 0x0e, 0x00, 0x07, 0x00, 0x00, 0x00, 0x08, 0x00,
  0x0a, 0x00, 0x00, 0x00, 0x00, 0x00, 0x00, 0x04, 0x03, 0x00, 0x00, 0x00,
  0x00, 0x00, 0x0a, 0x00, 0x0c, 0x00, 0x07, 0x00, 0x00, 0x00, 0x08, 0x00,
  0x0a, 0x00, 0x00, 0x00, 0x00, 0x00, 0x00, 0x03, 0x03, 0x00, 0x00, 0x00
};
unsigned int g_model_len = 14280;
