/* Copyright 2020 The TensorFlow Authors. All Rights Reserved.

Licensed under the Apache License, Version 2.0 (the "License");
you may not use this file except in compliance with the License.
You may obtain a copy of the License at

    http://www.apache.org/licenses/LICENSE-2.0

Unless required by applicable law or agreed to in writing, software
distributed under the License is distributed on an "AS IS" BASIS,
WITHOUT WARRANTIES OR CONDITIONS OF ANY KIND, either express or implied.
See the License for the specific language governing permissions and
limitations under the License.
==============================================================================*/

// This is a standard TensorFlow Lite FlatBuffer model file that has been
// converted into a C data array, so it can be easily compiled into a binary
// for devices that don't have a file system. It was created using the command:
// xxd -i model.tflite > model.cc

#include "tensorflow/lite/micro/examples/micro_speech/micro_features/model.h"

// We need to keep the data array aligned on some architectures.
#ifdef __has_attribute
#define HAVE_ATTRIBUTE(x) __has_attribute(x)
#else
#define HAVE_ATTRIBUTE(x) 0
#endif
#if HAVE_ATTRIBUTE(aligned) || (defined(__GNUC__) && !defined(__clang__))
#define DATA_ALIGN_ATTRIBUTE __attribute__((aligned(4)))
#else
#define DATA_ALIGN_ATTRIBUTE
#endif

const unsigned char g_model[] DATA_ALIGN_ATTRIBUTE = {
    0x1c, 0x00, 0x00, 0x00, 0x54, 0x46, 0x4c, 0x33, 0x00, 0x00, 0x12, 0x00,
    0x1c, 0x00, 0x04, 0x00, 0x08, 0x00, 0x0c, 0x00, 0x10, 0x00, 0x14, 0x00,
    0x00, 0x00, 0x18, 0x00, 0x12, 0x00, 0x00, 0x00, 0x03, 0x00, 0x00, 0x00,
    0xd4, 0x22, 0x00, 0x00, 0x44, 0x1a, 0x00, 0x00, 0x2c, 0x1a, 0x00, 0x00,
    0x3c, 0x00, 0x00, 0x00, 0x04, 0x00, 0x00, 0x00, 0x01, 0x00, 0x00, 0x00,
    0x0c, 0x00, 0x00, 0x00, 0x08, 0x00, 0x0c, 0x00, 0x04, 0x00, 0x08, 0x00,
    0x08, 0x00, 0x00, 0x00, 0x08, 0x00, 0x00, 0x00, 0x0e, 0x00, 0x00, 0x00,
    0x13, 0x00, 0x00, 0x00, 0x6d, 0x69, 0x6e, 0x5f, 0x72, 0x75, 0x6e, 0x74,
    0x69, 0x6d, 0x65, 0x5f, 0x76, 0x65, 0x72, 0x73, 0x69, 0x6f, 0x6e, 0x00,
    0x0f, 0x00, 0x00, 0x00, 0xe4, 0x19, 0x00, 0x00, 0xbc, 0x19, 0x00, 0x00,
    0x6c, 0x17, 0x00, 0x00, 0x3c, 0x17, 0x00, 0x00, 0x34, 0x17, 0x00, 0x00,
    0x2c, 0x17, 0x00, 0x00, 0x24, 0x17, 0x00, 0x00, 0x04, 0x17, 0x00, 0x00,
    0x74, 0x14, 0x00, 0x00, 0x6c, 0x14, 0x00, 0x00, 0x5c, 0x00, 0x00, 0x00,
    0x54, 0x00, 0x00, 0x00, 0x24, 0x00, 0x00, 0x00, 0x1c, 0x00, 0x00, 0x00,
    0x04, 0x00, 0x00, 0x00, 0xc2, 0xe4, 0xff, 0xff, 0x04, 0x00, 0x00, 0x00,
    0x05, 0x00, 0x00, 0x00, 0x31, 0x2e, 0x35, 0x2e, 0x30, 0x00, 0x00, 0x00,
    0x7c, 0xe1, 0xff, 0xff, 0xda, 0xe4, 0xff, 0xff, 0x04, 0x00, 0x00, 0x00,
    0x20, 0x00, 0x00, 0x00, 0x3c, 0x01, 0x00, 0x00, 0xc6, 0xff, 0xff, 0xff,
    0x8c, 0xff, 0xff, 0xff, 0xf1, 0xff, 0xff, 0xff, 0xce, 0xff, 0xff, 0xff,
    0x1d, 0x00, 0x00, 0x00, 0xb8, 0xff, 0xff, 0xff, 0xf8, 0xff, 0xff, 0xff,
    0xac, 0xe1, 0xff, 0xff, 0x0a, 0xe5, 0xff, 0xff, 0x04, 0x00, 0x00, 0x00,
    0x00, 0x14, 0x00, 0x00, 0xdc, 0xe3, 0xfe, 0xfe, 0xe4, 0x03, 0x31, 0x01,
    0x07, 0xec, 0x1b, 0x26, 0xd8, 0x06, 0xf9, 0xf3, 0x33, 0xde, 0x02, 0x21,
    0x19, 0x05, 0xf2, 0x07, 0xfc, 0xb9, 0xe2, 0x25, 0xdb, 0x44, 0x01, 0x1e,
    0xfe, 0xd8, 0xcd, 0x2a, 0x2b, 0x1a, 0x22, 0x14, 0xf4, 0xee, 0xc4, 0x24,
    0x04, 0x2a, 0xee, 0x22, 0x1c, 0xbf, 0xd7, 0x1b, 0xfa, 0x02, 0xec, 0x16,
    0xda, 0xbc, 0xdc, 0x0e, 0x12, 0x2b, 0xfa, 0x1c, 0xfe, 0xbd, 0x09, 0x08,
    0x0d, 0xe1, 0x22, 0x02, 0x03, 0xd3, 0xff, 0x1f, 0xfd, 0xf2, 0x35, 0xf2,
    0xf5, 0xce, 0xed, 0x24, 0x22, 0x3e, 0x08, 0xf9, 0xef, 0x96, 0xbd, 0x20,
    0xf4, 0x37, 0xef, 0x15, 0x27, 0xc6, 0xcd, 0x28, 0xfa, 0x14, 0x14, 0x08,
    0x1c, 0xd6, 0xa7, 0x25, 0xfb, 0x29, 0xff, 0x19, 0xf5, 0x9e, 0xaa, 0x10,
    0x13, 0x1a, 0xee, 0x15, 0xd9, 0xa6, 0xc7, 0x06, 0x1b, 0x2d, 0xfc, 0x15,
    0x0d, 0xb6, 0x01, 0x0e, 0xd7, 0xe2, 0x02, 0xeb, 0x12, 0xbb, 0x0b, 0x3b,
    0x15, 0x0e, 0x20, 0xe2, 0xe7, 0xc0, 0xe8, 0x35, 0x0c, 0x1b, 0x1a, 0x0d,
    0xf0, 0x96, 0xc5, 0x33, 0x05, 0x2d, 0xfa, 0x20, 0x0d, 0xa7, 0x9f, 0x3e,
    0x16, 0x10, 0x16, 0x0d, 0x1e, 0xc4, 0x9b, 0x35, 0x1f, 0x29, 0xe9, 0x1d,
    0xf6, 0x8e, 0xa3, 0x1d, 0xee, 0x21, 0x10, 0x15, 0xe7, 0x9d, 0xb2, 0x0e,
    0xd8, 0x10, 0xf0, 0x10, 0xf7, 0xa1, 0xf8, 0xf0, 0xfa, 0x0b, 0x1a, 0xe4,
    0xf8, 0xc7, 0x12, 0x1d, 0xfb, 0xda, 0x10, 0xe6, 0xf7, 0xae, 0xff, 0x29,
    0x33, 0x1d, 0x28, 0xf8, 0xf6, 0x98, 0xe5, 0x24, 0x18, 0x4e, 0xf6, 0x05,
    0xe1, 0x8e, 0xf0, 0x33, 0x03, 0x45, 0xfd, 0xf8, 0xec, 0xa3, 0xce, 0x3d,
    0xed, 0x18, 0x02, 0x0b, 0xea, 0x81, 0xbf, 0x24, 0xea, 0x26, 0x20, 0x00,
    0xdf, 0x87, 0xd4, 0x0c, 0x1c, 0xf9, 0x2a, 0x0b, 0x26, 0xb8, 0xe2, 0x0f,
    0xed, 0xf0, 0xe3, 0x20, 0x0d, 0xe9, 0x2a, 0x4c, 0x07, 0x0a, 0xea, 0x13,
    0xee, 0x08, 0xfe, 0x3b, 0xdf, 0x23, 0x03, 0x26, 0x10, 0xd1, 0xdd, 0x42,
    0x19, 0x1d, 0xeb, 0x33, 0xec, 0xc8, 0xe3, 0x5c, 0xf3, 0x2d, 0xf6, 0x23,
    0xfe, 0xc8, 0xe5, 0x3b, 0xfa, 0x38, 0x09, 0x2e, 0x06, 0x9e, 0xb7, 0x38,
    0x04, 0x26, 0xfa, 0x1b, 0x25, 0x99, 0xe7, 0x18, 0xfd, 0x34, 0x15, 0x16,
    0xee, 0xde, 0x1c, 0x23, 0x1a, 0xf7, 0x13, 0x08, 0x16, 0xd7, 0x0f, 0x25,
    0xe2, 0xf6, 0x17, 0x11, 0x0b, 0xee, 0xe9, 0x11, 0x27, 0x0a, 0x0d, 0x12,
    0x11, 0xd7, 0xb4, 0x12, 0xf7, 0xfe, 0x1a, 0x0f, 0x0c, 0xe5, 0xc9, 0x23,
    0x1f, 0xf3, 0x09, 0x08, 0xf5, 0xf6, 0xd9, 0xfc, 0xd3, 0x30, 0x21, 0x13,
    0x09, 0xbc, 0xde, 0x0a, 0x16, 0xec, 0x14, 0xea, 0x20, 0xdf, 0xc7, 0xf0,
    0x0c, 0x01, 0xe4, 0x00, 0xed, 0xd5, 0xed, 0x16, 0xfc, 0x1b, 0xfd, 0xf9,
    0x1d, 0xf9, 0x30, 0x2b, 0xe8, 0xfb, 0x2e, 0x09, 0xe0, 0xef, 0xfd, 0x1e,
    0xf1, 0x04, 0xf1, 0x0d, 0x1c, 0x06, 0xeb, 0x22, 0xe6, 0x22, 0x29, 0x0b,
    0xfb, 0xf1, 0xcf, 0x13, 0x16, 0x09, 0x07, 0x01, 0x02, 0xe4, 0xbd, 0x03,
    0x2c, 0x21, 0x0d, 0x20, 0x17, 0xae, 0xc7, 0x19, 0x06, 0x1a, 0x17, 0xe4,
    0x0f, 0x9c, 0xdf, 0xe7, 0x15, 0xfb, 0x01, 0xd9, 0xd3, 0xaf, 0x09, 0x11,
    0x15, 0x0f, 0xfc, 0xfc, 0x02, 0xd7, 0x06, 0x19, 0xf0, 0x1c, 0xf3, 0xfe,
    0x11, 0xd2, 0xf9, 0x0a, 0x00, 0xf9, 0x07, 0x1e, 0x25, 0xdb, 0xcf, 0x1c,
    0x02, 0x23, 0xf7, 0x0c, 0xf1, 0xd9, 0xb8, 0x1a, 0xf5, 0x00, 0xd9, 0x00,
    0x27, 0xdb, 0xc6, 0x10, 0x20, 0x34, 0x1c, 0x13, 0x1f, 0xa3, 0xde, 0xfd,
    0xf9, 0x2a, 0xec, 0xdc, 0xfe, 0x98, 0xd4, 0xfb, 0xe0, 0x15, 0x11, 0xe4,
    0xde, 0xae, 0x1c, 0x1b, 0x07, 0xfe, 0xe1, 0xec, 0xe9, 0xee, 0xf3, 0x12,
    0xfa, 0x27, 0x00, 0xfc, 0xe4, 0xd2, 0xca, 0x06, 0xd7, 0x04, 0x08, 0x1c,
    0xcc, 0xbf, 0xc6, 0x0e, 0xe0, 0x10, 0x15, 0xe4, 0x21, 0xb5, 0xf0, 0x07,
    0x03, 0xe0, 0x0d, 0xe5, 0xf5, 0xd2, 0xc3, 0xfa, 0x23, 0xdb, 0xd8, 0x05,
    0xec, 0x91, 0xa9, 0xe3, 0x18, 0x02, 0xda, 0xd4, 0x09, 0xa1, 0xd5, 0xe2,
    0x29, 0xf2, 0x12, 0xde, 0xde, 0xc1, 0xfe, 0x27, 0x1e, 0x13, 0xe9, 0x13,
    0xed, 0xcc, 0xf9, 0x4e, 0xed, 0xfc, 0x01, 0xfd, 0x0b, 0xdc, 0xc2, 0x0a,
    0x27, 0x14, 0xd6, 0x22, 0xfb, 0xb0, 0xd9, 0x1a, 0x0d, 0xea, 0x03, 0x13,
    0xf9, 0xa4, 0xe1, 0x13, 0x23, 0xf4, 0x06, 0xf8, 0xf1, 0xca, 0xd0, 0x0e,
    0x0d, 0x00, 0xed, 0x00, 0xd8, 0x9f, 0xbb, 0x1f, 0x04, 0x19, 0x09, 0xe3,
    0x17, 0xa4, 0xed, 0xf3, 0xd7, 0xe6, 0xe1, 0xf4, 0x00, 0xe2, 0x34, 0xf4,
    0xf6, 0xc9, 0x1b, 0xd7, 0x07, 0xeb, 0x3d, 0x0b, 0x19, 0xee, 0x0e, 0xe2,
    0xf5, 0x14, 0x3f, 0x01, 0x01, 0xd9, 0x16, 0xfa, 0x01, 0x30, 0x54, 0x08,
    0xea, 0xf0, 0x15, 0xfc, 0xed, 0x2a, 0x40, 0x04, 0xfd, 0x0f, 0x28, 0x0b,
    0x1d, 0x2c, 0x2e, 0x05, 0x17, 0x0a, 0x0f, 0x10, 0x09, 0x0f, 0x2e, 0x0b,
    0xf5, 0xe3, 0x01, 0xfd, 0x1e, 0x0f, 0x17, 0x16, 0x07, 0xf3, 0x17, 0x07,
    0x03, 0xca, 0x17, 0xd3, 0x10, 0xec, 0x1b, 0xb2, 0xe2, 0xe1, 0x1e, 0xed,
    0xf0, 0xf4, 0x0a, 0xc3, 0x03, 0x0f, 0x26, 0xf2, 0x08, 0xe2, 0xf5, 0xe5,
    0x02, 0x31, 0x52, 0x01, 0x1c, 0xde, 0x0d, 0xf6, 0x02, 0x32, 0x34, 0x00,
    0x1d, 0xee, 0x17, 0x06, 0x20, 0x36, 0x1d, 0x01, 0x18, 0x05, 0x11, 0x17,
    0x00, 0x1f, 0x19, 0x0d, 0x02, 0x00, 0x0d, 0x02, 0x01, 0x1a, 0x2c, 0x1f,
    0x06, 0xed, 0xff, 0x09, 0xf8, 0xb8, 0x11, 0xc5, 0x04, 0xdf, 0x13, 0x86,
    0x06, 0xbe, 0x36, 0xeb, 0x0e, 0xe3, 0xfe, 0xa1, 0xf7, 0xf7, 0x20, 0xea,
    0xfc, 0xd5, 0x15, 0xbf, 0xfa, 0x28, 0x42, 0xf5, 0xee, 0xf1, 0xff, 0xe6,
    0xeb, 0x34, 0x36, 0x00, 0x06, 0xe5, 0x1b, 0x03, 0x1e, 0x39, 0x1f, 0x05,
    0xe6, 0x02, 0x02, 0x16, 0xfb, 0x26, 0x27, 0x13, 0x1e, 0x00, 0xfa, 0x0a,
    0xfa, 0x3a, 0x22, 0x1d, 0x06, 0xf2, 0xf4, 0x12, 0xf1, 0xa9, 0x0b, 0xdc,
    0x03, 0xe8, 0x02, 0x81, 0x08, 0xcb, 0x28, 0xf5, 0xfb, 0xf0, 0x06, 0xa8,
    0xfd, 0xdd, 0x03, 0xef, 0x00, 0x04, 0xf9, 0xb5, 0xdf, 0x0f, 0x34, 0x01,
    0xf5, 0xeb, 0x13, 0xd6, 0x0e, 0x1e, 0x2a, 0xed, 0x00, 0xfe, 0xff, 0xee,
    0x0e, 0x38, 0x24, 0x0e, 0xfd, 0xfc, 0x00, 0x0b, 0xf3, 0x41, 0x35, 0x20,
    0xf3, 0xfa, 0x07, 0x0c, 0x00, 0x3b, 0x2a, 0x2a, 0xfc, 0xf0, 0x00, 0x24,
    0xfe, 0xb6, 0x04, 0xfc, 0x17, 0xec, 0xfc, 0xae, 0x09, 0xc5, 0x20, 0x04,
    0xf2, 0xe8, 0xfb, 0xb5, 0xf0, 0xd9, 0x0d, 0xdc, 0x14, 0xed, 0x0e, 0xaf,
    0x0d, 0xf0, 0x2b, 0xde, 0xe8, 0xed, 0xf7, 0xc6, 0x0e, 0x27, 0x2c, 0xee,
    0xfa, 0xee, 0x0c, 0xdc, 0xfc, 0x36, 0x23, 0xf1, 0x00, 0xe7, 0x06, 0xec,
    0xfd, 0x23, 0x27, 0x19, 0x16, 0xdb, 0xfe, 0xf6, 0xf2, 0x3b, 0x2f, 0x1a,
    0x02, 0xe6, 0xf8, 0x1a, 0x0b, 0xdc, 0xeb, 0xfb, 0xe9, 0xd9, 0x08, 0xdd,
    0x1b, 0xdf, 0x1f, 0x22, 0x0d, 0x02, 0x23, 0xe1, 0xfb, 0xd3, 0x16, 0xf4,
    0xef, 0xf5, 0xec, 0xd1, 0x0b, 0xed, 0x1e, 0xea, 0xed, 0x0b, 0xfe, 0xc2,
    0xf8, 0x0d, 0x38, 0xeb, 0x10, 0xef, 0x0e, 0xcb, 0xec, 0x1d, 0x4d, 0xf9,
    0x13, 0xff, 0x0a, 0xda, 0x05, 0x3f, 0x2b, 0x11, 0x03, 0x03, 0x25, 0xe7,
    0xfe, 0x54, 0x43, 0x1a, 0x23, 0x15, 0xf0, 0x04, 0xf1, 0xdf, 0xe6, 0x25,
    0x03, 0x04, 0x19, 0xf5, 0xf7, 0xf0, 0xef, 0x06, 0x0a, 0x09, 0xe5, 0x0a,
    0xf8, 0xdc, 0x03, 0xec, 0x0d, 0xf3, 0xf2, 0xdc, 0x0e, 0xf8, 0x26, 0xdd,
    0x0f, 0x08, 0x0a, 0xcd, 0x08, 0xe7, 0x3d, 0xe0, 0x12, 0xe5, 0x05, 0xd8,
    0x0a, 0xf8, 0x35, 0xf5, 0x0c, 0x02, 0x15, 0xc4, 0x10, 0x00, 0x2a, 0x07,
    0x04, 0xfc, 0xf5, 0xda, 0x02, 0x27, 0x1a, 0x0c, 0x0a, 0xf3, 0x0d, 0xed,
    0x00, 0x03, 0xf6, 0x14, 0x06, 0x08, 0x1a, 0x04, 0xf8, 0x0e, 0xf1, 0xfb,
    0x0e, 0xfc, 0x04, 0xfe, 0xfa, 0xef, 0x0a, 0xe2, 0x08, 0xf9, 0xeb, 0xd2,
    0x06, 0xfd, 0x08, 0xe5, 0x09, 0x07, 0x11, 0xcb, 0xfa, 0xf4, 0x1a, 0xdc,
    0x10, 0xf5, 0xf1, 0xc6, 0x06, 0xf1, 0x2f, 0xf1, 0x0b, 0x1b, 0xf7, 0xc8,
    0xfc, 0x03, 0x38, 0x02, 0x19, 0xf4, 0xf3, 0xde, 0xff, 0x18, 0x28, 0x0a,
    0x1b, 0xfb, 0x06, 0xe5, 0x1a, 0xfc, 0xf5, 0x20, 0x03, 0xf3, 0xff, 0xec,
    0xfc, 0xfc, 0x02, 0x0b, 0xed, 0xfe, 0xf2, 0x0f, 0xf3, 0xeb, 0xee, 0xcb,
    0x09, 0xf8, 0xf7, 0xe0, 0xf1, 0xef, 0x17, 0xc7, 0xf1, 0x04, 0x14, 0xcf,
    0x10, 0xe6, 0x0c, 0xc8, 0x11, 0xe0, 0x05, 0xd0, 0xec, 0xfb, 0x17, 0xf8,
    0x0b, 0x1a, 0xf5, 0xb4, 0xf4, 0xfd, 0x2d, 0x0b, 0x04, 0xe5, 0xfe, 0xc9,
    0x0d, 0x05, 0x1a, 0x10, 0x14, 0x19, 0x24, 0xdd, 0xf9, 0x11, 0xea, 0x00,
    0x02, 0x03, 0xf4, 0xfb, 0xe7, 0x08, 0xf3, 0x1f, 0x06, 0x04, 0x1a, 0x08,
    0x1e, 0xf6, 0x06, 0xd4, 0x1c, 0xee, 0x0a, 0xdd, 0xee, 0xf9, 0xf5, 0xde,
    0x16, 0x0d, 0x0e, 0xd2, 0x01, 0xcc, 0x09, 0xde, 0x13, 0xfd, 0x0e, 0xc2,
    0xf3, 0xe8, 0x10, 0xca, 0xf8, 0xdf, 0xf1, 0xb5, 0x13, 0x0b, 0x29, 0xfb,
    0x19, 0xf1, 0x03, 0xc6, 0x03, 0xfb, 0x1e, 0xee, 0x07, 0xf9, 0x1e, 0xd6,
    0xde, 0x13, 0x64, 0x09, 0xfc, 0xda, 0x1e, 0xf6, 0xfb, 0x26, 0x3e, 0x02,
    0x0c, 0x07, 0x3a, 0x03, 0xfd, 0x1a, 0x0a, 0x05, 0xf1, 0x1f, 0x38, 0xfd,
    0x0d, 0x1d, 0x06, 0x08, 0x13, 0x1c, 0x15, 0xfd, 0x01, 0x19, 0xe1, 0x07,
    0x14, 0x26, 0x00, 0x09, 0x1c, 0x1a, 0xce, 0x04, 0x0e, 0x40, 0x04, 0x0f,
    0x10, 0x1a, 0xd3, 0xfb, 0x05, 0x3c, 0xec, 0x11, 0xd9, 0x1e, 0xcb, 0xf9,
    0xf2, 0x32, 0xdf, 0x16, 0xf0, 0x0b, 0x74, 0xfd, 0xfe, 0xf8, 0x11, 0xf5,
    0xe7, 0x20, 0x1a, 0x01, 0x16, 0x11, 0x2a, 0xfc, 0x04, 0x1b, 0x09, 0x03,
    0xfb, 0x10, 0x34, 0xf5, 0x0f, 0x1a, 0xfd, 0x05, 0x00, 0x18, 0x06, 0xfe,
    0x1a, 0x19, 0xd2, 0x02, 0x11, 0x2b, 0x10, 0x0a, 0xf7, 0x16, 0xbf, 0xff,
    0x03, 0x31, 0xf3, 0x10, 0xf1, 0x1a, 0xd1, 0xf7, 0xe2, 0x29, 0xf1, 0x0b,
    0xf6, 0x1f, 0xd9, 0xee, 0xea, 0x35, 0x01, 0x12, 0xfa, 0x0d, 0x5c, 0x03,
    0x0f, 0xec, 0x17, 0xe5, 0xfa, 0x21, 0x3f, 0xf6, 0x10, 0x0d, 0x11, 0xfb,
    0xf2, 0x21, 0x0e, 0x01, 0xe6, 0x0f, 0x20, 0xf9, 0xe7, 0x1a, 0xf8, 0x06,
    0x27, 0x0e, 0x02, 0xf1, 0xfe, 0x20, 0xca, 0xfb, 0xfc, 0x26, 0x04, 0x09,
    0x03, 0x15, 0xbd, 0xfe, 0x15, 0x34, 0xfb, 0x0e, 0x0c, 0x12, 0xc3, 0xfb,
    0xf8, 0x23, 0x08, 0x08, 0x0d, 0x20, 0xcc, 0xef, 0xf4, 0x23, 0x02, 0x16,
    0xf3, 0xfc, 0x4f, 0xf3, 0x18, 0xdf, 0x32, 0xe2, 0x02, 0x24, 0x18, 0xf3,
    0x1a, 0x01, 0x09, 0x07, 0x00, 0x22, 0x0a, 0x05, 0x21, 0x2a, 0x26, 0xff,
    0x01, 0x16, 0xe7, 0x04, 0xef, 0x18, 0x0f, 0xfa, 0x06, 0x18, 0xb6, 0x02,
    0x0b, 0x18, 0x0b, 0x0d, 0xf3, 0x18, 0xaa, 0xfd, 0xf6, 0x29, 0xe2, 0x0d,
    0x03, 0x16, 0xc0, 0xfa, 0xf5, 0x2c, 0x08, 0x0b, 0xeb, 0x1d, 0xc0, 0xf3,
    0xfc, 0x14, 0xea, 0x1a, 0xe0, 0x08, 0x47, 0x05, 0xea, 0xcc, 0x0a, 0xe1,
    0x24, 0x1c, 0x02, 0xf0, 0x16, 0xea, 0x19, 0xff, 0xf1, 0x26, 0x09, 0xff,
    0xfc, 0x0d, 0x18, 0xfd, 0xfa, 0x27, 0xe6, 0xfe, 0xe1, 0x09, 0x06, 0xf1,
    0x16, 0x26, 0x9c, 0xff, 0xf6, 0x08, 0x05, 0x05, 0xe8, 0x1d, 0x96, 0xf7,
    0x0b, 0x1c, 0xee, 0x0f, 0x14, 0x18, 0xa9, 0xf7, 0xfa, 0x09, 0x0e, 0x12,
    0x0a, 0x14, 0xaa, 0xe0, 0x0f, 0xfc, 0x12, 0x15, 0xf7, 0xfc, 0x3f, 0x0a,
    0x06, 0x00, 0xfc, 0xda, 0xf5, 0x1f, 0x11, 0x02, 0x22, 0x0f, 0xff, 0x0d,
    0xe8, 0x1c, 0x0e, 0x01, 0x17, 0x18, 0x29, 0x02, 0xfa, 0x12, 0xd4, 0x05,
    0xf5, 0x05, 0xea, 0xfa, 0x09, 0x29, 0xa1, 0x00, 0x01, 0x18, 0xf1, 0x01,
    0x00, 0x16, 0x84, 0xf6, 0xf8, 0x2a, 0xde, 0x0d, 0x08, 0x16, 0xa1, 0xeb,
    0x0a, 0x10, 0xdd, 0x07, 0xf4, 0x0d, 0xa3, 0xd0, 0xfa, 0x23, 0xec, 0x1b,
    0x12, 0xe1, 0x29, 0x0d, 0x29, 0xf5, 0x1e, 0xd5, 0xff, 0x14, 0x12, 0xe1,
    0xf0, 0x00, 0xfc, 0x02, 0xee, 0x37, 0x0d, 0xfd, 0xfa, 0x2c, 0x19, 0x05,
    0x13, 0x2e, 0xdb, 0x0b, 0x06, 0x02, 0x0f, 0xf8, 0xfb, 0x20, 0x95, 0x05,
    0xdd, 0x0a, 0x0d, 0x03, 0x0f, 0x19, 0x87, 0xee, 0xfe, 0x1f, 0xee, 0x0c,
    0x17, 0x03, 0xa0, 0xbf, 0xf4, 0x0d, 0xf2, 0x03, 0xf8, 0xff, 0x9e, 0xbb,
    0xe6, 0x0c, 0xd9, 0x02, 0xf6, 0xf1, 0x4a, 0xfd, 0xec, 0x08, 0x19, 0xca,
    0x05, 0x1d, 0xf3, 0xfc, 0xed, 0x02, 0x0e, 0x03, 0xe9, 0x30, 0x03, 0xfd,
    0x0d, 0x0f, 0x11, 0x15, 0xf2, 0x34, 0xdd, 0x10, 0xf3, 0x0e, 0xfb, 0x02,
    0x18, 0x2d, 0x95, 0xfb, 0xe7, 0x13, 0xe4, 0x11, 0x17, 0x1f, 0x86, 0xd9,
    0xec, 0x28, 0xf6, 0x17, 0xdf, 0xed, 0x95, 0xb6, 0x03, 0x20, 0x03, 0xfc,
    0x0f, 0xde, 0xaa, 0x9d, 0xea, 0x14, 0xed, 0xf6, 0x12, 0xbd, 0x26, 0xe6,
    0xfa, 0xfe, 0x0f, 0xbe, 0x1e, 0xe4, 0xeb, 0x03, 0xf1, 0x00, 0xf6, 0xf0,
    0xeb, 0x2a, 0xff, 0xf2, 0x00, 0x19, 0xeb, 0x00, 0xde, 0x25, 0xd2, 0xfa,
    0x18, 0xe6, 0x1b, 0xfa, 0xfa, 0x2b, 0xa2, 0xef, 0x20, 0x07, 0xef, 0x0f,
    0xfb, 0xf6, 0x81, 0xce, 0xf1, 0x13, 0xef, 0x18, 0xf5, 0xe5, 0xab, 0xb7,
    0xee, 0x14, 0xca, 0xe9, 0x0d, 0xbe, 0xba, 0xbb, 0x03, 0xf1, 0xf7, 0xf0,
    0xf9, 0xe4, 0x17, 0xfc, 0xf9, 0xe6, 0x2a, 0xaf, 0x20, 0x01, 0xe6, 0xe6,
    0x02, 0x01, 0x06, 0xea, 0x0e, 0x09, 0x09, 0xf7, 0x09, 0xf0, 0x15, 0xdb,
    0xeb, 0x12, 0xe8, 0xf5, 0x19, 0xfd, 0x19, 0xdb, 0x0a, 0x18, 0xcb, 0xcb,
    0xfe, 0x11, 0xdd, 0x05, 0xf0, 0x06, 0x98, 0xc3, 0xf1, 0x0a, 0xed, 0x01,
    0x0b, 0xec, 0xbc, 0xbd, 0xfe, 0x11, 0xde, 0xd7, 0xe8, 0xd4, 0x9f, 0xc7,
    0xf3, 0xef, 0x04, 0xe2, 0x0d, 0x02, 0x3b, 0x09, 0x15, 0xe7, 0x09, 0xfc,
    0x10, 0x01, 0x40, 0x06, 0xe2, 0xf1, 0x24, 0x03, 0xec, 0x02, 0x18, 0x05,
    0x04, 0x05, 0x07, 0x04, 0x12, 0xfb, 0x16, 0x08, 0x01, 0xfe, 0x1f, 0xfe,
    0xe0, 0x06, 0x12, 0x01, 0x07, 0x01, 0x15, 0x06, 0x1b, 0x0a, 0xf9, 0x02,
    0x13, 0x1d, 0x1f, 0x0a, 0xf4, 0x08, 0xfd, 0xfd, 0x03, 0xfb, 0xe7, 0xff,
    0xf5, 0x0f, 0xf7, 0xf7, 0x0d, 0x15, 0xf1, 0x0b, 0x01, 0xfd, 0x2f, 0x0a,
    0xeb, 0xdd, 0x13, 0x00, 0xf3, 0xfd, 0x32, 0x03, 0xfa, 0xe3, 0x09, 0x07,
    0xe6, 0x03, 0x18, 0x09, 0xeb, 0xee, 0x02, 0x02, 0x10, 0xfd, 0x1e, 0x06,
    0xf0, 0xfa, 0xfc, 0xfe, 0x0f, 0x05, 0x0b, 0x04, 0xf4, 0xff, 0x07, 0x08,
    0x10, 0x0e, 0xfd, 0x04, 0xf6, 0x14, 0x11, 0x0b, 0xff, 0x03, 0xf4, 0xfd,
    0x0c, 0xef, 0xff, 0x01, 0xff, 0x07, 0xe8, 0xfb, 0xfa, 0x14, 0x0c, 0x0b,
    0xea, 0xfb, 0x42, 0x07, 0xec, 0xd5, 0x0a, 0xf9, 0x00, 0xfe, 0x39, 0x01,
    0xf5, 0xf2, 0x18, 0x04, 0x10, 0x0c, 0x1b, 0x04, 0xf9, 0xf6, 0xfc, 0x0a,
    0x01, 0x08, 0x25, 0x0a, 0x24, 0xf5, 0xf7, 0x02, 0x0b, 0x0e, 0x0d, 0xfd,
    0x03, 0x0d, 0x07, 0x09, 0x15, 0x0e, 0x04, 0x05, 0x10, 0x15, 0x14, 0x0d,
    0xe5, 0x05, 0xfa, 0x05, 0xfb, 0xf5, 0x08, 0x09, 0xf2, 0x10, 0xef, 0xfb,
    0xfc, 0xea, 0xfd, 0x05, 0xf7, 0xf4, 0x3e, 0x08, 0x12, 0xd6, 0x1c, 0xed,
    0xf7, 0xf6, 0x31, 0x00, 0x0f, 0xe0, 0x05, 0xfb, 0xf6, 0x06, 0x33, 0xf9,
    0xfd, 0xec, 0xee, 0xff, 0xe1, 0x09, 0x2a, 0x00, 0xf9, 0xe3, 0x05, 0xf9,
    0xff, 0x1d, 0x06, 0x02, 0xfc, 0x19, 0x1f, 0x01, 0x20, 0x1a, 0x02, 0xfa,
    0xec, 0x14, 0x08, 0x0b, 0xe4, 0x07, 0x08, 0xff, 0x08, 0xee, 0x01, 0x09,
    0xf1, 0x0c, 0xf7, 0xff, 0x14, 0x03, 0x0c, 0x0d, 0x0f, 0xe8, 0x3d, 0xfc,
    0xfd, 0xe5, 0xf5, 0xe4, 0x01, 0xf3, 0x3b, 0xf4, 0xf2, 0xef, 0x0b, 0xfe,
    0x14, 0x09, 0x2e, 0xf6, 0xeb, 0xfc, 0xf1, 0xff, 0xf9, 0x17, 0x2b, 0xff,
    0x06, 0x0d, 0x0e, 0xfb, 0xf1, 0x28, 0x17, 0xff, 0xe7, 0xf5, 0x04, 0x06,
    0x06, 0x2c, 0x0d, 0x00, 0x0f, 0x09, 0x12, 0x10, 0xfd, 0x16, 0xfa, 0x04,
    0x0c, 0x00, 0xfe, 0x05, 0x0f, 0x18, 0xf6, 0x08, 0xed, 0x04, 0xf9, 0x11,
    0xec, 0xc8, 0x24, 0xe1, 0xf2, 0xe9, 0x0b, 0xc9, 0x07, 0xe2, 0x27, 0xe2,
    0xe2, 0xee, 0x05, 0xda, 0x08, 0x05, 0x29, 0xe8, 0xf8, 0xdd, 0x05, 0xf2,
    0xf7, 0x2d, 0x29, 0xf7, 0xf6, 0xf0, 0x05, 0xee, 0x04, 0x3d, 0x18, 0xf1,
    0xf3, 0xf7, 0x06, 0xfa, 0xea, 0x37, 0x0d, 0xfa, 0x23, 0xed, 0x15, 0x0d,
    0xfa, 0x35, 0x09, 0xff, 0x05, 0xf8, 0x04, 0x09, 0xe2, 0x24, 0x09, 0x0b,
    0xf1, 0xf5, 0x02, 0x09, 0x1f, 0xb0, 0x2e, 0xde, 0xfc, 0xdc, 0xe9, 0x9f,
    0xe2, 0xcc, 0x0b, 0xe7, 0xe4, 0xde, 0xf5, 0xc2, 0x04, 0xfc, 0x28, 0xea,
    0x0b, 0xeb, 0x00, 0xf1, 0xee, 0x2e, 0x40, 0x01, 0xfe, 0xd1, 0x02, 0xe5,
    0x14, 0x54, 0x17, 0xf7, 0x1d, 0xed, 0xfd, 0x05, 0xf7, 0x55, 0x01, 0xed,
    0x04, 0xef, 0xee, 0x12, 0xfe, 0x44, 0x1c, 0x0c, 0x00, 0xe1, 0x12, 0x04,
    0xe7, 0x40, 0x1f, 0x0b, 0xe4, 0xf1, 0x09, 0x13, 0xfd, 0x9a, 0x3d, 0xdb,
    0x08, 0xe8, 0xf5, 0x82, 0x04, 0xcb, 0x1b, 0xf2, 0xf5, 0xe0, 0xef, 0xa7,
    0xe5, 0xec, 0x1b, 0xd9, 0xe8, 0xf0, 0xf4, 0xd2, 0x01, 0x26, 0x2c, 0x00,
    0x0e, 0xdb, 0x2a, 0xdd, 0x0c, 0x5b, 0x18, 0xf7, 0xf9, 0xfe, 0x0b, 0xfe,
    0x1a, 0x6f, 0x12, 0x01, 0x16, 0xef, 0x0a, 0x1d, 0x0a, 0x3e, 0x0b, 0x02,
    0x06, 0xe3, 0xe9, 0x07, 0x01, 0x3f, 0x0a, 0x21, 0x0f, 0xfc, 0x11, 0x13,
    0xf0, 0x87, 0x09, 0xf0, 0x02, 0xfd, 0x21, 0x81, 0x0f, 0xbf, 0x1d, 0xe6,
    0x01, 0x08, 0x1c, 0xb8, 0x09, 0xd6, 0x27, 0xe1, 0xfa, 0xf3, 0xf4, 0xbf,
    0xee, 0x10, 0x2f, 0xe8, 0xf6, 0xe4, 0x16, 0xc2, 0xf5, 0x45, 0x17, 0xed,
    0x04, 0xef, 0x0b, 0xe2, 0xf2, 0x4b, 0x0e, 0xef, 0x1f, 0xdd, 0xee, 0xeb,
    0xe1, 0x49, 0x04, 0x06, 0xe3, 0xf0, 0x19, 0xe6, 0x0a, 0x45, 0x12, 0x18,
    0x0b, 0xf1, 0x26, 0x0b, 0xf8, 0xa2, 0xfc, 0xfd, 0x08, 0xdb, 0x0e, 0x95,
    0x05, 0xbf, 0x00, 0xed, 0xf8, 0xf0, 0x23, 0xc4, 0x09, 0xec, 0x07, 0xcc,
    0x0a, 0xe5, 0xf9, 0xb1, 0x11, 0x0f, 0x59, 0xd6, 0xff, 0xfc, 0xfe, 0xa1,
    0x1d, 0x21, 0x3c, 0xdf, 0x0f, 0xdb, 0x05, 0xb7, 0xe0, 0x2b, 0x25, 0xe3,
    0x0a, 0xff, 0x1e, 0xe3, 0xec, 0x27, 0x21, 0x01, 0x14, 0xe9, 0x15, 0xdc,
    0xfa, 0x27, 0x09, 0x17, 0xf8, 0x03, 0x2b, 0xed, 0x07, 0x2d, 0x0b, 0xef,
    0xdb, 0x32, 0xf2, 0x1b, 0x0d, 0x34, 0xff, 0xe3, 0x24, 0x35, 0x12, 0x14,
    0xfe, 0x21, 0xfe, 0x03, 0x1f, 0x32, 0x0f, 0x04, 0xf6, 0x13, 0x45, 0x01,
    0x16, 0x27, 0x0d, 0x07, 0xe3, 0x1c, 0x6b, 0xf2, 0x1c, 0x16, 0x03, 0x0b,
    0xfb, 0x1b, 0x6f, 0xfa, 0x0f, 0x0b, 0xff, 0x0c, 0xf5, 0x18, 0x5e, 0xfd,
    0xf3, 0xcf, 0x1e, 0xfe, 0xfc, 0x1b, 0x17, 0xf5, 0x09, 0xf3, 0x00, 0x0a,
    0x17, 0x41, 0xe9, 0xf8, 0x09, 0x34, 0x0b, 0x2a, 0x0b, 0x29, 0xe2, 0xd8,
    0xfc, 0x39, 0x13, 0x15, 0x10, 0x19, 0xf8, 0xfc, 0xef, 0x31, 0x1b, 0x08,
    0x0d, 0x04, 0x2c, 0xfb, 0x0c, 0x10, 0x02, 0x13, 0x01, 0x0a, 0x62, 0xe6,
    0xf1, 0xf8, 0xfc, 0x04, 0x01, 0x0e, 0x62, 0x02, 0xf5, 0xfc, 0x15, 0x03,
    0x1a, 0x1e, 0x46, 0x03, 0x26, 0xe4, 0x08, 0xf9, 0x06, 0x30, 0x29, 0xf6,
    0x08, 0xdd, 0x0c, 0x0d, 0x0a, 0x3c, 0xc9, 0xe2, 0xe7, 0x2d, 0x01, 0x40,
    0xe8, 0x2a, 0xed, 0xc7, 0xea, 0x20, 0x1e, 0x1a, 0xee, 0x0e, 0x08, 0xff,
    0xf8, 0x27, 0x14, 0x02, 0xfb, 0x09, 0x19, 0xf1, 0x17, 0x03, 0xf9, 0x05,
    0x22, 0x0c, 0x5a, 0xdc, 0xf6, 0xfa, 0x19, 0xed, 0x08, 0x0c, 0x6c, 0xfe,
    0x0d, 0xf2, 0x19, 0xee, 0xf6, 0x2b, 0x59, 0x08, 0xfe, 0xce, 0x08, 0xfd,
    0x16, 0x3b, 0x2c, 0x04, 0xe5, 0xe6, 0xf8, 0x0b, 0x1a, 0x40, 0xd4, 0xe3,
    0xdb, 0x2d, 0x06, 0x51, 0x09, 0x28, 0xbc, 0xde, 0x0b, 0x2e, 0xef, 0x2d,
    0xf9, 0xf8, 0x09, 0xf6, 0xfa, 0x00, 0x13, 0x12, 0x12, 0xee, 0x02, 0xe1,
    0xf6, 0x08, 0xf8, 0xfb, 0x18, 0xfc, 0x50, 0xef, 0x00, 0xd2, 0x00, 0xed,
    0xe8, 0xff, 0x60, 0x10, 0xec, 0xe2, 0xf1, 0xdd, 0xe2, 0x1e, 0x3b, 0x12,
    0xfb, 0xd1, 0xf9, 0x10, 0xdc, 0x38, 0x12, 0x21, 0xe4, 0x18, 0xe9, 0x20,
    0xd6, 0x53, 0xa8, 0x00, 0xfe, 0x3e, 0x12, 0x6f, 0x15, 0x2c, 0xb4, 0xd4,
    0x04, 0x26, 0x00, 0x4c, 0x1b, 0x03, 0x16, 0xea, 0x09, 0x03, 0xfb, 0x11,
    0x11, 0xcc, 0x00, 0xdd, 0xec, 0xfe, 0xe8, 0xf9, 0xe9, 0xda, 0x28, 0xd6,
    0xda, 0xeb, 0xfa, 0xd2, 0xf6, 0xe6, 0x64, 0xf8, 0x0b, 0xdc, 0xff, 0xd4,
    0xda, 0x33, 0x2d, 0x10, 0xf4, 0xf3, 0x08, 0x03, 0xea, 0x3f, 0x1a, 0x0b,
    0x04, 0xf1, 0x13, 0x15, 0xfb, 0x60, 0x81, 0xef, 0x1e, 0x2d, 0xf6, 0x73,
    0xd7, 0x23, 0x97, 0xe1, 0x0c, 0x3b, 0xf4, 0x43, 0x13, 0xfd, 0x09, 0xfa,
    0x06, 0x20, 0xf8, 0x14, 0xff, 0xe0, 0xfd, 0xf2, 0xf7, 0x12, 0x04, 0xf3,
    0x0d, 0xb5, 0x16, 0xf5, 0xfa, 0xe4, 0xdb, 0xcf, 0xfc, 0xc8, 0x37, 0xfb,
    0x06, 0xf4, 0xe7, 0xb5, 0xe9, 0x2d, 0x59, 0x08, 0x08, 0xfe, 0x07, 0xfc,
    0xf3, 0x35, 0x2b, 0x25, 0x09, 0xfe, 0x13, 0x16, 0x13, 0x4b, 0xba, 0xdb,
    0x29, 0x33, 0xf2, 0x74, 0x14, 0x20, 0x98, 0xe5, 0xd4, 0x34, 0xf5, 0x38,
    0xd8, 0xe2, 0xef, 0xde, 0x08, 0x19, 0x1d, 0xf8, 0x04, 0xb0, 0xe9, 0xc4,
    0x03, 0xf7, 0xec, 0xe2, 0xf6, 0xab, 0x3c, 0xf0, 0x0f, 0xfd, 0xd7, 0xc1,
    0x00, 0xc5, 0x3c, 0xd9, 0xed, 0xfb, 0xff, 0xb0, 0xf3, 0x1c, 0x2d, 0x09,
    0x0f, 0xe2, 0xee, 0xd8, 0xf2, 0x1b, 0x2a, 0xf5, 0x22, 0xfe, 0x2d, 0xfb,
    0x28, 0x69, 0x99, 0xfb, 0xf7, 0x29, 0x01, 0x51, 0xfc, 0x39, 0xde, 0xd3,
    0xd6, 0xfd, 0xe9, 0x1d, 0xe3, 0xe4, 0xfd, 0xe3, 0x09, 0xfe, 0xe9, 0xeb,
    0x1a, 0xc2, 0xde, 0xea, 0x03, 0x01, 0x05, 0xcc, 0x10, 0xad, 0xff, 0xdb,
    0x0f, 0x08, 0x09, 0xc2, 0x1b, 0xaf, 0x47, 0xd9, 0x12, 0xe8, 0xea, 0x9e,
    0x03, 0xed, 0x63, 0xf6, 0xff, 0x18, 0x24, 0xc2, 0x0a, 0x16, 0x47, 0xf8,
    0xe1, 0x28, 0xf8, 0xed, 0x12, 0x38, 0xcd, 0xb3, 0xe0, 0x45, 0xd8, 0x36,
    0x2d, 0x1c, 0xd9, 0xc0, 0x18, 0x3b, 0xfd, 0xf7, 0x13, 0xdd, 0xe5, 0xf8,
    0xf8, 0xeb, 0xf1, 0xb4, 0x09, 0xb5, 0x05, 0xcf, 0x0d, 0x07, 0x17, 0xb9,
    0x04, 0xcf, 0xf8, 0xdd, 0x0b, 0xf7, 0xe9, 0xc6, 0x19, 0xc1, 0x17, 0xf5,
    0x22, 0x06, 0xef, 0xa1, 0x1f, 0xf1, 0x11, 0xe4, 0xf2, 0x0f, 0xff, 0xcc,
    0x28, 0x0a, 0xf7, 0xef, 0xe8, 0x24, 0xfe, 0xd4, 0xfc, 0x42, 0xca, 0xe6,
    0xe5, 0x2e, 0xf6, 0xe8, 0x17, 0xec, 0xde, 0xc4, 0xf9, 0x19, 0x16, 0xca,
    0xff, 0xb9, 0xec, 0xfb, 0x01, 0x1b, 0xf7, 0x9f, 0x1f, 0xa3, 0xf0, 0xd1,
    0x14, 0x0c, 0xf8, 0xc3, 0x13, 0xb7, 0xfe, 0xe4, 0x00, 0x02, 0x1a, 0xa1,
    0x14, 0xb5, 0x13, 0xec, 0x15, 0x16, 0xfe, 0x93, 0x01, 0xde, 0x04, 0xff,
    0x0f, 0xd3, 0xf9, 0xcc, 0xf1, 0xc8, 0x02, 0xe3, 0x0c, 0xf3, 0xdf, 0xd6,
    0xf3, 0x06, 0x6a, 0x13, 0xe9, 0xfe, 0x3d, 0xfc, 0x17, 0x1b, 0x2e, 0x1a,
    0x0d, 0x28, 0x18, 0x12, 0x1f, 0x09, 0x0c, 0x0e, 0xfe, 0x34, 0x1e, 0x02,
    0xd6, 0x0f, 0xf5, 0x11, 0xf8, 0x34, 0x06, 0x00, 0xec, 0x18, 0xd3, 0x0e,
    0xf3, 0x40, 0xf2, 0x10, 0x0e, 0x22, 0xcd, 0x13, 0xfb, 0x50, 0xf3, 0x17,
    0xfc, 0x1a, 0xd2, 0x02, 0x0b, 0x32, 0xf7, 0x17, 0x10, 0x23, 0xce, 0x01,
    0xe3, 0x40, 0xf8, 0x1d, 0x0d, 0x03, 0x48, 0x12, 0xf3, 0x0c, 0x29, 0xf7,
    0x0c, 0x13, 0x10, 0x0f, 0xed, 0x13, 0x2d, 0x07, 0x17, 0x01, 0x07, 0x0e,
    0x07, 0x27, 0x2e, 0x00, 0x23, 0x0e, 0xe9, 0x0e, 0x18, 0x3d, 0x16, 0xf9,
    0xe5, 0x11, 0xc0, 0x0e, 0xf3, 0x3d, 0xfd, 0x0c, 0xf2, 0x1c, 0xc6, 0x04,
    0xfa, 0x38, 0xfd, 0x0b, 0x03, 0x11, 0xd6, 0x00, 0xff, 0x3a, 0x12, 0x08,
    0xfa, 0x1e, 0xd3, 0xf9, 0xfe, 0x2f, 0xf1, 0x13, 0x23, 0xfb, 0x41, 0x12,
    0x01, 0xf9, 0x0c, 0xf2, 0xee, 0x12, 0x0e, 0x06, 0x11, 0xf7, 0x1e, 0x0d,
    0xf7, 0x0b, 0x05, 0x0d, 0x00, 0x27, 0x2c, 0x00, 0x0c, 0x00, 0xdd, 0x09,
    0xee, 0x22, 0x38, 0xf6, 0xe4, 0x0c, 0xab, 0x0d, 0x0f, 0x3b, 0x22, 0x0e,
    0x02, 0x16, 0xad, 0x00, 0xfb, 0x27, 0xeb, 0x10, 0x1e, 0x0f, 0xcc, 0xf7,
    0xee, 0x38, 0x02, 0x06, 0x0a, 0x15, 0xc3, 0xe8, 0xdd, 0x33, 0xde, 0x17,
    0xec, 0xfe, 0x4c, 0x13, 0x09, 0xeb, 0x1a, 0xfc, 0xf6, 0x16, 0x0a, 0x02,
    0x29, 0x2f, 0xfc, 0x10, 0xe5, 0x07, 0x02, 0x0b, 0x01, 0x28, 0x29, 0x06,
    0xf7, 0x03, 0xd1, 0x09, 0x18, 0x37, 0x1b, 0xff, 0x07, 0x14, 0x8c, 0x09,
    0x0e, 0x2f, 0xff, 0x0e, 0xeb, 0x0d, 0x9f, 0xfe, 0xf4, 0x34, 0xe3, 0x10,
    0x11, 0x0d, 0xbe, 0xf1, 0x0e, 0x22, 0x0c, 0x0f, 0xf8, 0x14, 0xb6, 0xe8,
    0xe6, 0x16, 0x0a, 0x18, 0x09, 0x11, 0x2d, 0x0b, 0x00, 0xfe, 0x17, 0xfd,
    0xf3, 0x22, 0x03, 0x05, 0x0d, 0x0e, 0x25, 0x17, 0xf5, 0x07, 0xfd, 0x11,
    0xf6, 0x21, 0x1c, 0x08, 0x17, 0x05, 0xc6, 0x14, 0xf8, 0x1a, 0x23, 0xff,
    0xe6, 0x12, 0x8f, 0x06, 0x0f, 0x33, 0x05, 0x10, 0xfb, 0x0c, 0x8b, 0xf8,
    0xe9, 0x30, 0xf8, 0x12, 0xe5, 0x00, 0xad, 0xdf, 0x05, 0x16, 0xe9, 0x07,
    0xef, 0x00, 0xa4, 0xce, 0xda, 0x1e, 0xed, 0x16, 0x07, 0x0e, 0x1f, 0x0d,
    0xee, 0x0e, 0x16, 0x11, 0xf6, 0x21, 0xd7, 0xf1, 0x23, 0x1d, 0xfa, 0x18,
    0x0c, 0x0e, 0xfe, 0x15, 0x26, 0x14, 0xff, 0x16, 0xfc, 0x10, 0xc3, 0x12,
    0xfe, 0x22, 0xfa, 0x07, 0xe9, 0x18, 0x8b, 0xfb, 0x04, 0x2d, 0x00, 0x12,
    0xe7, 0x02, 0x82, 0xdf, 0x11, 0x31, 0xf1, 0x0f, 0xf0, 0x02, 0xb1, 0xcb,
    0xf0, 0x18, 0xf8, 0x01, 0x04, 0xee, 0xa9, 0xba, 0x16, 0x2e, 0xf3, 0x0c,
    0x28, 0x18, 0x33, 0x23, 0xf7, 0xf0, 0xff, 0x0f, 0xff, 0x30, 0xd4, 0x0f,
    0x12, 0x17, 0xfa, 0x37, 0x02, 0x2e, 0xfe, 0x16, 0x17, 0x17, 0x0c, 0x24,
    0x12, 0x11, 0xc6, 0x0c, 0xf4, 0x1e, 0x0d, 0x02, 0xd6, 0x1a, 0xa1, 0xf4,
    0xed, 0x1f, 0xde, 0x1b, 0x03, 0xfd, 0x81, 0xba, 0xf9, 0x1e, 0x05, 0x00,
    0xf4, 0xdd, 0xba, 0xb8, 0x0a, 0x0c, 0xf2, 0xf2, 0xf4, 0xd0, 0xa6, 0x9f,
    0x09, 0x20, 0xfb, 0xf8, 0xf5, 0x19, 0x20, 0x25, 0xf6, 0xed, 0x16, 0x0c,
    0x19, 0x3e, 0xe0, 0x0d, 0xf4, 0x0e, 0x20, 0x41, 0x20, 0x41, 0x06, 0x0d,
    0x03, 0x25, 0xfc, 0x2d, 0x04, 0x12, 0xcb, 0xe9, 0x06, 0x18, 0x0e, 0x07,
    0x0a, 0x04, 0xa4, 0xda, 0x1b, 0x26, 0xf5, 0x01, 0x09, 0xf0, 0x9d, 0xb5,
    0xf0, 0x22, 0xf6, 0xf4, 0x11, 0xcb, 0xb0, 0xba, 0x14, 0x21, 0xf7, 0xdf,
    0xe6, 0xbe, 0xa3, 0xa6, 0xf8, 0x10, 0xe7, 0xde, 0x1a, 0x23, 0x19, 0xea,
    0xee, 0x04, 0x10, 0xfd, 0x05, 0x07, 0xc8, 0xfd, 0xff, 0x04, 0xf2, 0x1c,
    0x16, 0x1e, 0x0e, 0xe9, 0xfe, 0x03, 0x19, 0xfb, 0xe3, 0x0a, 0xdb, 0xc9,
    0x06, 0x1a, 0x21, 0xf6, 0x12, 0xf8, 0xbc, 0xbd, 0xf7, 0x19, 0x00, 0xf3,
    0xfb, 0xd8, 0xb6, 0xd0, 0xe6, 0x14, 0xcb, 0xda, 0x0b, 0xb0, 0xd3, 0xc0,
    0xe8, 0xf2, 0xe9, 0xc4, 0x02, 0xb8, 0xc2, 0xa4, 0xf9, 0x18, 0x12, 0xb3,
    0x18, 0xfa, 0x22, 0xd9, 0xe3, 0xde, 0x05, 0xd5, 0xea, 0x0c, 0xdc, 0xd1,
    0xff, 0xf7, 0x0a, 0xe8, 0x10, 0x02, 0x03, 0xc9, 0x02, 0x19, 0xe8, 0xe1,
    0xdf, 0x02, 0xd4, 0xa7, 0xfe, 0x09, 0x02, 0xc5, 0x0d, 0x01, 0xbe, 0xbd,
    0x16, 0x25, 0xfe, 0xde, 0xea, 0xce, 0xea, 0xc0, 0xf2, 0x18, 0x03, 0xd1,
    0xe0, 0xbc, 0xe3, 0xa8, 0xe0, 0xf5, 0x1c, 0xce, 0x20, 0xb6, 0xe9, 0xb6,
    0x01, 0x01, 0xe5, 0xbe, 0xf6, 0xf5, 0x40, 0x0c, 0x04, 0xc9, 0x09, 0xee,
    0x07, 0xf8, 0x5d, 0x00, 0x11, 0xcd, 0x0a, 0xfa, 0xff, 0x01, 0x3f, 0x06,
    0xe3, 0xe5, 0xff, 0xfb, 0xf8, 0x02, 0x46, 0x0b, 0xe7, 0x00, 0x09, 0x01,
    0xfd, 0x16, 0x26, 0x01, 0x13, 0x09, 0x19, 0x0b, 0xf9, 0x14, 0x14, 0xfb,
    0xe9, 0x14, 0x00, 0x0e, 0xf5, 0xff, 0x14, 0xfd, 0xea, 0xec, 0xfa, 0xf7,
    0xfa, 0x01, 0x01, 0xfd, 0xee, 0xdf, 0xfc, 0x00, 0xea, 0xed, 0x35, 0x05,
    0xf2, 0xc9, 0x1a, 0xeb, 0xf7, 0xf7, 0x31, 0x01, 0xdc, 0xd5, 0x06, 0x01,
    0xf3, 0x04, 0x35, 0x05, 0xe8, 0xd8, 0x07, 0x02, 0x0c, 0x08, 0x3b, 0x08,
    0x11, 0xeb, 0x0e, 0x04, 0x17, 0x17, 0x29, 0x03, 0x16, 0x01, 0x1b, 0x0a,
    0x12, 0x1c, 0x17, 0xfe, 0x0f, 0x0c, 0x06, 0x0a, 0xf4, 0x02, 0x17, 0xfc,
    0xf4, 0xea, 0x09, 0xfa, 0xee, 0x08, 0x18, 0xfe, 0x18, 0xe7, 0x23, 0xfe,
    0x02, 0xe5, 0x28, 0xfe, 0xf8, 0xc9, 0x00, 0xe8, 0xec, 0x00, 0x21, 0xfe,
    0xe3, 0xdc, 0x1d, 0xf3, 0x01, 0x08, 0x36, 0x03, 0x01, 0xdc, 0xf2, 0x05,
    0xf4, 0x10, 0x3d, 0x0b, 0xfb, 0xe1, 0x09, 0x01, 0xf2, 0x1b, 0x20, 0x06,
    0xf6, 0xf4, 0xed, 0xfe, 0xf7, 0x1e, 0x18, 0x02, 0xe1, 0xfa, 0xfc, 0x08,
    0xf9, 0x0d, 0x0d, 0x04, 0xe0, 0xe7, 0x12, 0xf9, 0xe5, 0x11, 0x0a, 0xfe,
    0x08, 0xe0, 0x0e, 0xff, 0x0e, 0xd6, 0x30, 0xf0, 0xf5, 0xd8, 0x22, 0xd8,
    0xe2, 0xe9, 0x2d, 0xfc, 0x07, 0xd7, 0xfb, 0xe4, 0xf0, 0x09, 0x28, 0x01,
    0xf6, 0xe1, 0x14, 0xf7, 0xfd, 0x1d, 0x40, 0x0a, 0xf8, 0xe8, 0x12, 0x03,
    0xfe, 0x2d, 0x2d, 0x08, 0xf2, 0xeb, 0xf5, 0x0a, 0xf3, 0x2f, 0x27, 0x06,
    0xe2, 0xfa, 0x1a, 0x14, 0xe8, 0x15, 0x11, 0x06, 0x01, 0xeb, 0xf2, 0x02,
    0xf0, 0x17, 0x2e, 0x13, 0x02, 0xf9, 0xff, 0xff, 0x12, 0xcc, 0x27, 0xe1,
    0xfa, 0xd2, 0x07, 0xc0, 0xfb, 0xe4, 0x22, 0xf8, 0x02, 0xe2, 0xfc, 0xda,
    0x05, 0xfc, 0x2f, 0xfb, 0xed, 0xf4, 0xf4, 0xee, 0xe8, 0x2c, 0x4a, 0x03,
    0x1a, 0xd8, 0x22, 0xfc, 0xe8, 0x26, 0x22, 0x06, 0x03, 0xff, 0x18, 0xff,
    0x1f, 0x35, 0x13, 0x04, 0x1c, 0xf8, 0xf3, 0x07, 0x01, 0x1e, 0x21, 0x05,
    0xfa, 0xfe, 0x18, 0x07, 0x12, 0x1c, 0x2e, 0x10, 0xfd, 0xf7, 0x14, 0x01,
    0xde, 0xbc, 0x24, 0xe1, 0xfc, 0xdd, 0x17, 0xa8, 0x08, 0xc7, 0x30, 0x05,
    0x07, 0xd3, 0xe0, 0xb3, 0xdd, 0xf2, 0x23, 0xee, 0x03, 0xc4, 0x12, 0xd9,
    0xe4, 0x2a, 0x3a, 0xf7, 0xf0, 0x00, 0x20, 0xf6, 0xea, 0x2e, 0x1b, 0x04,
    0x0c, 0xe0, 0x0f, 0x02, 0xf1, 0x36, 0x0a, 0xfe, 0x10, 0xfc, 0xf3, 0x05,
    0x10, 0x29, 0x23, 0x0b, 0x0e, 0xf1, 0x07, 0x06, 0x0c, 0x2b, 0x23, 0x19,
    0x03, 0xf9, 0xfd, 0x04, 0x07, 0xab, 0x12, 0xcf, 0xf8, 0xe0, 0x25, 0x8e,
    0x19, 0xcd, 0x3d, 0xf9, 0x0f, 0xe4, 0xf9, 0xa8, 0x24, 0xec, 0x24, 0xea,
    0xf9, 0xdd, 0xe3, 0xc5, 0xf7, 0x2c, 0x35, 0xe9, 0xf8, 0xea, 0x1a, 0xd9,
    0xdc, 0x37, 0x2f, 0xf3, 0xf7, 0xee, 0xf4, 0xec, 0x0d, 0x38, 0x16, 0x02,
    0x0a, 0xfd, 0x0f, 0x0a, 0xfc, 0x32, 0x23, 0x11, 0xf1, 0xdf, 0x08, 0x04,
    0xfa, 0x32, 0x25, 0x24, 0x18, 0xfe, 0xfe, 0x0e, 0xfd, 0xaa, 0x0e, 0x00,
    0xfe, 0xf3, 0x22, 0xa1, 0xf7, 0xcc, 0x20, 0x0b, 0x18, 0xed, 0xf2, 0xc5,
    0x05, 0xe4, 0x22, 0xd9, 0x15, 0xfd, 0x0d, 0xb0, 0xfc, 0x02, 0x46, 0xd5,
    0x20, 0xf1, 0xfc, 0xc5, 0x00, 0x23, 0x32, 0xe0, 0x00, 0xf1, 0x1f, 0xd1,
    0xf5, 0x41, 0x22, 0xf1, 0x1c, 0xf7, 0x04, 0xe3, 0xe4, 0x43, 0x26, 0x0e,
    0xfb, 0x0b, 0x0c, 0xf6, 0x09, 0x45, 0x21, 0x16, 0x0e, 0x0f, 0x1a, 0x14,
    0x0b, 0xbf, 0xee, 0x05, 0xe6, 0xe5, 0x16, 0xaa, 0xf8, 0xc3, 0x18, 0x07,
    0x10, 0xfa, 0xfa, 0xdb, 0x07, 0xc9, 0x16, 0xc6, 0x01, 0xe5, 0x1b, 0x9f,
    0x07, 0xfd, 0x34, 0xd1, 0x0d, 0xe2, 0xfc, 0x9e, 0xee, 0xfc, 0x32, 0xd7,
    0xe3, 0xed, 0xef, 0xa8, 0xf9, 0x14, 0x2b, 0xd6, 0x07, 0xfd, 0x14, 0xbc,
    0x03, 0x27, 0x32, 0x08, 0x02, 0xed, 0xfa, 0xd0, 0x0d, 0x2e, 0x3c, 0x0a,
    0x02, 0x04, 0x05, 0xe7, 0xf8, 0xd5, 0xe5, 0xfb, 0xf6, 0xdd, 0x0c, 0xe1,
    0x16, 0xd0, 0x06, 0x05, 0x0d, 0xf9, 0x02, 0xec, 0x17, 0xb8, 0x08, 0xb0,
    0xe6, 0xf3, 0xf4, 0x91, 0x10, 0xc9, 0x2c, 0xa8, 0x04, 0xd8, 0x03, 0x87,
    0xff, 0xdc, 0x53, 0x9a, 0x01, 0xe8, 0x10, 0x81, 0x0f, 0xfa, 0x61, 0xcc,
    0xf2, 0xf8, 0x00, 0x8a, 0x00, 0xfb, 0x50, 0xe4, 0x0d, 0xea, 0x00, 0x96,
    0x01, 0x22, 0x50, 0xf9, 0x17, 0xef, 0x19, 0xba, 0x12, 0x0d, 0xda, 0x03,
    0xf2, 0x31, 0x04, 0x0b, 0xe7, 0x0c, 0xde, 0xeb, 0xf9, 0x2a, 0x03, 0x0a,
    0xf3, 0x06, 0xee, 0x06, 0xfc, 0x25, 0x28, 0x02, 0xe1, 0xfd, 0xff, 0x03,
    0x18, 0x2e, 0x30, 0x08, 0xfd, 0x04, 0x5e, 0x06, 0x09, 0x04, 0x00, 0x0b,
    0x0e, 0x06, 0x4b, 0x08, 0xfe, 0x07, 0x02, 0x09, 0x00, 0xf4, 0x3f, 0x00,
    0x04, 0xed, 0x16, 0xfa, 0xe7, 0xfb, 0x07, 0xfa, 0xfa, 0xe7, 0x03, 0xff,
    0x0b, 0x0c, 0xe1, 0xf0, 0xf5, 0x29, 0x0e, 0x13, 0x0f, 0x09, 0xe6, 0xe6,
    0x10, 0x28, 0x1c, 0x0e, 0x03, 0x08, 0xf4, 0x0c, 0xf3, 0x1f, 0x17, 0x0b,
    0x03, 0xf9, 0xef, 0x07, 0xf5, 0x23, 0x04, 0x0a, 0xee, 0x01, 0x2e, 0x08,
    0xea, 0x0f, 0x05, 0x0b, 0xfe, 0x03, 0x4f, 0x09, 0xf5, 0xf8, 0x1a, 0x07,
    0x14, 0xf8, 0x33, 0xff, 0x09, 0xd9, 0xf5, 0xfb, 0xe5, 0xfe, 0x08, 0xfa,
    0xfc, 0xe4, 0xf1, 0xfd, 0x1d, 0x11, 0xd1, 0xf7, 0x08, 0x21, 0xf8, 0x0c,
    0x0b, 0x0a, 0xd8, 0xee, 0x0e, 0x27, 0x0e, 0x06, 0xf1, 0x09, 0xef, 0x0c,
    0xfc, 0x09, 0x15, 0x09, 0xe1, 0xf8, 0xf0, 0x01, 0x0a, 0x17, 0x1f, 0x09,
    0x1d, 0xfe, 0x28, 0x01, 0xf1, 0x06, 0x2b, 0x0c, 0xe2, 0xfe, 0x5e, 0x08,
    0x03, 0xf6, 0x17, 0x0a, 0x08, 0xf7, 0x25, 0x02, 0xf4, 0xea, 0x09, 0xfa,
    0x05, 0x07, 0x0e, 0xfa, 0x00, 0xf5, 0x00, 0x02, 0x01, 0x16, 0xde, 0xf4,
    0x1d, 0x36, 0x0f, 0x0c, 0xe0, 0x0c, 0xba, 0xd6, 0x0c, 0x25, 0x18, 0x06,
    0xf9, 0x03, 0xf5, 0x10, 0x13, 0x14, 0x01, 0x01, 0x14, 0xf0, 0xea, 0x05,
    0xfd, 0x14, 0xf8, 0x0a, 0x03, 0x04, 0x3d, 0xff, 0xf8, 0x08, 0x0e, 0x01,
    0x03, 0xff, 0x52, 0x0d, 0x13, 0xf8, 0x07, 0x00, 0x03, 0xff, 0x3e, 0x0b,
    0xef, 0xf0, 0x19, 0xf9, 0xe4, 0x0b, 0x11, 0xfe, 0x05, 0xde, 0x1a, 0x04,
    0xfe, 0x1f, 0xc4, 0xff, 0xed, 0x1c, 0xf2, 0x18, 0x18, 0x12, 0xb4, 0xd5,
    0x1b, 0x2a, 0x0b, 0x0e, 0xfc, 0x04, 0xf1, 0x1a, 0xe8, 0x18, 0x06, 0x13,
    0x10, 0x07, 0xed, 0x01, 0xeb, 0x23, 0xee, 0x0d, 0x0e, 0x08, 0x15, 0xff,
    0xfa, 0x05, 0x17, 0x02, 0x07, 0x08, 0x56, 0x16, 0xf6, 0x04, 0xf2, 0xf9,
    0x11, 0x16, 0x42, 0x19, 0x0c, 0xe1, 0x0c, 0x0d, 0x09, 0x17, 0x0c, 0x15,
    0xfc, 0xfc, 0x1c, 0x10, 0x0a, 0x33, 0xbb, 0xf7, 0x1f, 0x2a, 0x07, 0x33,
    0x15, 0x15, 0xbf, 0xdf, 0xdf, 0x0c, 0xf2, 0x1a, 0xeb, 0x02, 0xfd, 0x15,
    0xfa, 0x08, 0xf5, 0x11, 0xeb, 0xe7, 0xda, 0xee, 0x01, 0xf9, 0xec, 0x0a,
    0x1e, 0xf9, 0x1e, 0xeb, 0xf3, 0xed, 0x05, 0xf0, 0x01, 0xed, 0x3b, 0x21,
    0x05, 0xe9, 0xe7, 0xea, 0xfe, 0x22, 0x3c, 0x1c, 0xe7, 0xff, 0xf7, 0x01,
    0xf3, 0x1a, 0x22, 0x13, 0x0f, 0x19, 0xf9, 0x16, 0xe1, 0x46, 0xa6, 0x00,
    0xfb, 0x34, 0xf9, 0x52, 0x0c, 0x1e, 0x9c, 0xdf, 0xfb, 0x0d, 0xf2, 0x28,
    0x06, 0x15, 0x0a, 0x05, 0x0e, 0x27, 0x12, 0x10, 0x16, 0xee, 0xf1, 0xd9,
    0xfb, 0x1a, 0x17, 0x02, 0xe5, 0xe2, 0x15, 0xdd, 0xf0, 0xe8, 0xe4, 0xdd,
    0x1a, 0xe3, 0x37, 0x06, 0xf7, 0xfd, 0x02, 0xce, 0x12, 0x0f, 0x40, 0x10,
    0xf1, 0xf8, 0x1e, 0x04, 0xfa, 0x32, 0x11, 0x03, 0xeb, 0x05, 0x02, 0x0d,
    0xff, 0x5a, 0x98, 0xf5, 0x08, 0x23, 0xe5, 0x74, 0x0c, 0x30, 0x8e, 0xd5,
    0xfc, 0x16, 0xf8, 0x39, 0xf7, 0x0b, 0x09, 0xe1, 0x02, 0x1e, 0x15, 0x0b,
    0xfd, 0xe2, 0xe4, 0xc1, 0xf4, 0x26, 0x00, 0xf4, 0x00, 0xd0, 0x08, 0xd0,
    0xf2, 0x09, 0xfd, 0xca, 0x0c, 0xcd, 0x3c, 0xec, 0xef, 0xd5, 0xf1, 0xb2,
    0xec, 0x18, 0x2f, 0xf1, 0x03, 0xf2, 0x01, 0xe3, 0x09, 0x31, 0x16, 0xf4,
    0xeb, 0x15, 0x00, 0xf6, 0xf6, 0x50, 0xbe, 0xf6, 0x0e, 0x28, 0xf0, 0x7f,
    0xee, 0x31, 0xb6, 0xd8, 0x0f, 0x14, 0xed, 0x2f, 0x21, 0xf6, 0x03, 0xd6,
    0xfe, 0xf8, 0x12, 0x04, 0x0f, 0xdd, 0xe8, 0xc3, 0x0a, 0x2e, 0x0c, 0xdf,
    0xec, 0xb1, 0xfc, 0xce, 0x00, 0xfb, 0xff, 0xb0, 0x0c, 0xa8, 0x21, 0xdf,
    0xe9, 0xed, 0x02, 0xa4, 0x0e, 0xf3, 0x1a, 0xd9, 0x00, 0x0f, 0x11, 0xc2,
    0xf0, 0x22, 0x07, 0xcd, 0xeb, 0x14, 0x01, 0xdb, 0xfc, 0x45, 0xdd, 0xd2,
    0xf2, 0x1f, 0xe1, 0x40, 0x0d, 0x10, 0xc7, 0xbe, 0x15, 0x24, 0xd1, 0xfe,
    0xf3, 0xef, 0xde, 0xcc, 0x14, 0xf9, 0xfe, 0xc0, 0x00, 0xd9, 0xd8, 0xc0,
    0x14, 0xfd, 0xed, 0xbf, 0x03, 0xa3, 0x1c, 0xc4, 0xff, 0x12, 0x09, 0x9e,
    0x12, 0xb8, 0x11, 0xc3, 0xf9, 0xe5, 0xed, 0x97, 0x0d, 0xde, 0x07, 0xd7,
    0xf2, 0xeb, 0x11, 0xa3, 0x1a, 0xe4, 0x10, 0xd9, 0x07, 0x0b, 0xfc, 0xc3,
    0xbc, 0xf5, 0xff, 0xff, 0x1a, 0xf9, 0xff, 0xff, 0x04, 0x00, 0x00, 0x00,
    0x80, 0x02, 0x00, 0x00, 0xba, 0x32, 0xfb, 0xd7, 0xda, 0x49, 0x0f, 0x36,
    0xc0, 0x02, 0xee, 0xf7, 0x3d, 0x7f, 0xf8, 0x57, 0xf1, 0x54, 0x33, 0xd6,
    0x1b, 0x61, 0x1d, 0x2d, 0xb8, 0x0f, 0x03, 0x2d, 0xbf, 0x54, 0x57, 0x59,
    0xf1, 0x3e, 0x45, 0xd9, 0x51, 0xed, 0x41, 0x13, 0xfa, 0xee, 0x1c, 0x3f,
    0x7f, 0x2e, 0x59, 0x02, 0xda, 0x03, 0x7f, 0xe6, 0xdb, 0xc4, 0x7f, 0xa8,
    0x1e, 0xdc, 0x40, 0x4d, 0xe8, 0xca, 0x5d, 0xbb, 0xf8, 0x2c, 0xdc, 0xbd,
    0xc0, 0x48, 0xf2, 0x3c, 0x2b, 0xf8, 0xcf, 0x12, 0xdc, 0x77, 0xf1, 0x53,
    0x19, 0x69, 0x27, 0xdf, 0xc9, 0x27, 0x04, 0x22, 0xaf, 0x0b, 0xe9, 0x12,
    0x06, 0x4c, 0x44, 0x29, 0x2c, 0x4e, 0x40, 0xdc, 0xe4, 0xe5, 0x45, 0xfd,
    0xdc, 0xe3, 0x01, 0x39, 0xf9, 0x01, 0x51, 0x03, 0x39, 0xfb, 0x68, 0xff,
    0x19, 0xb0, 0x6d, 0xb4, 0xcd, 0xbb, 0x39, 0x45, 0xf0, 0xc7, 0x4b, 0xbd,
    0xac, 0x46, 0xcd, 0xc5, 0x11, 0x47, 0xaf, 0x1b, 0xba, 0xe7, 0xb6, 0xdf,
    0xcb, 0x67, 0xc4, 0x3c, 0x0e, 0x62, 0x09, 0xe9, 0x8d, 0x10, 0xfb, 0x18,
    0xba, 0xfc, 0xd1, 0x03, 0xc3, 0x0e, 0xf3, 0x35, 0xf4, 0x48, 0x33, 0x00,
    0xb9, 0xf3, 0x0a, 0xf7, 0x14, 0xdd, 0xf4, 0x22, 0xb4, 0x0b, 0xf3, 0xe4,
    0x2e, 0xf9, 0x74, 0xe1, 0xe0, 0xa5, 0x16, 0xbf, 0x68, 0x9d, 0x35, 0x3d,
    0x29, 0xb3, 0xf8, 0xb1, 0xe0, 0x48, 0xc1, 0xd9, 0xc9, 0x4c, 0x89, 0x18,
    0x4c, 0xdd, 0xac, 0xf7, 0x4a, 0x68, 0xb6, 0x2b, 0x9c, 0x6c, 0x01, 0xdd,
    0xe1, 0x1e, 0xe0, 0x2d, 0x1f, 0xf6, 0xda, 0x14, 0xf2, 0x56, 0xe5, 0x12,
    0x10, 0x63, 0x38, 0xfc, 0xa4, 0xe3, 0xf8, 0x00, 0x51, 0xcd, 0xf4, 0x24,
    0xeb, 0xe5, 0xf0, 0xf3, 0x36, 0x17, 0x7b, 0xe8, 0x24, 0xb4, 0xf8, 0xb7,
    0xc7, 0x90, 0x39, 0x35, 0x40, 0xa1, 0xd8, 0xaa, 0xff, 0x3f, 0xba, 0xd6,
    0xbf, 0x6e, 0xa0, 0x30, 0xc7, 0xdf, 0xa2, 0xdb, 0xab, 0x61, 0xad, 0x2f,
    0x81, 0x71, 0xff, 0xe5, 0xdf, 0x2d, 0xc7, 0x3c, 0xd6, 0xe3, 0xd4, 0x14,
    0x15, 0x29, 0xe2, 0x0f, 0x0b, 0x5e, 0x33, 0xe4, 0x26, 0xe1, 0xc6, 0xfc,
    0x14, 0xc9, 0xf0, 0x30, 0x2c, 0xe6, 0xd6, 0xe5, 0x1d, 0x1e, 0x6e, 0x0c,
    0xfb, 0xb5, 0xc6, 0xb0, 0x02, 0x92, 0x36, 0x34, 0x17, 0xbf, 0xcb, 0xb4,
    0xa8, 0x48, 0xb9, 0xca, 0x18, 0x35, 0xfc, 0x34, 0xf9, 0xdc, 0xb6, 0xc2,
    0xe1, 0x32, 0xa7, 0x23, 0x39, 0x77, 0xf5, 0xef, 0x0f, 0x2f, 0xc9, 0x29,
    0xb5, 0xef, 0xcf, 0x11, 0xe6, 0x0a, 0xd9, 0x08, 0x90, 0x55, 0x28, 0xff,
    0xad, 0xd9, 0xf9, 0xfe, 0x72, 0xba, 0x07, 0x15, 0x5d, 0xc7, 0xc6, 0xd8,
    0xe6, 0x1c, 0x61, 0x10, 0x57, 0xa1, 0x08, 0xbf, 0x4c, 0xad, 0x38, 0x13,
    0x30, 0x82, 0xf8, 0x96, 0x32, 0x55, 0xb3, 0xcd, 0xff, 0x34, 0xdd, 0x4a,
    0x3c, 0xda, 0xa5, 0xda, 0xb8, 0x2f, 0xb2, 0x18, 0xca, 0x7f, 0xe2, 0x05,
    0xfe, 0x1a, 0xee, 0x4b, 0xbb, 0xec, 0xca, 0xe6, 0xfb, 0x07, 0xe6, 0x21,
    0xde, 0x62, 0x0d, 0x11, 0x0c, 0xee, 0x07, 0x1e, 0x61, 0xcd, 0xfd, 0x39,
    0xe0, 0xe7, 0x0d, 0xcc, 0xb7, 0x26, 0x49, 0x2c, 0x31, 0xc2, 0x1b, 0xca,
    0x1c, 0xa9, 0x32, 0x3a, 0x18, 0x9b, 0xe6, 0xa6, 0x24, 0x41, 0xaf, 0xdf,
    0x1b, 0x3d, 0x0e, 0x5a, 0x04, 0xe0, 0x9e, 0xdd, 0x2b, 0x18, 0xf0, 0x23,
    0xba, 0x75, 0xc9, 0x21, 0x45, 0x32, 0x07, 0x66, 0x0a, 0xd9, 0xc8, 0x0f,
    0x2a, 0xf8, 0xec, 0x17, 0x94, 0x66, 0xfd, 0x28, 0x1e, 0xee, 0x37, 0x25,
    0x28, 0xd6, 0xe7, 0x20, 0x37, 0xe8, 0x0f, 0xe7, 0xf6, 0x40, 0x0c, 0x2d,
    0x06, 0x94, 0x22, 0xe9, 0xf4, 0xa2, 0x10, 0x4a, 0x39, 0x9e, 0x37, 0x9f,
    0xd6, 0x59, 0xb4, 0xde, 0x2f, 0x4a, 0x2a, 0x75, 0x73, 0xeb, 0x9d, 0xe7,
    0x10, 0x2a, 0x1c, 0x4e, 0xea, 0x7a, 0xcd, 0x0f, 0x20, 0x0c, 0x24, 0x62,
    0xa5, 0xe9, 0xaf, 0x35, 0x04, 0xd8, 0x29, 0x33, 0xb6, 0x7f, 0xc6, 0x5d,
    0x46, 0xde, 0xfa, 0x4e, 0x64, 0xdf, 0xc2, 0x4b, 0x04, 0xba, 0xe1, 0xf9,
    0xac, 0x44, 0xde, 0x5a, 0x03, 0xbc, 0x26, 0x11, 0xea, 0xc6, 0xdb, 0x72,
    0x5e, 0x82, 0x44, 0xc7, 0x08, 0x67, 0xd4, 0x05, 0xa5, 0x20, 0x3e, 0x6e,
    0xfa, 0xe2, 0xa3, 0xe9, 0xfd, 0x2e, 0x04, 0x4e, 0x14, 0x77, 0xcb, 0x4e,
    0xda, 0x01, 0x2a, 0x7f, 0x4e, 0xeb, 0xaf, 0x34, 0x0b, 0xeb, 0x02, 0x21,
    0xf7, 0x64, 0xcd, 0x55, 0x38, 0xe9, 0x4a, 0x5b, 0xd4, 0xef, 0xab, 0x59,
    0xa6, 0xb6, 0xf8, 0x05, 0xec, 0x3a, 0xd9, 0x7f, 0xf7, 0xb1, 0x5a, 0x1c,
    0x49, 0xdc, 0xc4, 0x4d, 0xef, 0x97, 0x27, 0xe7, 0xa6, 0xfb, 0xff, 0xff,
    0x04, 0x00, 0x00, 0x00, 0x10, 0x00, 0x00, 0x00, 0xff, 0xff, 0xff, 0xff,
    0x31, 0x00, 0x00, 0x00, 0x28, 0x00, 0x00, 0x00, 0x01, 0x00, 0x00, 0x00,
    0x68, 0xf8, 0xff, 0xff, 0x6c, 0xf8, 0xff, 0xff, 0x70, 0xf8, 0xff, 0xff,
    0xce, 0xfb, 0xff, 0xff, 0x04, 0x00, 0x00, 0x00, 0x20, 0x00, 0x00, 0x00,
    0x1e, 0x00, 0x00, 0x00, 0xa8, 0xfe, 0xff, 0xff, 0x84, 0xff, 0xff, 0xff,
    0x00, 0x00, 0x00, 0x00, 0x01, 0x00, 0x00, 0x00, 0xe3, 0xff, 0xff, 0xff,
    0xb4, 0xff, 0xff, 0xff, 0xc3, 0xff, 0xff, 0xff, 0xfa, 0xfb, 0xff, 0xff,
    0x04, 0x00, 0x00, 0x00, 0x40, 0x02, 0x00, 0x00, 0x13, 0xfd, 0xfa, 0x05,
    0xf6, 0x00, 0xe9, 0xf6, 0x0e, 0x01, 0x02, 0xfd, 0xfc, 0x04, 0xfd, 0xf9,
    0x17, 0xfd, 0x0b, 0x0b, 0x0b, 0x0b, 0x06, 0x02, 0x26, 0xc5, 0xde, 0xdb,
    0xad, 0xd9, 0xc2, 0xaa, 0x1f, 0xe1, 0xf4, 0xe3, 0xe1, 0xfd, 0xe1, 0xeb,
    0x17, 0xfc, 0x09, 0x0a, 0xfc, 0x06, 0x03, 0xf9, 0x43, 0x99, 0xc2, 0xbd,
    0x95, 0xc4, 0xa3, 0x91, 0x19, 0xc8, 0xe7, 0xcb, 0xc8, 0xe7, 0xd0, 0xd1,
    0x0f, 0xf1, 0x09, 0xfd, 0xe0, 0x04, 0xfe, 0xcf, 0x7f, 0xea, 0xdb, 0x18,
    0xcc, 0xf0, 0xf3, 0xf5, 0x41, 0xb0, 0xcc, 0xfc, 0xdc, 0x05, 0xd6, 0xff,
    0x1f, 0xe9, 0x0d, 0x1a, 0xf8, 0x10, 0x03, 0x0a, 0xfc, 0xf8, 0xfa, 0xfe,
    0x01, 0x01, 0xff, 0x07, 0xfa, 0xfc, 0x02, 0xf7, 0xfe, 0x04, 0xf7, 0xff,
    0xf6, 0xfe, 0xfd, 0xfc, 0x03, 0xfa, 0x0a, 0xff, 0xf5, 0x01, 0x1d, 0x02,
    0xf8, 0x24, 0x03, 0xfb, 0xf3, 0x12, 0x1b, 0x14, 0x01, 0x18, 0x18, 0x08,
    0xf9, 0x05, 0xff, 0x01, 0x19, 0xfc, 0x05, 0x20, 0x0f, 0x0d, 0x3b, 0x08,
    0x0d, 0x35, 0x0d, 0x1a, 0xfb, 0x18, 0x22, 0x17, 0x05, 0x2c, 0x1b, 0x0d,
    0x00, 0x0e, 0xfd, 0x0b, 0x16, 0xfc, 0x17, 0x17, 0xfb, 0x01, 0x1d, 0xfd,
    0x0c, 0x17, 0xfc, 0x0f, 0xf1, 0x12, 0x1a, 0xfe, 0x01, 0x15, 0x0c, 0x00,
    0xfd, 0x0f, 0xfe, 0x01, 0xfe, 0xf8, 0x04, 0xf8, 0xfd, 0x02, 0xf8, 0x01,
    0x0a, 0x00, 0x13, 0x0f, 0xfa, 0xfd, 0x02, 0xfe, 0xf8, 0x02, 0xf8, 0xec,
    0xfb, 0xfd, 0xfe, 0xfe, 0x02, 0xfb, 0x05, 0xfc, 0xeb, 0x11, 0xcd, 0x06,
    0x35, 0xbb, 0x10, 0x3e, 0xfa, 0x1c, 0x10, 0x26, 0xf5, 0xff, 0x27, 0xed,
    0xf8, 0xf4, 0x03, 0x13, 0xca, 0xff, 0x0e, 0xc7, 0xd8, 0x1a, 0xa7, 0x08,
    0x31, 0x9d, 0x15, 0x39, 0xf9, 0x27, 0xff, 0x24, 0xf8, 0xf8, 0x27, 0xf2,
    0x01, 0x19, 0x06, 0x1d, 0xe5, 0x03, 0x27, 0xdf, 0xce, 0x08, 0xe2, 0xe3,
    0x0f, 0xd5, 0xfd, 0x06, 0xdd, 0x1b, 0xff, 0xef, 0x03, 0xf2, 0x0a, 0x01,
    0xfd, 0x25, 0x15, 0x1a, 0x11, 0x0a, 0x1c, 0x14, 0xf9, 0x03, 0x0d, 0xfe,
    0xf7, 0x09, 0xf9, 0xff, 0xf5, 0x03, 0xf9, 0x18, 0x02, 0xff, 0x27, 0xed,
    0xf2, 0x08, 0xfc, 0xf5, 0x00, 0xf9, 0x00, 0xfc, 0xf4, 0x03, 0x2e, 0x04,
    0xe7, 0x3c, 0x05, 0xde, 0xf9, 0x42, 0xf5, 0x3a, 0xfd, 0xcc, 0x44, 0xf1,
    0xfe, 0xe2, 0x00, 0xf9, 0xdb, 0xfb, 0xf0, 0xe6, 0xf1, 0x0c, 0x46, 0x0e,
    0xeb, 0x40, 0x0e, 0xdf, 0xf0, 0x41, 0xdf, 0x35, 0x07, 0xc3, 0x3c, 0x04,
    0x08, 0x0f, 0xff, 0x10, 0xeb, 0xfd, 0x1f, 0xea, 0xd8, 0xff, 0x1d, 0xfc,
    0xf7, 0x10, 0xfb, 0xea, 0xd1, 0x32, 0xfd, 0xf2, 0x0b, 0xe5, 0x1e, 0x07,
    0x08, 0x1c, 0x13, 0x12, 0x0e, 0x0a, 0x10, 0x17, 0x06, 0xf8, 0xf8, 0x02,
    0xfc, 0xff, 0x00, 0x01, 0x01, 0xfc, 0x00, 0xf5, 0xfb, 0x03, 0xf7, 0xfe,
    0x07, 0x06, 0x03, 0x08, 0x05, 0x06, 0x05, 0x15, 0x08, 0x0c, 0xd6, 0x03,
    0x18, 0xde, 0x0c, 0x2e, 0xfe, 0xdd, 0x20, 0xf9, 0x09, 0x1e, 0xde, 0x0c,
    0xf9, 0x0f, 0x03, 0xef, 0x3f, 0x01, 0xe8, 0x41, 0xfb, 0x18, 0xd7, 0x0c,
    0x22, 0xdc, 0x18, 0x30, 0x01, 0xe7, 0x29, 0x07, 0x0d, 0x2d, 0xec, 0x12,
    0xf1, 0xd9, 0xf5, 0xc8, 0x3c, 0xfc, 0xcd, 0x41, 0xf1, 0x08, 0xf7, 0x09,
    0x13, 0xf4, 0x0c, 0x10, 0x11, 0x00, 0x28, 0x16, 0x0b, 0x20, 0x09, 0x02,
    0xd0, 0xc7, 0xd1, 0xb7, 0x04, 0xdf, 0xc6, 0xf0, 0x02, 0x05, 0xff, 0x02,
    0xfc, 0x05, 0xfd, 0x00, 0xfe, 0xfc, 0xff, 0xea, 0x08, 0x04, 0xfe, 0x24,
    0xfe, 0xfe, 0xff, 0x06, 0xff, 0xfd, 0x03, 0xfc, 0xf1, 0x0d, 0x26, 0x0a,
    0x15, 0x30, 0x0b, 0x1b, 0xff, 0xda, 0xea, 0xbb, 0x1b, 0x04, 0xc0, 0x1f,
    0x08, 0x1e, 0xff, 0x01, 0x06, 0xfc, 0x0f, 0xfd, 0xf6, 0x15, 0x40, 0x16,
    0x11, 0x3d, 0x16, 0x19, 0xfe, 0xc6, 0xec, 0xc3, 0x21, 0x0f, 0xb9, 0x2a,
    0x07, 0x0a, 0xfb, 0x01, 0x0b, 0xfd, 0x04, 0x01, 0xda, 0x06, 0x1f, 0x0a,
    0x0d, 0x1c, 0x07, 0x03, 0x01, 0xef, 0xff, 0xf9, 0x11, 0xfb, 0xf7, 0x09,
    0x0d, 0xf4, 0xfc, 0xfd, 0xf4, 0xfa, 0xf8, 0xf4, 0x46, 0xfe, 0xff, 0xff,
    0x04, 0x00, 0x00, 0x00, 0x18, 0x00, 0x00, 0x00, 0x03, 0x01, 0x00, 0x00,
    0xc6, 0xfc, 0xff, 0xff, 0x5a, 0xff, 0xff, 0xff, 0x33, 0xfe, 0xff, 0xff,
    0x6e, 0x03, 0x00, 0x00, 0x3d, 0x01, 0x00, 0x00, 0x10, 0xfb, 0xff, 0xff,
    0x0f, 0x00, 0x00, 0x00, 0x54, 0x4f, 0x43, 0x4f, 0x20, 0x43, 0x6f, 0x6e,
    0x76, 0x65, 0x72, 0x74, 0x65, 0x64, 0x2e, 0x00, 0x01, 0x00, 0x00, 0x00,
    0x04, 0x00, 0x00, 0x00, 0x98, 0xf9, 0xff, 0xff, 0xb8, 0x01, 0x00, 0x00,
    0xac, 0x01, 0x00, 0x00, 0xa0, 0x01, 0x00, 0x00, 0x04, 0x00, 0x00, 0x00,
    0x05, 0x00, 0x00, 0x00, 0x44, 0x01, 0x00, 0x00, 0xdc, 0x00, 0x00, 0x00,
    0x90, 0x00, 0x00, 0x00, 0x48, 0x00, 0x00, 0x00, 0x04, 0x00, 0x00, 0x00,
    0xce, 0xff, 0xff, 0xff, 0x00, 0x00, 0x00, 0x09, 0x04, 0x00, 0x00, 0x00,
    0x1c, 0x00, 0x00, 0x00, 0x10, 0x00, 0x00, 0x00, 0x04, 0x00, 0x00, 0x00,
    0xce, 0xfe, 0xff, 0xff, 0x00, 0x00, 0x80, 0x3f, 0x01, 0x00, 0x00, 0x00,
    0x0b, 0x00, 0x00, 0x00, 0x01, 0x00, 0x00, 0x00, 0x08, 0x00, 0x00, 0x00,
    0x00, 0x00, 0x0e, 0x00, 0x18, 0x00, 0x08, 0x00, 0x0c, 0x00, 0x10, 0x00,
    0x07, 0x00, 0x14, 0x00, 0x0e, 0x00, 0x00, 0x00, 0x00, 0x00, 0x00, 0x08,
    0x02, 0x00, 0x00, 0x00, 0x18, 0x00, 0x00, 0x00, 0x0c, 0x00, 0x00, 0x00,
    0x04, 0x00, 0x00, 0x00, 0xb4, 0xfb, 0xff, 0xff, 0x01, 0x00, 0x00, 0x00,
    0x08, 0x00, 0x00, 0x00, 0x03, 0x00, 0x00, 0x00, 0x04, 0x00, 0x00, 0x00,
    0x09, 0x00, 0x00, 0x00, 0x02, 0x00, 0x00, 0x00, 0x00, 0x00, 0x0e, 0x00,
    0x14, 0x00, 0x00, 0x00, 0x08, 0x00, 0x0c, 0x00, 0x07, 0x00, 0x10, 0x00,
    0x0e, 0x00, 0x00, 0x00, 0x00, 0x00, 0x00, 0x01, 0x30, 0x00, 0x00, 0x00,
    0x24, 0x00, 0x00, 0x00, 0x10, 0x00, 0x00, 0x00, 0x0c, 0x00, 0x10, 0x00,
    0x00, 0x00, 0x08, 0x00, 0x0c, 0x00, 0x07, 0x00, 0x0c, 0x00, 0x00, 0x00,
    0x00, 0x00, 0x00, 0x01, 0x08, 0x00, 0x00, 0x00, 0x08, 0x00, 0x00, 0x00,
    0x01, 0x00, 0x00, 0x00, 0x04, 0x00, 0x00, 0x00, 0x03, 0x00, 0x00, 0x00,
    0x03, 0x00, 0x00, 0x00, 0x0c, 0x00, 0x00, 0x00, 0x00, 0x00, 0x00, 0x00,
    0xaa, 0xff, 0xff, 0xff, 0x00, 0x00, 0x00, 0x02, 0x01, 0x00, 0x00, 0x00,
    0x38, 0x00, 0x00, 0x00, 0x2c, 0x00, 0x00, 0x00, 0x14, 0x00, 0x00, 0x00,
    0x00, 0x00, 0x0e, 0x00, 0x14, 0x00, 0x00, 0x00, 0x08, 0x00, 0x0c, 0x00,
    0x10, 0x00, 0x07, 0x00, 0x0e, 0x00, 0x00, 0x00, 0x00, 0x00, 0x00, 0x01,
    0x02, 0x00, 0x00, 0x00, 0x02, 0x00, 0x00, 0x00, 0x08, 0x00, 0x00, 0x00,
    0x01, 0x00, 0x00, 0x00, 0x03, 0x00, 0x00, 0x00, 0x03, 0x00, 0x00, 0x00,
    0x06, 0x00, 0x00, 0x00, 0x0a, 0x00, 0x00, 0x00, 0x01, 0x00, 0x00, 0x00,
    0x00, 0x00, 0x0e, 0x00, 0x1a, 0x00, 0x08, 0x00, 0x0c, 0x00, 0x10, 0x00,
    0x07, 0x00, 0x14, 0x00, 0x0e, 0x00, 0x00, 0x00, 0x00, 0x00, 0x00, 0x11,
    0x03, 0x00, 0x00, 0x00, 0x38, 0x00, 0x00, 0x00, 0x2c, 0x00, 0x00, 0x00,
    0x0c, 0x00, 0x00, 0x00, 0x00, 0x00, 0x06, 0x00, 0x08, 0x00, 0x04, 0x00,
    0x06, 0x00, 0x00, 0x00, 0x04, 0x00, 0x00, 0x00, 0x04, 0x00, 0x00, 0x00,
    0xff, 0xff, 0xff, 0xff, 0x31, 0x00, 0x00, 0x00, 0x28, 0x00, 0x00, 0x00,
    0x01, 0x00, 0x00, 0x00, 0x01, 0x00, 0x00, 0x00, 0x06, 0x00, 0x00, 0x00,
    0x02, 0x00, 0x00, 0x00, 0x05, 0x00, 0x00, 0x00, 0x07, 0x00, 0x00, 0x00,
    0x01, 0x00, 0x00, 0x00, 0x0b, 0x00, 0x00, 0x00, 0x01, 0x00, 0x00, 0x00,
    0x05, 0x00, 0x00, 0x00, 0x0d, 0x00, 0x00, 0x00, 0x10, 0x06, 0x00, 0x00,
    0x58, 0x05, 0x00, 0x00, 0x04, 0x05, 0x00, 0x00, 0x84, 0x04, 0x00, 0x00,
    0x0c, 0x04, 0x00, 0x00, 0x98, 0x03, 0x00, 0x00, 0x1c, 0x03, 0x00, 0x00,
    0xdc, 0x02, 0x00, 0x00, 0x6c, 0x02, 0x00, 0x00, 0x00, 0x02, 0x00, 0x00,
    0x2c, 0x01, 0x00, 0x00, 0xc0, 0x00, 0x00, 0x00, 0x04, 0x00, 0x00, 0x00,
    0x32, 0xfa, 0xff, 0xff, 0x00, 0x00, 0x00, 0x09, 0x9c, 0x00, 0x00, 0x00,
    0x0a, 0x00, 0x00, 0x00, 0x7c, 0x00, 0x00, 0x00, 0x04, 0x00, 0x00, 0x00,
    0x24, 0xfa, 0xff, 0xff, 0x4c, 0x00, 0x00, 0x00, 0x04, 0x00, 0x00, 0x00,
    0x08, 0x00, 0x00, 0x00, 0x00, 0x00, 0x00, 0x00, 0x00, 0x00, 0x00, 0x00,
    0x00, 0x00, 0x00, 0x00, 0x00, 0x00, 0x00, 0x00, 0x00, 0x00, 0x00, 0x00,
    0x00, 0x00, 0x00, 0x00, 0x00, 0x00, 0x00, 0x00, 0x00, 0x00, 0x00, 0x00,
    0x00, 0x00, 0x00, 0x00, 0x00, 0x00, 0x00, 0x00, 0x00, 0x00, 0x00, 0x00,
    0x00, 0x00, 0x00, 0x00, 0x00, 0x00, 0x00, 0x00, 0x00, 0x00, 0x00, 0x00,
    0x00, 0x00, 0x00, 0x00, 0x00, 0x00, 0x00, 0x00, 0x08, 0x00, 0x00, 0x00,
    0xc2, 0x9b, 0xc5, 0x39, 0x09, 0x80, 0x19, 0x3a, 0x46, 0xfc, 0x05, 0x3a,
    0x35, 0xc5, 0x0a, 0x3a, 0x03, 0xfa, 0xe5, 0x39, 0x6b, 0xdf, 0xfd, 0x39,
    0x08, 0xc7, 0x0e, 0x3a, 0xe7, 0x53, 0x18, 0x3a, 0x13, 0x00, 0x00, 0x00,
    0x73, 0x65, 0x63, 0x6f, 0x6e, 0x64, 0x5f, 0x77, 0x65, 0x69, 0x67, 0x68,
    0x74, 0x73, 0x2f, 0x72, 0x65, 0x61, 0x64, 0x00, 0x04, 0x00, 0x00, 0x00,
    0x08, 0x00, 0x00, 0x00, 0x0a, 0x00, 0x00, 0x00, 0x08, 0x00, 0x00, 0x00,
    0x08, 0x00, 0x00, 0x00, 0xea, 0xfa, 0xff, 0xff, 0x00, 0x00, 0x00, 0x09,
    0x44, 0x00, 0x00, 0x00, 0x0b, 0x00, 0x00, 0x00, 0x28, 0x00, 0x00, 0x00,
    0x04, 0x00, 0x00, 0x00, 0xdc, 0xfa, 0xff, 0xff, 0x14, 0x00, 0x00, 0x00,
    0x04, 0x00, 0x00, 0x00, 0x01, 0x00, 0x00, 0x00, 0x80, 0xff, 0xff, 0xff,
    0xff, 0xff, 0xff, 0xff, 0x01, 0x00, 0x00, 0x00, 0x00, 0x00, 0x80, 0x3b,
    0x0e, 0x00, 0x00, 0x00, 0x6c, 0x61, 0x62, 0x65, 0x6c, 0x73, 0x5f, 0x73,
    0x6f, 0x66, 0x74, 0x6d, 0x61, 0x78, 0x00, 0x00, 0x02, 0x00, 0x00, 0x00,
    0x01, 0x00, 0x00, 0x00, 0x06, 0x00, 0x00, 0x00, 0x00, 0x00, 0x0e, 0x00,
    0x1a, 0x00, 0x08, 0x00, 0x07, 0x00, 0x0c, 0x00, 0x10, 0x00, 0x14, 0x00,
    0x0e, 0x00, 0x00, 0x00, 0x00, 0x00, 0x00, 0x09, 0xb4, 0x00, 0x00, 0x00,
    0x08, 0x00, 0x00, 0x00, 0x94, 0x00, 0x00, 0x00, 0x18, 0x00, 0x00, 0x00,
    0x00, 0x00, 0x12, 0x00, 0x10, 0x00, 0x00, 0x00, 0x00, 0x00, 0x04, 0x00,
    0x08, 0x00, 0x00, 0x00, 0x00, 0x00, 0x0c, 0x00, 0x12, 0x00, 0x00, 0x00,
    0x50, 0x00, 0x00, 0x00, 0x08, 0x00, 0x00, 0x00, 0x03, 0x00, 0x00, 0x00,
    0x08, 0x00, 0x00, 0x00, 0x00, 0x00, 0x00, 0x00, 0x00, 0x00, 0x00, 0x00,
    0x00, 0x00, 0x00, 0x00, 0x00, 0x00, 0x00, 0x00, 0x00, 0x00, 0x00, 0x00,
    0x00, 0x00, 0x00, 0x00, 0x00, 0x00, 0x00, 0x00, 0x00, 0x00, 0x00, 0x00,
    0x00, 0x00, 0x00, 0x00, 0x00, 0x00, 0x00, 0x00, 0x00, 0x00, 0x00, 0x00,
    0x00, 0x00, 0x00, 0x00, 0x00, 0x00, 0x00, 0x00, 0x00, 0x00, 0x00, 0x00,
    0x00, 0x00, 0x00, 0x00, 0x00, 0x00, 0x00, 0x00, 0x08, 0x00, 0x00, 0x00,
    0x52, 0xd0, 0x20, 0x39, 0xe3, 0xbf, 0x46, 0x3a, 0x0d, 0xb3, 0x95, 0x3a,
    0xd3, 0xd1, 0x1f, 0x3a, 0xc9, 0x0c, 0x3a, 0x39, 0x3d, 0x8d, 0x00, 0x3a,
    0xf9, 0xfe, 0xab, 0x39, 0xed, 0x0e, 0x45, 0x3a, 0x12, 0x00, 0x00, 0x00,
    0x66, 0x69, 0x72, 0x73, 0x74, 0x5f, 0x77, 0x65, 0x69, 0x67, 0x68, 0x74,
    0x73, 0x2f, 0x72, 0x65, 0x61, 0x64, 0x00, 0x00, 0x04, 0x00, 0x00, 0x00,
    0x01, 0x00, 0x00, 0x00, 0x0a, 0x00, 0x00, 0x00, 0x08, 0x00, 0x00, 0x00,
    0x08, 0x00, 0x00, 0x00, 0x22, 0xfc, 0xff, 0xff, 0x00, 0x00, 0x00, 0x09,
    0x54, 0x00, 0x00, 0x00, 0x02, 0x00, 0x00, 0x00, 0x28, 0x00, 0x00, 0x00,
    0x04, 0x00, 0x00, 0x00, 0x14, 0xfc, 0xff, 0xff, 0x14, 0x00, 0x00, 0x00,
    0x04, 0x00, 0x00, 0x00, 0x01, 0x00, 0x00, 0x00, 0x00, 0x00, 0x00, 0x00,
    0x00, 0x00, 0x00, 0x00, 0x01, 0x00, 0x00, 0x00, 0x8f, 0x5f, 0xd1, 0x3a,
    0x1f, 0x00, 0x00, 0x00, 0x66, 0x69, 0x6e, 0x61, 0x6c, 0x5f, 0x66, 0x63,
    0x5f, 0x77, 0x65, 0x69, 0x67, 0x68, 0x74, 0x73, 0x2f, 0x72, 0x65, 0x61,
    0x64, 0x2f, 0x74, 0x72, 0x61, 0x6e, 0x73, 0x70, 0x6f, 0x73, 0x65, 0x00,
    0x02, 0x00, 0x00, 0x00, 0x06, 0x00, 0x00, 0x00, 0x60, 0x00, 0x00, 0x00,
    0x8a, 0xfc, 0xff, 0xff, 0x00, 0x00, 0x00, 0x09, 0x58, 0x00, 0x00, 0x00,
    0x04, 0x00, 0x00, 0x00, 0x44, 0x00, 0x00, 0x00, 0x04, 0x00, 0x00, 0x00,
    0xfc, 0xfd, 0xff, 0xff, 0x30, 0x00, 0x00, 0x00, 0x24, 0x00, 0x00, 0x00,
    0x18, 0x00, 0x00, 0x00, 0x04, 0x00, 0x00, 0x00, 0x01, 0x00, 0x00, 0x00,
    0x0d, 0x00, 0x00, 0x00, 0x00, 0x00, 0x00, 0x00, 0x00, 0x00, 0x00, 0x00,
    0x01, 0x00, 0x00, 0x00, 0xbd, 0x32, 0x85, 0x3d, 0x01, 0x00, 0x00, 0x00,
    0x2e, 0xa7, 0xec, 0x40, 0x01, 0x00, 0x00, 0x00, 0x7c, 0x07, 0x13, 0xc1,
    0x05, 0x00, 0x00, 0x00, 0x61, 0x64, 0x64, 0x5f, 0x32, 0x00, 0x00, 0x00,
    0x02, 0x00, 0x00, 0x00, 0x01, 0x00, 0x00, 0x00, 0x06, 0x00, 0x00, 0x00,
    0xf6, 0xfc, 0xff, 0xff, 0x00, 0x00, 0x00, 0x02, 0x2c, 0x00, 0x00, 0x00,
    0x07, 0x00, 0x00, 0x00, 0x10, 0x00, 0x00, 0x00, 0x08, 0x00, 0x00, 0x00,
    0x04, 0x00, 0x04, 0x00, 0x04, 0x00, 0x00, 0x00, 0x0f, 0x00, 0x00, 0x00,
    0x52, 0x65, 0x73, 0x68, 0x61, 0x70, 0x65, 0x5f, 0x32, 0x2f, 0x73, 0x68,
    0x61, 0x70, 0x65, 0x00, 0x01, 0x00, 0x00, 0x00, 0x04, 0x00, 0x00, 0x00,
    0x32, 0xfd, 0xff, 0xff, 0x00, 0x00, 0x00, 0x09, 0x5c, 0x00, 0x00, 0x00,
    0x06, 0x00, 0x00, 0x00, 0x44, 0x00, 0x00, 0x00, 0x04, 0x00, 0x00, 0x00,
    0xa4, 0xfe, 0xff, 0xff, 0x30, 0x00, 0x00, 0x00, 0x24, 0x00, 0x00, 0x00,
    0x18, 0x00, 0x00, 0x00, 0x04, 0x00, 0x00, 0x00, 0x01, 0x00, 0x00, 0x00,
    0x80, 0xff, 0xff, 0xff, 0xff, 0xff, 0xff, 0xff, 0x00, 0x00, 0x00, 0x00,
    0x01, 0x00, 0x00, 0x00, 0x00, 0x00, 0xd0, 0x3d, 0x01, 0x00, 0x00, 0x00,
    0x00, 0x30, 0xcf, 0x41, 0x01, 0x00, 0x00, 0x00, 0x00, 0x00, 0x00, 0x00,
    0x09, 0x00, 0x00, 0x00, 0x52, 0x65, 0x73, 0x68, 0x61, 0x70, 0x65, 0x5f,
    0x32, 0x00, 0x00, 0x00, 0x04, 0x00, 0x00, 0x00, 0x01, 0x00, 0x00, 0x00,
    0x31, 0x00, 0x00, 0x00, 0x28, 0x00, 0x00, 0x00, 0x01, 0x00, 0x00, 0x00,
    0xaa, 0xfd, 0xff, 0xff, 0x00, 0x00, 0x00, 0x09, 0x5c, 0x00, 0x00, 0x00,
    0x0d, 0x00, 0x00, 0x00, 0x44, 0x00, 0x00, 0x00, 0x04, 0x00, 0x00, 0x00,
    0x1c, 0xff, 0xff, 0xff, 0x30, 0x00, 0x00, 0x00, 0x24, 0x00, 0x00, 0x00,
    0x18, 0x00, 0x00, 0x00, 0x04, 0x00, 0x00, 0x00, 0x01, 0x00, 0x00, 0x00,
    0x80, 0xff, 0xff, 0xff, 0xff, 0xff, 0xff, 0xff, 0x00, 0x00, 0x00, 0x00,
    0x01, 0x00, 0x00, 0x00, 0x00, 0x00, 0xd0, 0x3d, 0x01, 0x00, 0x00, 0x00,
    0x00, 0x30, 0xcf, 0x41, 0x01, 0x00, 0x00, 0x00, 0x00, 0x00, 0x00, 0x00,
    0x09, 0x00, 0x00, 0x00, 0x52, 0x65, 0x73, 0x68, 0x61, 0x70, 0x65, 0x5f,
    0x31, 0x00, 0x00, 0x00, 0x02, 0x00, 0x00, 0x00, 0x01, 0x00, 0x00, 0x00,
    0xa8, 0x07, 0x00, 0x00, 0x1a, 0xfe, 0xff, 0xff, 0x00, 0x00, 0x00, 0x09,
    0x58, 0x00, 0x00, 0x00, 0x05, 0x00, 0x00, 0x00, 0x44, 0x00, 0x00, 0x00,
    0x04, 0x00, 0x00, 0x00, 0x8c, 0xff, 0xff, 0xff, 0x30, 0x00, 0x00, 0x00,
    0x24, 0x00, 0x00, 0x00, 0x18, 0x00, 0x00, 0x00, 0x04, 0x00, 0x00, 0x00,
    0x01, 0x00, 0x00, 0x00, 0x80, 0xff, 0xff, 0xff, 0xff, 0xff, 0xff, 0xff,
    0x00, 0x00, 0x00, 0x00, 0x01, 0x00, 0x00, 0x00, 0x9f, 0xe3, 0x93, 0x3d,
    0x01, 0x00, 0x00, 0x00, 0xbb, 0x4f, 0x93, 0x41, 0x01, 0x00, 0x00, 0x00,
    0x00, 0x00, 0x00, 0x00, 0x06, 0x00, 0x00, 0x00, 0x52, 0x65, 0x6c, 0x75,
    0x5f, 0x31, 0x00, 0x00, 0x04, 0x00, 0x00, 0x00, 0x01, 0x00, 0x00, 0x00,
    0x04, 0x00, 0x00, 0x00, 0x03, 0x00, 0x00, 0x00, 0x08, 0x00, 0x00, 0x00,
    0x8e, 0xfe, 0xff, 0xff, 0x00, 0x00, 0x00, 0x09, 0x60, 0x00, 0x00, 0x00,
    0x09, 0x00, 0x00, 0x00, 0x4c, 0x00, 0x00, 0x00, 0x10, 0x00, 0x00, 0x00,
    0x0c, 0x00, 0x14, 0x00, 0x04, 0x00, 0x08, 0x00, 0x0c, 0x00, 0x10, 0x00,
    0x0c, 0x00, 0x00, 0x00, 0x2c, 0x00, 0x00, 0x00, 0x20, 0x00, 0x00, 0x00,
    0x14, 0x00, 0x00, 0x00, 0x04, 0x00, 0x00, 0x00, 0x01, 0x00, 0x00, 0x00,
    0x80, 0xff, 0xff, 0xff, 0xff, 0xff, 0xff, 0xff, 0x01, 0x00, 0x00, 0x00,
    0x11, 0x15, 0x17, 0x3e, 0x01, 0x00, 0x00, 0x00, 0xfc, 0x7d, 0x16, 0x42,
    0x01, 0x00, 0x00, 0x00, 0x00, 0x00, 0x00, 0x00, 0x04, 0x00, 0x00, 0x00,
    0x52, 0x65, 0x6c, 0x75, 0x00, 0x00, 0x00, 0x00, 0x04, 0x00, 0x00, 0x00,
    0x01, 0x00, 0x00, 0x00, 0x19, 0x00, 0x00, 0x00, 0x14, 0x00, 0x00, 0x00,
    0x08, 0x00, 0x00, 0x00, 0x0a, 0xff, 0xff, 0xff, 0x00, 0x00, 0x00, 0x02,
    0x40, 0x00, 0x00, 0x00, 0x01, 0x00, 0x00, 0x00, 0x28, 0x00, 0x00, 0x00,
    0x04, 0x00, 0x00, 0x00, 0xfc, 0xfe, 0xff, 0xff, 0x14, 0x00, 0x00, 0x00,
    0x04, 0x00, 0x00, 0x00, 0x01, 0x00, 0x00, 0x00, 0x00, 0x00, 0x00, 0x00,
    0x00, 0x00, 0x00, 0x00, 0x01, 0x00, 0x00, 0x00, 0x12, 0xe8, 0xf1, 0x38,
    0x0b, 0x00, 0x00, 0x00, 0x4d, 0x61, 0x74, 0x4d, 0x75, 0x6c, 0x5f, 0x62,
    0x69, 0x61, 0x73, 0x00, 0x01, 0x00, 0x00, 0x00, 0x06, 0x00, 0x00, 0x00,
    0x5a, 0xff, 0xff, 0xff, 0x00, 0x00, 0x00, 0x02, 0x94, 0x00, 0x00, 0x00,
    0x03, 0x00, 0x00, 0x00, 0x7c, 0x00, 0x00, 0x00, 0x04, 0x00, 0x00, 0x00,
    0x4c, 0xff, 0xff, 0xff, 0x4c, 0x00, 0x00, 0x00, 0x04, 0x00, 0x00, 0x00,
    0x08, 0x00, 0x00, 0x00, 0x00, 0x00, 0x00, 0x00, 0x00, 0x00, 0x00, 0x00,
    0x00, 0x00, 0x00, 0x00, 0x00, 0x00, 0x00, 0x00, 0x00, 0x00, 0x00, 0x00,
    0x00, 0x00, 0x00, 0x00, 0x00, 0x00, 0x00, 0x00, 0x00, 0x00, 0x00, 0x00,
    0x00, 0x00, 0x00, 0x00, 0x00, 0x00, 0x00, 0x00, 0x00, 0x00, 0x00, 0x00,
    0x00, 0x00, 0x00, 0x00, 0x00, 0x00, 0x00, 0x00, 0x00, 0x00, 0x00, 0x00,
    0x00, 0x00, 0x00, 0x00, 0x00, 0x00, 0x00, 0x00, 0x08, 0x00, 0x00, 0x00,
    0x43, 0xa9, 0x82, 0x37, 0xe8, 0x7b, 0xa1, 0x38, 0xf5, 0x42, 0xf3, 0x38,
    0x7b, 0xda, 0x81, 0x38, 0x63, 0x2a, 0x97, 0x37, 0x83, 0xe5, 0x50, 0x38,
    0x2a, 0xbf, 0x0b, 0x38, 0x21, 0x1c, 0xa0, 0x38, 0x0b, 0x00, 0x00, 0x00,
    0x43, 0x6f, 0x6e, 0x76, 0x32, 0x44, 0x5f, 0x62, 0x69, 0x61, 0x73, 0x00,
    0x01, 0x00, 0x00, 0x00, 0x08, 0x00, 0x00, 0x00, 0x00, 0x00, 0x0e, 0x00,
    0x18, 0x00, 0x08, 0x00, 0x07, 0x00, 0x0c, 0x00, 0x10, 0x00, 0x14, 0x00,
    0x0e, 0x00, 0x00, 0x00, 0x00, 0x00, 0x00, 0x02, 0xa4, 0x00, 0x00, 0x00,
    0x0c, 0x00, 0x00, 0x00, 0x88, 0x00, 0x00, 0x00, 0x10, 0x00, 0x00, 0x00,
    0x0c, 0x00, 0x0c, 0x00, 0x00, 0x00, 0x00, 0x00, 0x04, 0x00, 0x08, 0x00,
    0x0c, 0x00, 0x00, 0x00, 0x4c, 0x00, 0x00, 0x00, 0x04, 0x00, 0x00, 0x00,
    0x08, 0x00, 0x00, 0x00, 0x00, 0x00, 0x00, 0x00, 0x00, 0x00, 0x00, 0x00,
    0x00, 0x00, 0x00, 0x00, 0x00, 0x00, 0x00, 0x00, 0x00, 0x00, 0x00, 0x00,
    0x00, 0x00, 0x00, 0x00, 0x00, 0x00, 0x00, 0x00, 0x00, 0x00, 0x00, 0x00,
    0x00, 0x00, 0x00, 0x00, 0x00, 0x00, 0x00, 0x00, 0x00, 0x00, 0x00, 0x00,
    0x00, 0x00, 0x00, 0x00, 0x00, 0x00, 0x00, 0x00, 0x00, 0x00, 0x00, 0x00,
    0x00, 0x00, 0x00, 0x00, 0x00, 0x00, 0x00, 0x00, 0x08, 0x00, 0x00, 0x00,
    0x45, 0x3e, 0x69, 0x38, 0x4e, 0x2e, 0xb5, 0x38, 0xa8, 0x25, 0x9e, 0x38,
    0x7b, 0xcb, 0xa3, 0x38, 0x65, 0xb9, 0x87, 0x38, 0xac, 0xd3, 0x95, 0x38,
    0x4b, 0x86, 0xa8, 0x38, 0x0d, 0xcc, 0xb3, 0x38, 0x0d, 0x00, 0x00, 0x00,
    0x43, 0x6f, 0x6e, 0x76, 0x32, 0x44, 0x5f, 0x31, 0x5f, 0x62, 0x69, 0x61,
    0x73, 0x00, 0x00, 0x00, 0x01, 0x00, 0x00, 0x00, 0x08, 0x00, 0x00, 0x00,
    0x05, 0x00, 0x00, 0x00, 0x60, 0x00, 0x00, 0x00, 0x44, 0x00, 0x00, 0x00,
    0x28, 0x00, 0x00, 0x00, 0x1c, 0x00, 0x00, 0x00, 0x04, 0x00, 0x00, 0x00,
    0xd6, 0xff, 0xff, 0xff, 0x00, 0x00, 0x00, 0x19, 0x02, 0x00, 0x00, 0x00,
    0x00, 0x00, 0x06, 0x00, 0x08, 0x00, 0x07, 0x00, 0x06, 0x00, 0x00, 0x00,
    0x00, 0x00, 0x00, 0x16, 0xf2, 0xff, 0xff, 0xff, 0x00, 0x00, 0x00, 0x09,
    0x04, 0x00, 0x00, 0x00, 0x00, 0x00, 0x0a, 0x00, 0x0e, 0x00, 0x07, 0x00,
    0x00, 0x00, 0x08, 0x00, 0x0a, 0x00, 0x00, 0x00, 0x00, 0x00, 0x00, 0x04,
    0x03, 0x00, 0x00, 0x00, 0x00, 0x00, 0x0a, 0x00, 0x0c, 0x00, 0x07, 0x00,
    0x00, 0x00, 0x08, 0x00, 0x0a, 0x00, 0x00, 0x00, 0x00, 0x00, 0x00, 0x03,
    0x03, 0x00, 0x00, 0x00};
const int g_model_len = 9064;
